#ifndef MODEL_25HZ_H
#define MODEL_25HZ_H

const unsigned char model_25hz_tflite[] = {
  0x1c, 0x00, 0x00, 0x00, 0x54, 0x46, 0x4c, 0x33,
  0x14, 0x00, 0x20, 0x00, 0x1c, 0x00, 0x18, 0x00,
  0x14, 0x00, 0x10, 0x00, 0x0c, 0x00, 0x00, 0x00,
  0x08, 0x00, 0x04, 0x00, 0x14, 0x00, 0x00, 0x00,
  0x1c, 0x00, 0x00, 0x00, 0x80, 0x00, 0x00, 0x00,
  0xd8, 0x00, 0x00, 0x00, 0x70, 0x1c, 0x00, 0x00,
  0x80, 0x1c, 0x00, 0x00, 0x84, 0x33, 0x00, 0x00,
  0x03, 0x00, 0x00, 0x00, 0x01, 0x00, 0x00, 0x00,
  0x04, 0x00, 0x00, 0x00, 0x56, 0xe1, 0xff, 0xff,
  0x0c, 0x00, 0x00, 0x00, 0x1c, 0x00, 0x00, 0x00,
  0x38, 0x00, 0x00, 0x00, 0x0f, 0x00, 0x00, 0x00,
  0x73, 0x65, 0x72, 0x76, 0x69, 0x6e, 0x67, 0x5f,
  0x64, 0x65, 0x66, 0x61, 0x75, 0x6c, 0x74, 0x00,
  0x01, 0x00, 0x00, 0x00, 0x04, 0x00, 0x00, 0x00,
  0x9c, 0xff, 0xff, 0xff, 0x1b, 0x00, 0x00, 0x00,
  0x04, 0x00, 0x00, 0x00, 0x07, 0x00, 0x00, 0x00,
  0x64, 0x65, 0x6e, 0x73, 0x65, 0x5f, 0x32, 0x00,
  0x01, 0x00, 0x00, 0x00, 0x04, 0x00, 0x00, 0x00,
  0x32, 0xe3, 0xff, 0xff, 0x04, 0x00, 0x00, 0x00,
  0x07, 0x00, 0x00, 0x00, 0x69, 0x6e, 0x70, 0x75,
  0x74, 0x5f, 0x31, 0x00, 0x02, 0x00, 0x00, 0x00,
  0x34, 0x00, 0x00, 0x00, 0x04, 0x00, 0x00, 0x00,
  0xdc, 0xff, 0xff, 0xff, 0x1e, 0x00, 0x00, 0x00,
  0x04, 0x00, 0x00, 0x00, 0x13, 0x00, 0x00, 0x00,
  0x43, 0x4f, 0x4e, 0x56, 0x45, 0x52, 0x53, 0x49,
  0x4f, 0x4e, 0x5f, 0x4d, 0x45, 0x54, 0x41, 0x44,
  0x41, 0x54, 0x41, 0x00, 0x08, 0x00, 0x0c, 0x00,
  0x08, 0x00, 0x04, 0x00, 0x08, 0x00, 0x00, 0x00,
  0x1d, 0x00, 0x00, 0x00, 0x04, 0x00, 0x00, 0x00,
  0x13, 0x00, 0x00, 0x00, 0x6d, 0x69, 0x6e, 0x5f,
  0x72, 0x75, 0x6e, 0x74, 0x69, 0x6d, 0x65, 0x5f,
  0x76, 0x65, 0x72, 0x73, 0x69, 0x6f, 0x6e, 0x00,
  0x1f, 0x00, 0x00, 0x00, 0x94, 0x1b, 0x00, 0x00,
  0x8c, 0x1b, 0x00, 0x00, 0x78, 0x1b, 0x00, 0x00,
  0x5c, 0x1b, 0x00, 0x00, 0x40, 0x1b, 0x00, 0x00,
  0x2c, 0x1b, 0x00, 0x00, 0x14, 0x1b, 0x00, 0x00,
  0xe4, 0x1a, 0x00, 0x00, 0x94, 0x1a, 0x00, 0x00,
  0x84, 0x18, 0x00, 0x00, 0xf4, 0x17, 0x00, 0x00,
  0xe4, 0x13, 0x00, 0x00, 0x54, 0x13, 0x00, 0x00,
  0x44, 0x04, 0x00, 0x00, 0xd4, 0x03, 0x00, 0x00,
  0xf4, 0x00, 0x00, 0x00, 0xec, 0x00, 0x00, 0x00,
  0xe4, 0x00, 0x00, 0x00, 0xdc, 0x00, 0x00, 0x00,
  0xd4, 0x00, 0x00, 0x00, 0xcc, 0x00, 0x00, 0x00,
  0xc4, 0x00, 0x00, 0x00, 0xbc, 0x00, 0x00, 0x00,
  0xb4, 0x00, 0x00, 0x00, 0xac, 0x00, 0x00, 0x00,
  0xa4, 0x00, 0x00, 0x00, 0x9c, 0x00, 0x00, 0x00,
  0x94, 0x00, 0x00, 0x00, 0x8c, 0x00, 0x00, 0x00,
  0x6c, 0x00, 0x00, 0x00, 0x04, 0x00, 0x00, 0x00,
  0x22, 0xe4, 0xff, 0xff, 0x04, 0x00, 0x00, 0x00,
  0x58, 0x00, 0x00, 0x00, 0x0c, 0x00, 0x00, 0x00,
  0x08, 0x00, 0x0e, 0x00, 0x08, 0x00, 0x04, 0x00,
  0x08, 0x00, 0x00, 0x00, 0x10, 0x00, 0x00, 0x00,
  0x28, 0x00, 0x00, 0x00, 0x00, 0x00, 0x06, 0x00,
  0x08, 0x00, 0x04, 0x00, 0x06, 0x00, 0x00, 0x00,
  0x04, 0x00, 0x00, 0x00, 0x01, 0x00, 0x00, 0x00,
  0xeb, 0x03, 0x00, 0x00, 0x00, 0x00, 0x0a, 0x00,
  0x10, 0x00, 0x0c, 0x00, 0x08, 0x00, 0x04, 0x00,
  0x0a, 0x00, 0x00, 0x00, 0x02, 0x00, 0x00, 0x00,
  0x02, 0x00, 0x00, 0x00, 0x04, 0x00, 0x00, 0x00,
  0x06, 0x00, 0x00, 0x00, 0x32, 0x2e, 0x31, 0x30,
  0x2e, 0x30, 0x00, 0x00, 0x86, 0xe4, 0xff, 0xff,
  0x04, 0x00, 0x00, 0x00, 0x10, 0x00, 0x00, 0x00,
  0x31, 0x2e, 0x31, 0x34, 0x2e, 0x30, 0x00, 0x00,
  0x00, 0x00, 0x00, 0x00, 0x00, 0x00, 0x00, 0x00,
  0x80, 0xce, 0xff, 0xff, 0x84, 0xce, 0xff, 0xff,
  0x88, 0xce, 0xff, 0xff, 0x8c, 0xce, 0xff, 0xff,
  0x90, 0xce, 0xff, 0xff, 0x94, 0xce, 0xff, 0xff,
  0x98, 0xce, 0xff, 0xff, 0x9c, 0xce, 0xff, 0xff,
  0xa0, 0xce, 0xff, 0xff, 0xa4, 0xce, 0xff, 0xff,
  0xa8, 0xce, 0xff, 0xff, 0xac, 0xce, 0xff, 0xff,
  0xb0, 0xce, 0xff, 0xff, 0xd6, 0xe4, 0xff, 0xff,
  0x04, 0x00, 0x00, 0x00, 0xd0, 0x02, 0x00, 0x00,
  0x31, 0x0a, 0x11, 0xde, 0x25, 0xe9, 0x50, 0xd9,
  0x1d, 0x0d, 0xbe, 0xff, 0xd4, 0xe7, 0x05, 0x3b,
  0xef, 0xfd, 0xaf, 0xed, 0x81, 0xfd, 0x0f, 0x00,
  0x0c, 0x44, 0x3d, 0xc2, 0x1e, 0xed, 0x2c, 0xb3,
  0x7f, 0xb3, 0xe5, 0xa0, 0x2f, 0xa7, 0x1a, 0xeb,
  0x3f, 0xc4, 0x3c, 0x94, 0x2e, 0xe4, 0xf0, 0xda,
  0x33, 0xae, 0x03, 0xcb, 0x3c, 0xc4, 0xe8, 0xd6,
  0xfb, 0xda, 0xed, 0x2b, 0x96, 0x9d, 0x38, 0xdc,
  0x12, 0x02, 0x2c, 0xbb, 0x65, 0x17, 0x11, 0x05,
  0x3e, 0xd4, 0x9f, 0xc8, 0xf2, 0xe8, 0x27, 0x7f,
  0xf0, 0x33, 0x18, 0xf9, 0xec, 0x54, 0xe7, 0xfa,
  0xde, 0xf5, 0x19, 0xdd, 0x03, 0x2b, 0x68, 0xd7,
  0xcf, 0xe3, 0xd1, 0x44, 0x20, 0xd0, 0x04, 0x42,
  0x3f, 0x15, 0x29, 0xea, 0xec, 0x30, 0xe0, 0x59,
  0x7f, 0xf6, 0xea, 0x0f, 0xcb, 0x56, 0x13, 0xff,
  0x06, 0x02, 0x68, 0x0b, 0xd6, 0x1d, 0x25, 0xd9,
  0x02, 0xa5, 0xa1, 0x97, 0x04, 0xbc, 0x15, 0xd0,
  0x9c, 0x2e, 0xe8, 0xa4, 0x1a, 0xd5, 0xb8, 0x04,
  0x9a, 0xb0, 0xea, 0xe9, 0xcf, 0x81, 0xb3, 0x3b,
  0xe2, 0x05, 0x41, 0x00, 0x01, 0xe6, 0xf8, 0xfc,
  0xce, 0x03, 0x7f, 0x6a, 0xf5, 0xfe, 0x31, 0xed,
  0x15, 0xe8, 0x6e, 0x14, 0xeb, 0x03, 0xde, 0x94,
  0xc5, 0x0c, 0xea, 0x00, 0x69, 0x75, 0xfc, 0xfc,
  0xda, 0x06, 0xd5, 0xcc, 0xe3, 0x36, 0x67, 0xec,
  0x3a, 0xd2, 0xf2, 0xd9, 0x35, 0x08, 0xd7, 0x20,
  0x0f, 0x23, 0xa6, 0xf6, 0x2a, 0x81, 0x17, 0xff,
  0xcb, 0xf5, 0x3b, 0xcb, 0x53, 0x7f, 0x13, 0xb9,
  0x1d, 0xe6, 0x72, 0x39, 0x32, 0x4a, 0x26, 0xd2,
  0x7f, 0x53, 0x1d, 0x52, 0x97, 0xda, 0x58, 0x26,
  0xeb, 0x26, 0x10, 0x1e, 0x5e, 0xdd, 0xf8, 0x4f,
  0x44, 0x00, 0x61, 0x0f, 0xe4, 0xde, 0xd6, 0x21,
  0x1b, 0x1f, 0x45, 0xca, 0x2b, 0xe4, 0x00, 0xe7,
  0xcf, 0x01, 0xe1, 0xe6, 0xf8, 0x16, 0x06, 0x05,
  0x7f, 0xcc, 0x6b, 0xd3, 0x05, 0x00, 0xc0, 0x05,
  0xb1, 0x38, 0x52, 0xe0, 0x81, 0xbc, 0xf7, 0x50,
  0xed, 0xee, 0x3e, 0x03, 0xbc, 0xbe, 0xc3, 0xec,
  0x26, 0xa3, 0x6e, 0xb8, 0x26, 0xf0, 0x5b, 0xed,
  0xe2, 0xd7, 0x2d, 0x06, 0x33, 0xd6, 0x7e, 0xc3,
  0x64, 0x4e, 0x0a, 0xf4, 0x37, 0xc0, 0x7c, 0xa8,
  0x40, 0xd2, 0xf3, 0xfb, 0x3d, 0xc3, 0x0c, 0xad,
  0x1b, 0xd5, 0x40, 0x81, 0x55, 0xa4, 0x24, 0xd6,
  0x46, 0x1f, 0xa5, 0xf8, 0x39, 0x14, 0xf4, 0x03,
  0xb5, 0x81, 0x04, 0xd2, 0x5d, 0x03, 0xc5, 0x48,
  0x1e, 0xf0, 0xe3, 0x04, 0x5f, 0x4c, 0x14, 0xde,
  0xe9, 0x04, 0x08, 0x08, 0x64, 0x32, 0x20, 0xef,
  0x18, 0x81, 0xc7, 0x27, 0x16, 0x98, 0x4e, 0xbd,
  0x16, 0x37, 0x12, 0xe8, 0x06, 0xe7, 0x1f, 0x15,
  0xe5, 0xe1, 0x11, 0xb8, 0x56, 0x1a, 0x1a, 0x87,
  0x05, 0xe3, 0x51, 0xa2, 0xca, 0xd6, 0xba, 0x93,
  0xe6, 0x08, 0xf6, 0x00, 0xe5, 0xfc, 0x08, 0xff,
  0x2a, 0xfd, 0xe9, 0xf8, 0xd1, 0xc9, 0xff, 0xfc,
  0xde, 0x10, 0x39, 0x06, 0xfe, 0xfd, 0x7f, 0x52,
  0xfd, 0xe8, 0x13, 0xf2, 0xc3, 0x25, 0xcc, 0x17,
  0x40, 0xdf, 0x3f, 0x26, 0xe4, 0x19, 0xc5, 0x00,
  0x11, 0x2d, 0x28, 0x46, 0xb8, 0x00, 0x32, 0x81,
  0xf3, 0x94, 0x23, 0x01, 0xe7, 0xc0, 0x20, 0x1f,
  0x32, 0x01, 0xf7, 0x42, 0x40, 0xda, 0x49, 0x41,
  0xff, 0x33, 0x0a, 0xc0, 0x7f, 0x98, 0x06, 0x30,
  0x28, 0xde, 0x42, 0x94, 0x9b, 0x4d, 0x57, 0xd3,
  0x49, 0x2b, 0xb5, 0x00, 0x42, 0x00, 0x47, 0x40,
  0x60, 0xcb, 0x7f, 0x13, 0x4d, 0x2f, 0x65, 0x9e,
  0x2a, 0x21, 0x1c, 0x02, 0x48, 0xe9, 0x2e, 0x25,
  0x09, 0x0a, 0xe6, 0xf0, 0x1f, 0xf5, 0x28, 0x16,
  0x37, 0x0f, 0x1c, 0x4f, 0x03, 0x05, 0x86, 0x04,
  0xa3, 0xfc, 0x10, 0x07, 0xf0, 0x77, 0x0d, 0x16,
  0x46, 0x02, 0x4a, 0x53, 0x46, 0x3b, 0x9a, 0xe0,
  0x7f, 0x92, 0x57, 0x2b, 0xec, 0xfe, 0xca, 0xa8,
  0xcf, 0xcd, 0x1a, 0x06, 0x13, 0x78, 0x57, 0xc9,
  0x8c, 0x2e, 0x18, 0x5a, 0x5d, 0x44, 0x04, 0x9f,
  0x16, 0x56, 0x7f, 0x25, 0xae, 0x38, 0x21, 0x03,
  0x4b, 0x40, 0xe6, 0xa2, 0x04, 0x37, 0x16, 0xeb,
  0x11, 0x4d, 0x30, 0x12, 0x20, 0x2f, 0x27, 0xd3,
  0x69, 0x03, 0x1f, 0xe7, 0x7f, 0xd6, 0x3e, 0x08,
  0x3f, 0xe8, 0x19, 0x0d, 0x2d, 0x0f, 0x00, 0x00,
  0x3d, 0xed, 0x5b, 0x0e, 0x0e, 0xe9, 0x10, 0xca,
  0x18, 0x9c, 0x05, 0x26, 0x7e, 0x05, 0xad, 0x35,
  0xc7, 0x19, 0xb2, 0xf9, 0x4d, 0x3b, 0xca, 0x4a,
  0xd6, 0x02, 0x61, 0x2d, 0xb7, 0x05, 0xff, 0xe2,
  0x7f, 0x83, 0xb3, 0xc6, 0xd5, 0xea, 0x90, 0xdd,
  0xdd, 0x42, 0xb5, 0xff, 0x81, 0x20, 0xa3, 0xe6,
  0x3d, 0xa9, 0x41, 0xf3, 0x21, 0xf9, 0x49, 0x00,
  0x3d, 0xf6, 0x23, 0xd6, 0xec, 0x02, 0x54, 0xe3,
  0xcc, 0xd7, 0x18, 0x0b, 0xec, 0x7f, 0xcf, 0x7f,
  0x9d, 0xeb, 0xc1, 0xfa, 0x9d, 0xf4, 0xd3, 0x00,
  0x35, 0x95, 0x28, 0xa0, 0x48, 0x06, 0xf3, 0xb7,
  0x25, 0x0b, 0xfc, 0x05, 0xe4, 0x38, 0x21, 0x00,
  0x51, 0x04, 0xb4, 0xe4, 0x7f, 0xf8, 0x38, 0x01,
  0xea, 0xe4, 0xfb, 0x3a, 0xab, 0x05, 0x1b, 0x20,
  0x17, 0xd3, 0xef, 0x01, 0xc7, 0x5c, 0x79, 0x55,
  0x29, 0x05, 0xf4, 0xee, 0x16, 0xc9, 0x28, 0xae,
  0xb2, 0xe7, 0xff, 0xff, 0x04, 0x00, 0x00, 0x00,
  0x60, 0x00, 0x00, 0x00, 0xb6, 0xfc, 0xff, 0xff,
  0xf4, 0xfe, 0xff, 0xff, 0x74, 0xff, 0xff, 0xff,
  0xaa, 0xfa, 0xff, 0xff, 0x08, 0xff, 0xff, 0xff,
  0xf7, 0xfc, 0xff, 0xff, 0xc3, 0xfc, 0xff, 0xff,
  0xf3, 0xff, 0xff, 0xff, 0x15, 0xfe, 0xff, 0xff,
  0xca, 0xfb, 0xff, 0xff, 0xd8, 0xff, 0xff, 0xff,
  0x29, 0xfc, 0xff, 0xff, 0x58, 0xfe, 0xff, 0xff,
  0x8b, 0xfb, 0xff, 0xff, 0xf6, 0xfc, 0xff, 0xff,
  0xad, 0x01, 0x00, 0x00, 0xbc, 0xfe, 0xff, 0xff,
  0x2d, 0xfd, 0xff, 0xff, 0x8a, 0x00, 0x00, 0x00,
  0xdc, 0xfe, 0xff, 0xff, 0xcb, 0xfc, 0xff, 0xff,
  0x6d, 0xfa, 0xff, 0xff, 0xad, 0xfa, 0xff, 0xff,
  0x8e, 0xfb, 0xff, 0xff, 0x1e, 0xe8, 0xff, 0xff,
  0x04, 0x00, 0x00, 0x00, 0x00, 0x0f, 0x00, 0x00,
  0x2b, 0x39, 0x55, 0x4f, 0x35, 0xe2, 0xd8, 0xa2,
  0xd3, 0x1e, 0x1e, 0x01, 0xbe, 0xde, 0xfa, 0x0b,
  0xc8, 0x96, 0x24, 0x0e, 0x38, 0x08, 0x09, 0xb8,
  0xfb, 0x2f, 0xec, 0x4b, 0xca, 0xb0, 0xf8, 0xcd,
  0xd1, 0xfe, 0x3d, 0xd2, 0x09, 0xc0, 0x07, 0x14,
  0xb2, 0xcb, 0xde, 0x00, 0x30, 0x15, 0x02, 0xc9,
  0xa8, 0x04, 0xeb, 0x16, 0xfc, 0x81, 0x07, 0xcd,
  0x9b, 0xdd, 0x10, 0xc2, 0x00, 0xaa, 0xe6, 0x0d,
  0xec, 0xe0, 0xf1, 0x24, 0x19, 0x26, 0x11, 0xd9,
  0xcb, 0x19, 0xec, 0x3e, 0xef, 0x98, 0x15, 0x1a,
  0xc6, 0xf7, 0xd5, 0xda, 0x18, 0xcd, 0xeb, 0x15,
  0xcb, 0x1e, 0x24, 0x18, 0xe9, 0x01, 0x17, 0xbf,
  0x16, 0xbc, 0xbd, 0x12, 0xe8, 0xd1, 0x16, 0x4f,
  0x17, 0xfa, 0xc5, 0x16, 0x60, 0xbe, 0x1d, 0x30,
  0xef, 0x40, 0x31, 0x14, 0xff, 0x1e, 0x33, 0xf6,
  0x13, 0xed, 0x1f, 0x14, 0xd4, 0x55, 0x20, 0xe0,
  0xf7, 0xcd, 0xfb, 0x12, 0xe3, 0x37, 0x0c, 0xcd,
  0x18, 0x2b, 0xe3, 0xed, 0xf6, 0xc1, 0xe6, 0xeb,
  0x41, 0xd6, 0x3d, 0x02, 0xd7, 0x30, 0x11, 0xe4,
  0xed, 0x20, 0xfc, 0x22, 0xf2, 0x35, 0xf4, 0xcf,
  0xef, 0x44, 0xed, 0xe8, 0x02, 0xdd, 0x0c, 0x1f,
  0x14, 0xbd, 0x0f, 0x0d, 0xc1, 0x4f, 0xf4, 0x07,
  0xfb, 0x07, 0xf0, 0x03, 0x10, 0x30, 0x23, 0xc5,
  0x24, 0x1e, 0xf5, 0xf6, 0xfd, 0xeb, 0x1e, 0x1d,
  0x19, 0xb4, 0x2b, 0x17, 0xe4, 0x44, 0x0f, 0xf3,
  0x06, 0x0d, 0xed, 0xf4, 0xf6, 0x20, 0xfe, 0xbf,
  0x1f, 0x39, 0xf6, 0x00, 0x1f, 0x1c, 0xff, 0xfd,
  0x06, 0xf8, 0x4d, 0xef, 0xf9, 0x7f, 0x53, 0xdb,
  0xed, 0x12, 0xeb, 0xf6, 0xfe, 0x09, 0x24, 0xa8,
  0xfb, 0x44, 0xcc, 0xf5, 0xe1, 0xf4, 0xf9, 0xba,
  0x09, 0xe2, 0x1b, 0xb6, 0xb6, 0x28, 0xf7, 0x45,
  0x0f, 0xf7, 0xab, 0x71, 0x16, 0x00, 0xcc, 0xf7,
  0x34, 0xa3, 0x28, 0x06, 0x9c, 0x1e, 0x0a, 0xed,
  0xee, 0xa8, 0x54, 0xdc, 0xe3, 0xf1, 0x1e, 0x45,
  0xeb, 0x17, 0xc0, 0x5a, 0xd2, 0x10, 0xfa, 0x2d,
  0x40, 0xb2, 0x1d, 0xd0, 0x98, 0xeb, 0xf9, 0x38,
  0x21, 0xca, 0xe8, 0x16, 0xc4, 0xff, 0x28, 0x06,
  0x47, 0x00, 0xb6, 0x61, 0xdb, 0xe9, 0x35, 0x10,
  0x3d, 0xd3, 0x2c, 0xe4, 0xb8, 0x49, 0x02, 0x19,
  0xcd, 0xbc, 0x33, 0x90, 0x81, 0x99, 0xef, 0x2a,
  0xf3, 0x01, 0xbd, 0x23, 0xd6, 0x13, 0xb9, 0xfb,
  0x2e, 0xb7, 0xf3, 0xcf, 0x86, 0x2f, 0xda, 0x01,
  0xf7, 0xe9, 0xce, 0x8a, 0xc6, 0x98, 0xd3, 0x1d,
  0x1a, 0x23, 0x8e, 0x33, 0xf5, 0x23, 0x1f, 0xfc,
  0x10, 0x03, 0x39, 0xcd, 0x85, 0xff, 0xd2, 0x2d,
  0xe2, 0xd5, 0xf5, 0x01, 0xff, 0xf7, 0xf5, 0xe3,
  0x04, 0xca, 0xbd, 0x17, 0x92, 0x54, 0xdb, 0xaf,
  0x27, 0x49, 0xcf, 0x8d, 0x06, 0x0f, 0x1b, 0x14,
  0x40, 0xe4, 0x21, 0x1b, 0xdb, 0x2d, 0x02, 0xc3,
  0xd4, 0x23, 0x9f, 0x2a, 0xed, 0x2d, 0x24, 0xc7,
  0x30, 0x6c, 0xc5, 0xcf, 0x31, 0x1e, 0xf3, 0x1f,
  0x35, 0xe9, 0x55, 0x2c, 0xb5, 0x69, 0xd3, 0xd6,
  0xf7, 0xd8, 0xa9, 0x3a, 0xd2, 0x21, 0x3d, 0xd6,
  0x0e, 0x27, 0xe4, 0xa6, 0x11, 0xdd, 0x0a, 0x3a,
  0x61, 0xbd, 0x4e, 0x19, 0xbc, 0x20, 0x56, 0xd0,
  0x0e, 0x3a, 0xf6, 0x2a, 0xfa, 0xf5, 0xf3, 0xda,
  0xb8, 0x53, 0xaf, 0xbe, 0x3c, 0x2e, 0xe2, 0x46,
  0xf7, 0x07, 0x59, 0x13, 0x02, 0x27, 0x3b, 0xc8,
  0xf4, 0x3c, 0x17, 0xf4, 0xd8, 0x1d, 0x33, 0xb0,
  0x81, 0x3a, 0xd0, 0xa7, 0xfd, 0xf6, 0x35, 0xe1,
  0x1d, 0xcd, 0x07, 0xea, 0xdb, 0x15, 0xda, 0xac,
  0xd3, 0x06, 0xdc, 0xf8, 0x00, 0x55, 0xd8, 0xfa,
  0x1b, 0x57, 0xbc, 0xc6, 0x04, 0xe5, 0xf1, 0xdf,
  0x2b, 0xcd, 0x4d, 0x14, 0xe1, 0x73, 0xfa, 0x81,
  0xcc, 0x43, 0xe1, 0x20, 0xdb, 0x3d, 0x29, 0xeb,
  0xfa, 0x3d, 0xdb, 0xf2, 0x00, 0xd3, 0xe7, 0x15,
  0x1e, 0xcd, 0x2b, 0xf8, 0xec, 0x46, 0x20, 0xb9,
  0xd4, 0x20, 0xe0, 0x1b, 0xd6, 0x1f, 0xde, 0xb5,
  0x06, 0x63, 0xcd, 0x05, 0x20, 0x16, 0x21, 0xf2,
  0x3c, 0xd8, 0x46, 0x17, 0xf0, 0x33, 0x1b, 0xc9,
  0xf7, 0x14, 0xef, 0x19, 0xc8, 0xe7, 0xd0, 0xb4,
  0xb5, 0x39, 0xcd, 0xed, 0x3f, 0x02, 0x40, 0xf8,
  0x0d, 0xf0, 0x41, 0xf3, 0x05, 0x57, 0x40, 0xf9,
  0x13, 0x3c, 0xda, 0xff, 0xc3, 0xe5, 0x0a, 0xfe,
  0x10, 0x6e, 0xe4, 0xf3, 0x3d, 0xf4, 0x20, 0xfc,
  0x1b, 0xde, 0x04, 0xf9, 0xe7, 0x37, 0x16, 0xa3,
  0x07, 0x40, 0xd4, 0x38, 0xd7, 0x35, 0xd2, 0xbf,
  0xda, 0x38, 0xae, 0xc5, 0xdd, 0x23, 0x27, 0x1c,
  0x4d, 0x0c, 0x53, 0x22, 0xe3, 0x4e, 0xe2, 0x93,
  0x0b, 0x34, 0xf0, 0x36, 0xa5, 0x16, 0x2a, 0xc2,
  0x03, 0x22, 0xd1, 0xd4, 0x41, 0xe9, 0x01, 0x1c,
  0x58, 0xca, 0x38, 0x19, 0xe8, 0x6f, 0x1b, 0xac,
  0x06, 0x07, 0xfa, 0xe9, 0xda, 0x6d, 0x01, 0xfd,
  0x0d, 0x51, 0xf1, 0xf6, 0x0b, 0x2e, 0x16, 0x36,
  0x40, 0xc7, 0x30, 0x1c, 0xee, 0x10, 0x59, 0xc3,
  0xfe, 0x13, 0xef, 0x32, 0xd4, 0x11, 0xfb, 0xf5,
  0xc6, 0x28, 0xdc, 0xf5, 0x09, 0xee, 0xff, 0x0e,
  0x22, 0xe9, 0x58, 0x15, 0x0b, 0x4d, 0x28, 0x8f,
  0x17, 0x33, 0x2c, 0x4b, 0xbf, 0x7f, 0x19, 0xf3,
  0xdd, 0x5b, 0xd4, 0xff, 0x4f, 0x13, 0x55, 0x20,
  0xf6, 0x05, 0x00, 0xf9, 0xd7, 0x4b, 0xf8, 0x1d,
  0xcc, 0xc9, 0xfa, 0xe3, 0xfe, 0x02, 0xf8, 0xe7,
  0x17, 0x08, 0xfa, 0xfa, 0xf3, 0xec, 0xd9, 0xce,
  0xfd, 0xf5, 0x26, 0x12, 0xe4, 0x16, 0xe8, 0xfb,
  0xd4, 0xdc, 0xe9, 0xe2, 0x18, 0x2b, 0x0e, 0xbb,
  0xf3, 0x1b, 0xec, 0xeb, 0xf3, 0xf1, 0xfb, 0xe6,
  0x3b, 0xfe, 0x1f, 0xec, 0xdc, 0x3e, 0x0d, 0x31,
  0xe5, 0x1b, 0xf3, 0xfa, 0x10, 0x13, 0xfe, 0xac,
  0x28, 0x12, 0xe0, 0x02, 0x02, 0xe1, 0x3d, 0xd3,
  0x01, 0xe7, 0xe7, 0xf7, 0xdd, 0x42, 0xe4, 0x19,
  0xc3, 0x08, 0xe6, 0xbf, 0xf6, 0xec, 0xf2, 0xc0,
  0x01, 0x30, 0xce, 0xe5, 0x13, 0xfb, 0x07, 0x07,
  0x37, 0xe5, 0xeb, 0x26, 0xc1, 0x11, 0x1b, 0x1c,
  0xc2, 0xb6, 0xa8, 0xc4, 0x1e, 0x07, 0xe9, 0xac,
  0x02, 0xf8, 0xe0, 0xc6, 0xf1, 0xec, 0xec, 0x81,
  0x09, 0xe9, 0x38, 0xe9, 0xcf, 0x19, 0x21, 0xa0,
  0xec, 0x26, 0xfc, 0x28, 0xbf, 0x41, 0x03, 0xc5,
  0xd8, 0x08, 0xb1, 0xc3, 0x15, 0xe9, 0xf2, 0x23,
  0x2a, 0x02, 0x18, 0x0d, 0xcf, 0x48, 0xe7, 0xad,
  0x12, 0x3e, 0xb7, 0x0e, 0xbf, 0x3e, 0x02, 0xe4,
  0x23, 0x51, 0xcd, 0xf5, 0x11, 0xe7, 0x1a, 0x2c,
  0x2e, 0xaf, 0x76, 0x33, 0xd5, 0x10, 0xef, 0x9b,
  0x2f, 0x0e, 0xdf, 0x1a, 0xc4, 0x7f, 0xe1, 0xa6,
  0xd5, 0x3e, 0xdd, 0xef, 0x39, 0x33, 0x1f, 0x07,
  0x13, 0xec, 0x2d, 0x26, 0xed, 0x2e, 0xf5, 0x9d,
  0xcf, 0x11, 0xc3, 0x33, 0xb2, 0x2e, 0xec, 0xb7,
  0xd9, 0x60, 0xe5, 0x12, 0x19, 0x0d, 0xd8, 0xe2,
  0x31, 0xf4, 0x60, 0x03, 0xd3, 0x72, 0x0b, 0xae,
  0x23, 0x40, 0xec, 0x20, 0xbd, 0x34, 0x1f, 0x0e,
  0x1c, 0x29, 0xdc, 0xfd, 0x16, 0xe4, 0xd3, 0x2a,
  0x43, 0xfd, 0x1d, 0x1b, 0xfb, 0x2c, 0x21, 0xde,
  0xfa, 0x37, 0xec, 0x1d, 0xb2, 0x4b, 0xd6, 0xe0,
  0x13, 0xf2, 0xe9, 0x01, 0x05, 0x13, 0x3f, 0x06,
  0x37, 0xe1, 0x25, 0x04, 0xfe, 0x55, 0x24, 0xb3,
  0xfb, 0x43, 0xeb, 0x45, 0xb9, 0x44, 0x02, 0xed,
  0xf8, 0x47, 0x11, 0x2a, 0xf4, 0x2c, 0x40, 0x14,
  0x39, 0x19, 0x44, 0xfc, 0xfd, 0x7f, 0x0a, 0xe9,
  0xe4, 0x47, 0xfb, 0x34, 0xbe, 0x36, 0x00, 0xf7,
  0x2a, 0x3f, 0x19, 0x0a, 0x00, 0x2b, 0x1d, 0xf2,
  0x24, 0xd3, 0x11, 0x12, 0x01, 0x56, 0x2e, 0xe7,
  0xf4, 0x07, 0xec, 0x31, 0x04, 0x34, 0x3c, 0x08,
  0x32, 0x34, 0xf4, 0xf5, 0xf3, 0x06, 0x2f, 0x3a,
  0x32, 0xe5, 0x32, 0xbc, 0x10, 0x3f, 0x1a, 0xd1,
  0xdf, 0xfb, 0xf2, 0x30, 0xf2, 0x49, 0x1a, 0xfd,
  0xdc, 0x5d, 0xe5, 0x0f, 0x0d, 0x14, 0x24, 0x05,
  0xf0, 0x0d, 0xbc, 0x7e, 0x39, 0x0c, 0x1f, 0x35,
  0xf8, 0x1b, 0xf4, 0xb6, 0xf0, 0xe8, 0x45, 0x08,
  0x1d, 0x15, 0xf5, 0xd0, 0x2a, 0xa7, 0x1c, 0xbc,
  0x9c, 0x2f, 0xca, 0x4b, 0xf9, 0xb1, 0x21, 0xee,
  0x12, 0x28, 0x1e, 0x81, 0x28, 0x97, 0xd2, 0x50,
  0x0c, 0x18, 0xef, 0xc3, 0x00, 0x89, 0x30, 0x98,
  0xcd, 0x33, 0xf7, 0x4f, 0xf4, 0xfa, 0x4b, 0xdf,
  0xdb, 0x41, 0x13, 0xcd, 0x54, 0x9a, 0x0d, 0xcf,
  0xfe, 0x07, 0x49, 0xa6, 0x35, 0x8d, 0x25, 0xb4,
  0xe1, 0xf8, 0xb7, 0x3b, 0xea, 0xe4, 0x1c, 0xfe,
  0xf5, 0x12, 0xe7, 0xc0, 0xde, 0xc6, 0xf1, 0x3f,
  0xd6, 0x5c, 0x56, 0xca, 0x45, 0xcd, 0xf8, 0xdb,
  0xa9, 0x0c, 0x87, 0xfa, 0xda, 0x13, 0x43, 0xf2,
  0x21, 0x18, 0x0e, 0xa6, 0x37, 0xa8, 0x2a, 0x39,
  0x2e, 0x52, 0x63, 0xa7, 0xfb, 0x9a, 0xe2, 0xe8,
  0x15, 0xe4, 0xf9, 0x22, 0x05, 0x38, 0xe5, 0xc5,
  0xe3, 0xe4, 0xdb, 0x05, 0xcf, 0x25, 0x13, 0xc9,
  0xf8, 0x07, 0xc4, 0xce, 0xee, 0xf2, 0x19, 0x06,
  0x4e, 0x04, 0x37, 0x11, 0xed, 0x3a, 0x36, 0xbe,
  0xfb, 0x12, 0xdf, 0x09, 0xbe, 0x25, 0x1e, 0xab,
  0x01, 0x54, 0xc9, 0x00, 0xfd, 0x12, 0x18, 0x29,
  0x2b, 0xf9, 0x59, 0x2a, 0x07, 0x37, 0xf5, 0xda,
  0xcf, 0x16, 0xf5, 0x18, 0xc9, 0x2f, 0x3f, 0xae,
  0x1c, 0x62, 0xe0, 0x0d, 0x3c, 0xef, 0x53, 0x02,
  0x46, 0xe4, 0x25, 0x0b, 0xdf, 0x64, 0x56, 0x99,
  0x24, 0x27, 0x01, 0x47, 0xdd, 0x2b, 0x18, 0xe7,
  0xf7, 0x63, 0xd8, 0x08, 0x22, 0x3a, 0x3b, 0x41,
  0x1e, 0xe9, 0x4f, 0x15, 0xe9, 0x55, 0x3d, 0xb1,
  0xbd, 0x35, 0xea, 0x14, 0xea, 0x7f, 0x31, 0xdb,
  0xbb, 0x57, 0xbd, 0xa5, 0x28, 0xea, 0x18, 0x1a,
  0xe1, 0x07, 0x36, 0x94, 0x38, 0xd1, 0x27, 0x1c,
  0xe9, 0x1b, 0x47, 0x1b, 0xd9, 0xe4, 0xd9, 0x0f,
  0xa2, 0xfa, 0x1d, 0xc0, 0xe2, 0x33, 0x26, 0x23,
  0x05, 0x0d, 0x03, 0xd8, 0x10, 0x03, 0xca, 0xd6,
  0xdc, 0xcc, 0x11, 0x24, 0xe9, 0xd7, 0x1d, 0x2c,
  0x94, 0x04, 0xe1, 0xb8, 0xdd, 0xea, 0x0f, 0x12,
  0x0a, 0x2a, 0xeb, 0xb3, 0x7f, 0x10, 0xec, 0xd0,
  0x12, 0x03, 0x09, 0x05, 0xec, 0x03, 0xf5, 0xef,
  0xe1, 0xcf, 0x0f, 0x29, 0xd8, 0xe3, 0x3e, 0xfb,
  0x17, 0xd2, 0xe2, 0x98, 0x4a, 0xd2, 0xf7, 0xca,
  0xd1, 0x3b, 0xd5, 0x06, 0xde, 0xf1, 0x0e, 0x0a,
  0xb3, 0xf9, 0xcb, 0xec, 0xca, 0xdf, 0x2c, 0xff,
  0x25, 0x2c, 0xcc, 0xdd, 0x64, 0xf1, 0x1e, 0xd3,
  0x15, 0xe3, 0x43, 0x27, 0xf7, 0xe8, 0xe5, 0x18,
  0xe2, 0xed, 0xd3, 0x34, 0xba, 0x35, 0x24, 0x27,
  0x23, 0xea, 0x23, 0xdc, 0x0e, 0x39, 0xe9, 0xbb,
  0xf8, 0x1e, 0xe2, 0x20, 0xe1, 0x2a, 0x1b, 0xd2,
  0xff, 0x15, 0xbd, 0x9c, 0xdf, 0xe3, 0x2c, 0xfb,
  0x2d, 0xf1, 0x1f, 0x36, 0x0e, 0x2c, 0x04, 0xfa,
  0x0d, 0x2f, 0xde, 0xf4, 0xe8, 0x79, 0x08, 0xe2,
  0xfe, 0x69, 0xd6, 0xb0, 0x28, 0x34, 0x11, 0x31,
  0x49, 0xfb, 0x65, 0x0a, 0x11, 0x37, 0x05, 0xd5,
  0xe9, 0x2f, 0xe1, 0x0d, 0xc6, 0x30, 0x37, 0xac,
  0xcb, 0x56, 0xe3, 0xb1, 0x0d, 0x26, 0x3d, 0x48,
  0x39, 0xd6, 0x30, 0x34, 0x1e, 0x40, 0x43, 0xbc,
  0x17, 0x57, 0xe6, 0x17, 0xe3, 0x5c, 0x01, 0xa4,
  0xdf, 0x6d, 0x00, 0xfb, 0x44, 0x30, 0xff, 0x31,
  0x48, 0xd7, 0x6d, 0x26, 0xc9, 0x7f, 0x05, 0x91,
  0xe1, 0x27, 0xbf, 0x21, 0xce, 0x70, 0x08, 0xdc,
  0x8f, 0x3a, 0xf8, 0xc4, 0x3f, 0x2b, 0xfb, 0x17,
  0xd0, 0x01, 0x9e, 0xe1, 0xe0, 0xce, 0xc0, 0x13,
  0xe3, 0xe7, 0xcc, 0xc9, 0xda, 0x1c, 0x19, 0x05,
  0xdb, 0xc1, 0x24, 0xb2, 0x24, 0xca, 0xd8, 0xb9,
  0xbf, 0xcd, 0x84, 0x25, 0xc9, 0xf7, 0xb6, 0x0b,
  0xf4, 0xd3, 0x13, 0xf6, 0x19, 0x12, 0x03, 0x1f,
  0xc9, 0xac, 0x42, 0xb7, 0xd7, 0x92, 0xcb, 0xc9,
  0xb2, 0x17, 0xb0, 0xf2, 0xee, 0xee, 0xb2, 0x25,
  0xe1, 0xc9, 0x08, 0x01, 0x05, 0xf6, 0xf6, 0x1d,
  0x0d, 0x09, 0x24, 0xf6, 0x10, 0xdf, 0x0c, 0xdb,
  0x95, 0xdd, 0xec, 0xd1, 0x9c, 0xce, 0xfc, 0x04,
  0xf1, 0xe3, 0xef, 0xde, 0xee, 0xda, 0xd8, 0xed,
  0xc8, 0xd7, 0x35, 0xf8, 0x14, 0x99, 0x10, 0x11,
  0xe4, 0xc8, 0x81, 0xea, 0xd2, 0xd6, 0xf8, 0xfa,
  0x17, 0x0a, 0xc5, 0xe8, 0xf4, 0x0a, 0xdd, 0x1b,
  0xf5, 0xe7, 0x0a, 0xa4, 0xd8, 0xb8, 0xb5, 0xbd,
  0x07, 0xe4, 0x3d, 0xf5, 0xff, 0x42, 0x24, 0xae,
  0xcd, 0xea, 0xe2, 0x22, 0xc0, 0x05, 0xfb, 0xd8,
  0x03, 0x5f, 0xce, 0xbc, 0xfd, 0x2c, 0x25, 0xe8,
  0x33, 0xed, 0x17, 0x16, 0x05, 0x4e, 0x2d, 0xc8,
  0xf7, 0x04, 0xd7, 0x11, 0xc8, 0x44, 0x08, 0xe3,
  0xdc, 0x75, 0xd5, 0xe4, 0x2f, 0xff, 0x11, 0x22,
  0x38, 0xe9, 0x45, 0x0d, 0xe9, 0x42, 0x17, 0xe6,
  0x1f, 0x10, 0x19, 0x1e, 0xcb, 0x23, 0x02, 0xce,
  0xe5, 0x57, 0xe6, 0xd7, 0x13, 0x03, 0x0e, 0x04,
  0x22, 0x10, 0x26, 0x2b, 0xf5, 0x21, 0x21, 0xd6,
  0xfd, 0x1f, 0x0e, 0x2a, 0xff, 0x36, 0x10, 0xec,
  0xc8, 0x7f, 0xf7, 0xd1, 0x0e, 0x2e, 0x38, 0xfd,
  0x24, 0x0d, 0x59, 0x08, 0xf5, 0x3a, 0x4b, 0xb3,
  0xd0, 0x41, 0xe5, 0x37, 0xbe, 0x32, 0x41, 0xdf,
  0xe8, 0x2d, 0xd3, 0xe6, 0x3d, 0x29, 0x23, 0x09,
  0x21, 0x01, 0x14, 0x15, 0x1a, 0x12, 0x24, 0xd4,
  0xc8, 0x41, 0xfa, 0x04, 0xe9, 0x50, 0x08, 0xe1,
  0xf3, 0x4a, 0xcc, 0xbc, 0xda, 0xf8, 0x33, 0xff,
  0x3c, 0x20, 0x36, 0x06, 0xe3, 0x7f, 0x0a, 0xdc,
  0xc9, 0x0b, 0xe1, 0x4f, 0xd0, 0x40, 0x20, 0xfe,
  0x21, 0x3d, 0xca, 0x00, 0x2e, 0x03, 0x5c, 0x3d,
  0x49, 0x17, 0x58, 0x11, 0xda, 0x15, 0x20, 0x9e,
  0xcc, 0x3c, 0xd9, 0x3f, 0x0c, 0x58, 0x15, 0x09,
  0xc5, 0x3e, 0xe8, 0x04, 0xf9, 0x0b, 0x50, 0x3d,
  0x19, 0x06, 0x40, 0xc9, 0xe6, 0x51, 0x10, 0x8e,
  0xe9, 0x27, 0xec, 0x43, 0xc8, 0x44, 0xe6, 0x1f,
  0xf6, 0x39, 0xe8, 0xf6, 0x25, 0x35, 0x25, 0x1f,
  0xf1, 0xea, 0x3c, 0xb7, 0x05, 0x60, 0x15, 0xbe,
  0xc5, 0x4b, 0xda, 0x55, 0xb2, 0x2d, 0x58, 0x15,
  0x9c, 0x2b, 0x0c, 0xf1, 0xfd, 0x1b, 0x10, 0x05,
  0xec, 0x10, 0xe6, 0x44, 0x13, 0xa4, 0xe3, 0xa7,
  0xdc, 0xfe, 0x03, 0xaf, 0x09, 0xb0, 0x3d, 0xe4,
  0xbc, 0x01, 0xe9, 0x0a, 0xfd, 0xfd, 0x2e, 0xab,
  0x1b, 0xea, 0xc2, 0x43, 0xe2, 0xae, 0xf8, 0xbc,
  0xd3, 0x29, 0x09, 0xcb, 0x17, 0xac, 0xf1, 0x21,
  0xe2, 0x08, 0xe4, 0x0e, 0xf9, 0x09, 0xed, 0xc7,
  0xd4, 0xf4, 0xa4, 0x1c, 0x1f, 0x9a, 0x0b, 0xec,
  0xf1, 0x19, 0xf6, 0xfb, 0x10, 0xa7, 0x34, 0x27,
  0xd2, 0x0e, 0x1a, 0x27, 0xf7, 0x31, 0xeb, 0xe0,
  0xc7, 0xba, 0x81, 0x26, 0xf1, 0xa8, 0xcc, 0x28,
  0x0e, 0x21, 0xbd, 0x0d, 0x41, 0xc9, 0xe6, 0xf5,
  0x07, 0x3a, 0x02, 0xf4, 0xf9, 0xe8, 0x09, 0x22,
  0xe9, 0xc6, 0xa3, 0xf9, 0xed, 0xc3, 0x09, 0x35,
  0xc9, 0x2d, 0xbe, 0x33, 0xf5, 0xbf, 0x2b, 0x1a,
  0x14, 0x4f, 0x2d, 0x26, 0x16, 0x1d, 0x10, 0x1b,
  0xa9, 0x10, 0x81, 0xd2, 0xee, 0x00, 0x42, 0x07,
  0x1b, 0x31, 0x2f, 0xc7, 0x10, 0x09, 0x2e, 0x20,
  0xcd, 0x38, 0x5a, 0xb5, 0x04, 0xb3, 0xf6, 0xb7,
  0xd2, 0x16, 0xb0, 0xc5, 0xea, 0xd5, 0x45, 0x07,
  0x1b, 0xe5, 0x01, 0xee, 0xdf, 0xec, 0x32, 0x14,
  0xdf, 0xef, 0x03, 0xb6, 0x34, 0x98, 0xdc, 0xe5,
  0xb0, 0x2e, 0x9f, 0x09, 0x07, 0xeb, 0x0e, 0x19,
  0xdd, 0x19, 0x34, 0xed, 0x26, 0x0f, 0x10, 0x2e,
  0xfd, 0x22, 0x13, 0xe6, 0x43, 0xe2, 0x0a, 0xc0,
  0xc8, 0x39, 0xb8, 0x0e, 0xfd, 0xf2, 0x18, 0x13,
  0x06, 0x36, 0x07, 0xb0, 0x1f, 0xc6, 0xca, 0xf9,
  0x0e, 0x34, 0x26, 0xc8, 0x2d, 0x9c, 0xdb, 0xeb,
  0xbf, 0x01, 0xc3, 0xf1, 0xb7, 0x13, 0xf9, 0xf6,
  0xfc, 0x2f, 0xe2, 0xed, 0x37, 0xc6, 0xfa, 0x00,
  0xeb, 0x31, 0x66, 0xb9, 0xf5, 0xca, 0xf7, 0xa1,
  0x06, 0xf9, 0xeb, 0xc5, 0xc6, 0xf2, 0x19, 0xde,
  0x27, 0xd9, 0xf2, 0xe4, 0x09, 0x04, 0xf7, 0x09,
  0x1b, 0x9c, 0xf8, 0x30, 0xc4, 0xfb, 0xfa, 0x05,
  0xdf, 0xfd, 0x06, 0xc4, 0xd0, 0xf7, 0x26, 0x03,
  0x1e, 0x1f, 0x29, 0x21, 0xf4, 0xf3, 0xd6, 0x00,
  0x26, 0x81, 0x05, 0x0f, 0xe3, 0x21, 0xea, 0x0d,
  0xe6, 0xf3, 0xea, 0xa3, 0xc4, 0xcf, 0x01, 0xfb,
  0x08, 0xfc, 0x22, 0x10, 0xf4, 0xed, 0xef, 0xe6,
  0x15, 0xbb, 0xff, 0x16, 0xfc, 0xf1, 0xf5, 0x0d,
  0xbe, 0x0a, 0xe9, 0xa6, 0xac, 0xcd, 0xee, 0xf0,
  0x16, 0x08, 0x11, 0xe6, 0xf2, 0xe4, 0xda, 0xdf,
  0x10, 0xae, 0xf9, 0x26, 0xf4, 0x0d, 0xb8, 0xe2,
  0xdb, 0x15, 0x0f, 0x98, 0xbe, 0xe8, 0x03, 0xef,
  0x2b, 0xfe, 0x24, 0x21, 0x01, 0x03, 0xc2, 0xe6,
  0x20, 0xd4, 0x08, 0x10, 0xea, 0x1b, 0xbe, 0xe5,
  0x04, 0xf9, 0x24, 0xdf, 0x0b, 0xe9, 0xc0, 0x08,
  0xfd, 0xf8, 0xc3, 0xc5, 0x1c, 0xf3, 0xcc, 0xae,
  0x0e, 0xcb, 0x00, 0xf4, 0xb1, 0xd1, 0x9d, 0x81,
  0xde, 0xe5, 0x2e, 0xe4, 0x14, 0xc6, 0xce, 0x0b,
  0xe4, 0xfa, 0x9c, 0xaf, 0x01, 0xc7, 0xcd, 0xc0,
  0x0e, 0xef, 0x09, 0x02, 0xba, 0xf0, 0xb7, 0x87,
  0xc6, 0xe5, 0x01, 0xf4, 0xe2, 0x0c, 0xb9, 0x15,
  0xfa, 0xf4, 0xbc, 0xb0, 0xf9, 0xf2, 0xe7, 0xce,
  0x11, 0xd3, 0x15, 0xff, 0xc7, 0xdb, 0xac, 0x96,
  0xf0, 0xb1, 0xfd, 0xe8, 0xcf, 0xd3, 0x97, 0x1a,
  0xf8, 0x03, 0xb3, 0xaa, 0x23, 0xf6, 0xf7, 0xe2,
  0x18, 0xbe, 0x11, 0x1b, 0xb9, 0xe0, 0xbd, 0xd3,
  0xce, 0xc0, 0x0d, 0xd7, 0xbc, 0xe4, 0xdc, 0x11,
  0xff, 0x08, 0xbc, 0xc4, 0xff, 0x00, 0xf0, 0xe8,
  0x04, 0x95, 0xf9, 0x1d, 0xcc, 0xef, 0xaa, 0xa4,
  0x0e, 0x06, 0x29, 0x2a, 0x36, 0xfe, 0xf2, 0x9d,
  0xbe, 0xf6, 0x0d, 0x08, 0x86, 0xf8, 0xee, 0xdf,
  0x89, 0x17, 0xe2, 0xd5, 0x37, 0x96, 0x45, 0x09,
  0xee, 0xcb, 0xfd, 0x28, 0xee, 0xfc, 0xf4, 0xd2,
  0xe0, 0xf4, 0xdb, 0xe1, 0xf7, 0xd1, 0xd6, 0xf3,
  0xc4, 0xf0, 0xeb, 0xaf, 0x19, 0x90, 0x58, 0x00,
  0x0d, 0xaa, 0xee, 0xfa, 0xe4, 0x0f, 0xaa, 0x14,
  0xe8, 0xe5, 0xcd, 0xfa, 0x1e, 0xd1, 0xe6, 0x15,
  0xc4, 0x29, 0xeb, 0xdf, 0xea, 0xb5, 0x1b, 0xed,
  0xfc, 0x81, 0x1c, 0xe6, 0xf2, 0x00, 0xd8, 0x37,
  0x09, 0xeb, 0xa6, 0x0d, 0x26, 0xd1, 0xf0, 0x0b,
  0xf7, 0x5e, 0x14, 0xf0, 0xdb, 0xb3, 0x32, 0x34,
  0x29, 0xc3, 0x12, 0xe5, 0xe9, 0x16, 0xee, 0x4f,
  0x34, 0x18, 0xe5, 0xef, 0x24, 0xe0, 0xee, 0x09,
  0x1e, 0x6f, 0x63, 0xff, 0xf1, 0xca, 0x19, 0x2a,
  0x3a, 0x0d, 0xf5, 0x06, 0x0b, 0x57, 0x3c, 0xd3,
  0x10, 0x2c, 0xdf, 0x07, 0xbe, 0x16, 0x0b, 0xd5,
  0x0b, 0x23, 0xf1, 0xd6, 0x08, 0x16, 0x35, 0x08,
  0x21, 0x0f, 0x23, 0x13, 0x1c, 0x42, 0x30, 0xce,
  0x21, 0x18, 0xf3, 0x35, 0xb4, 0x5f, 0xe9, 0xe3,
  0x22, 0x46, 0xf4, 0xdf, 0x25, 0x12, 0x2e, 0x2e,
  0x20, 0x0e, 0x24, 0xfb, 0xf1, 0x46, 0x36, 0xf0,
  0xd7, 0x09, 0x0e, 0x1c, 0xec, 0x7f, 0x2e, 0xff,
  0xf1, 0x58, 0xff, 0xfa, 0x0e, 0x2b, 0x1e, 0x10,
  0x0d, 0xe6, 0x53, 0xf5, 0x00, 0x2d, 0x3c, 0xb6,
  0xf8, 0x1f, 0xd7, 0x10, 0xda, 0x54, 0xf4, 0x1e,
  0xfc, 0x3d, 0xf1, 0xe9, 0x0a, 0x2c, 0x3e, 0x31,
  0x3a, 0xef, 0x23, 0xda, 0xdb, 0x1d, 0xde, 0xbd,
  0xdb, 0xff, 0xda, 0x54, 0xc5, 0x74, 0x30, 0x19,
  0xd5, 0x0e, 0xe5, 0x17, 0xd0, 0xfa, 0x0e, 0x40,
  0xfc, 0xd4, 0x15, 0xd4, 0xea, 0xd1, 0xcd, 0x21,
  0x0d, 0x1e, 0xd9, 0x2f, 0x25, 0x50, 0xcf, 0x2f,
  0x3d, 0x97, 0x1b, 0xfe, 0xa6, 0x00, 0x20, 0x2e,
  0x27, 0xbe, 0xe3, 0xa4, 0xe2, 0xe1, 0xe8, 0x31,
  0x17, 0x0e, 0xd6, 0x57, 0xff, 0xea, 0xb3, 0x37,
  0x3c, 0xa5, 0xcf, 0xfa, 0x94, 0x14, 0xe2, 0x26,
  0x03, 0xd7, 0x1d, 0xaa, 0xcd, 0xce, 0xcd, 0xe0,
  0xe7, 0xe9, 0xf6, 0x3c, 0xdf, 0x41, 0xf7, 0x20,
  0xfa, 0x81, 0xcf, 0xe0, 0xb2, 0x27, 0xf3, 0x0e,
  0xcf, 0xc8, 0xdd, 0xa4, 0xe2, 0xde, 0xa3, 0x28,
  0x20, 0xe3, 0xf9, 0x61, 0xf4, 0x20, 0xf6, 0x01,
  0x09, 0xf2, 0xd3, 0xf9, 0xcc, 0xf3, 0xf9, 0x36,
  0xfc, 0xce, 0x1d, 0x92, 0xd9, 0xff, 0xa8, 0x12,
  0x10, 0xf8, 0xf2, 0x22, 0xca, 0x2e, 0xbb, 0x32,
  0x03, 0xb1, 0x00, 0x01, 0xd9, 0xfe, 0xe2, 0x2f,
  0xe5, 0x0b, 0x5c, 0x27, 0xde, 0x5e, 0x00, 0x97,
  0xc0, 0x04, 0x91, 0x54, 0x9d, 0x76, 0xf7, 0xfa,
  0xdc, 0x56, 0xd1, 0x81, 0x08, 0xf0, 0xfa, 0xe8,
  0x47, 0xeb, 0x6c, 0xf4, 0x8b, 0x30, 0xd9, 0xcd,
  0xe6, 0x0c, 0xd9, 0x3c, 0x16, 0x19, 0xe6, 0xd7,
  0xe1, 0x6f, 0xfc, 0xe2, 0x1e, 0x2a, 0x1f, 0x50,
  0x35, 0xa8, 0x07, 0xc2, 0x9c, 0x31, 0xe1, 0x87,
  0x07, 0x29, 0xd6, 0x56, 0x19, 0x38, 0x43, 0xfb,
  0xf1, 0x3f, 0x10, 0xb4, 0xec, 0xd9, 0x01, 0x40,
  0x0d, 0xe1, 0xd6, 0x01, 0xdd, 0x49, 0x60, 0xef,
  0x0a, 0x06, 0xf8, 0x06, 0x01, 0x2f, 0x36, 0xf5,
  0xff, 0x41, 0xbb, 0xb2, 0x08, 0x51, 0x07, 0x22,
  0x0a, 0xe8, 0xda, 0xc4, 0xf9, 0x1b, 0x4a, 0xbb,
  0xac, 0x0e, 0x0d, 0xf6, 0xd9, 0xf5, 0x30, 0xb4,
  0x28, 0x6b, 0xca, 0xda, 0xd0, 0x18, 0x00, 0xdb,
  0xf9, 0xfc, 0x1c, 0xdd, 0xf5, 0x01, 0xf4, 0x0c,
  0x08, 0xca, 0xc9, 0xfe, 0x21, 0xbb, 0xd4, 0xdc,
  0x21, 0xaf, 0x06, 0x08, 0xcb, 0xde, 0xad, 0x07,
  0x0c, 0xe6, 0x0c, 0xe8, 0xed, 0xe5, 0xfe, 0x0d,
  0x0f, 0xd9, 0xcd, 0xf5, 0x02, 0xd3, 0xc2, 0xd9,
  0x18, 0x97, 0x0e, 0xfe, 0xc2, 0x01, 0xcc, 0xf2,
  0x07, 0xd1, 0x07, 0xe9, 0xe9, 0xca, 0xe2, 0x13,
  0x10, 0xe5, 0xb6, 0x02, 0x02, 0xf8, 0xd5, 0xfc,
  0x0e, 0xa0, 0x02, 0x0b, 0xc3, 0xeb, 0xb2, 0xeb,
  0xec, 0xb7, 0x15, 0xd1, 0xc1, 0xd1, 0xaa, 0x0d,
  0xfb, 0xda, 0xbe, 0xfd, 0x1a, 0xf1, 0xca, 0xfd,
  0x0b, 0xa6, 0x07, 0xfc, 0xaf, 0xd7, 0xca, 0x03,
  0xfb, 0xc6, 0x14, 0xcd, 0xc7, 0xc5, 0x92, 0xfd,
  0x0d, 0xf0, 0xcb, 0xfd, 0x07, 0x08, 0xd4, 0x06,
  0x16, 0x81, 0xfe, 0x04, 0xc5, 0xe0, 0xd3, 0xe2,
  0x0d, 0xd9, 0x19, 0xbc, 0x00, 0xe3, 0x32, 0x06,
  0xfb, 0x12, 0x06, 0x26, 0xe6, 0x41, 0xbc, 0xad,
  0x38, 0xa2, 0xf2, 0x30, 0xb8, 0x71, 0xe9, 0x23,
  0x0f, 0xc5, 0xef, 0x84, 0xfc, 0xe3, 0x4b, 0xf8,
  0xfe, 0x04, 0xc6, 0x4c, 0xd3, 0x26, 0xf3, 0xb8,
  0x22, 0xf6, 0xea, 0x22, 0x07, 0x51, 0x29, 0x0d,
  0x14, 0xeb, 0xe7, 0x9e, 0xdc, 0xe0, 0x04, 0xcb,
  0x08, 0x4a, 0x02, 0x1b, 0xd1, 0xf7, 0x09, 0xc6,
  0x35, 0xc9, 0x12, 0x15, 0xe0, 0x3a, 0xef, 0x22,
  0x13, 0xd5, 0xf5, 0xe0, 0xbd, 0x27, 0x2b, 0x19,
  0xfa, 0xe2, 0xaa, 0x01, 0x19, 0x46, 0xd6, 0xc7,
  0x38, 0x81, 0x0b, 0x24, 0xdc, 0x2d, 0xf4, 0x13,
  0xfa, 0xce, 0xd2, 0xdb, 0xad, 0xe2, 0xf7, 0x0b,
  0x0a, 0x2a, 0xeb, 0x0c, 0x04, 0x19, 0xab, 0x04,
  0x0e, 0xa0, 0x0f, 0x27, 0xa6, 0x26, 0x05, 0x0a,
  0x04, 0xf6, 0x2d, 0xf8, 0x69, 0xad, 0xb4, 0x25,
  0x15, 0xe7, 0x26, 0xb6, 0x42, 0xbe, 0xb5, 0x21,
  0xc0, 0xd2, 0x1a, 0x19, 0xdf, 0xd3, 0xe4, 0x4c,
  0xb0, 0x00, 0xda, 0xf1, 0x50, 0xc4, 0xa8, 0xc7,
  0x0c, 0x81, 0xe8, 0xc9, 0x2b, 0x15, 0xb7, 0x11,
  0xb1, 0x82, 0x0d, 0x01, 0xc9, 0xff, 0xee, 0xd4,
  0x00, 0xef, 0xe7, 0xa4, 0xe4, 0xc4, 0xf6, 0xc3,
  0xc5, 0xb4, 0xdb, 0x87, 0x23, 0xe4, 0xee, 0x0e,
  0x9d, 0xa0, 0xef, 0xd4, 0xd6, 0xf7, 0xfa, 0xfd,
  0xd8, 0x14, 0xc5, 0xd2, 0x1e, 0xea, 0xcd, 0xfe,
  0xca, 0xc4, 0xcf, 0xbb, 0x15, 0xb9, 0xd5, 0xb0,
  0xe4, 0x9d, 0x04, 0xe5, 0xbe, 0xe1, 0xdf, 0xde,
  0xda, 0x0a, 0x9e, 0xd6, 0x55, 0x06, 0x03, 0xd3,
  0xe6, 0xc5, 0x06, 0xd7, 0x00, 0x10, 0xeb, 0xf1,
  0xdf, 0xe1, 0xe2, 0xe0, 0xab, 0x04, 0xd9, 0xa6,
  0xb1, 0xfe, 0xc6, 0xd2, 0x41, 0xa5, 0x81, 0xee,
  0xe4, 0xb4, 0xcc, 0x26, 0x2e, 0x06, 0x9d, 0xb6,
  0x9e, 0x93, 0xea, 0x8f, 0xa4, 0xfe, 0xe3, 0xd1,
  0xff, 0xee, 0xfd, 0xc2, 0x0d, 0xa1, 0xd9, 0x01,
  0xa1, 0xd2, 0xe1, 0x15, 0xf6, 0x0d, 0xd9, 0xc4,
  0xd6, 0xb7, 0xe6, 0xee, 0xe7, 0x08, 0xee, 0x2b,
  0xea, 0x1f, 0xdc, 0xdd, 0x64, 0xed, 0xcb, 0xec,
  0x85, 0xef, 0x19, 0xd3, 0x2c, 0x05, 0xd1, 0xd4,
  0xb0, 0x81, 0xff, 0xee, 0xd9, 0xd8, 0x0e, 0x22,
  0xda, 0xfa, 0xed, 0xdb, 0x33, 0x0c, 0xfe, 0xdb,
  0xdd, 0xb5, 0x16, 0xd6, 0x4d, 0xfe, 0xd7, 0x0f,
  0xca, 0xfe, 0x37, 0xca, 0xaa, 0xfd, 0x19, 0x32,
  0xe1, 0xed, 0xe1, 0xab, 0x26, 0xe8, 0x0a, 0x16,
  0xca, 0xca, 0xfa, 0xc8, 0x0c, 0x04, 0xef, 0x30,
  0xa9, 0xec, 0x05, 0xdc, 0xc8, 0x31, 0xb9, 0x2f,
  0xd5, 0x5d, 0xc1, 0x25, 0xfc, 0xef, 0xe9, 0xb9,
  0xda, 0x35, 0x26, 0xb4, 0xe6, 0xe9, 0x48, 0x38,
  0x08, 0x8c, 0x0e, 0x12, 0x46, 0x17, 0xc9, 0xd1,
  0xe7, 0x3f, 0xe9, 0x42, 0x24, 0xea, 0x00, 0xc2,
  0xd1, 0x18, 0xda, 0xd4, 0xe0, 0xfb, 0xf5, 0x28,
  0xd1, 0x87, 0xef, 0x03, 0x35, 0x23, 0xd3, 0xa7,
  0xa8, 0xfa, 0xcd, 0xf5, 0xc5, 0xca, 0xd6, 0xb2,
  0xd9, 0x04, 0x01, 0xe4, 0xd3, 0xc5, 0xff, 0x1d,
  0xfa, 0xb9, 0x19, 0x3a, 0x3c, 0x16, 0xc4, 0x88,
  0xe5, 0x27, 0xc0, 0x0f, 0x30, 0xb9, 0x09, 0xbd,
  0xaf, 0xe1, 0x16, 0xb0, 0x37, 0xfe, 0x08, 0x04,
  0xe3, 0x81, 0x0f, 0x15, 0x09, 0xf8, 0x03, 0x08,
  0xb6, 0xe4, 0xe2, 0x2a, 0x15, 0xc0, 0x0e, 0xd7,
  0xbd, 0xee, 0xdd, 0xe9, 0x1a, 0xd1, 0xef, 0x1a,
  0xef, 0xb7, 0x17, 0x08, 0x20, 0x1b, 0xfe, 0xba,
  0x0c, 0x15, 0xf2, 0x60, 0x0c, 0xd1, 0x48, 0x06,
  0xfa, 0x2b, 0xff, 0xdf, 0x25, 0x0e, 0x08, 0x2b,
  0x04, 0x4f, 0xed, 0xe3, 0x49, 0xd8, 0xed, 0xdb,
  0xcc, 0x35, 0xf2, 0x62, 0x02, 0xa2, 0x2f, 0xf2,
  0xea, 0x3e, 0x23, 0xac, 0x44, 0xe4, 0xe4, 0x2d,
  0xd7, 0x20, 0x4d, 0xe6, 0x34, 0xd3, 0x1c, 0x06,
  0xa5, 0x16, 0xea, 0x36, 0x45, 0xbf, 0x36, 0xf2,
  0x1e, 0x11, 0x0d, 0xc6, 0x35, 0xfb, 0xe7, 0x58,
  0x08, 0x77, 0x34, 0x9c, 0x02, 0xa3, 0xee, 0xf8,
  0xea, 0x21, 0x9b, 0x25, 0x14, 0xf2, 0x0e, 0x22,
  0xcc, 0x3c, 0xf9, 0x96, 0x18, 0xd0, 0xe8, 0x2c,
  0xa7, 0x3d, 0x0c, 0xc9, 0x2c, 0xf0, 0xe6, 0xc8,
  0xf7, 0x29, 0xa6, 0x24, 0x49, 0x01, 0x11, 0xf9,
  0x1e, 0xfd, 0xf1, 0xa9, 0xfc, 0xc9, 0xd4, 0x16,
  0xa6, 0x7f, 0x43, 0xaf, 0x16, 0xc0, 0xb8, 0xdf,
  0x23, 0xf0, 0xfc, 0xe4, 0x03, 0xfa, 0xe8, 0xbb,
  0xf0, 0x00, 0x0a, 0x3f, 0xe2, 0x7c, 0x20, 0xe3,
  0x10, 0x3f, 0xb2, 0xbd, 0xdf, 0xe2, 0x01, 0x04,
  0x43, 0xed, 0x33, 0x3b, 0x07, 0x4a, 0x16, 0xb1,
  0xec, 0x40, 0xfb, 0xef, 0xdf, 0x73, 0xf9, 0x02,
  0x09, 0x60, 0xb3, 0xf5, 0x3c, 0x36, 0x3a, 0x0a,
  0x05, 0x10, 0x49, 0x14, 0xe9, 0x3e, 0x1d, 0xb8,
  0x94, 0x34, 0xf4, 0x20, 0xd1, 0x7f, 0x3b, 0xdb,
  0xc1, 0x3b, 0xf5, 0x19, 0x1c, 0x1c, 0x0d, 0x0e,
  0x32, 0xd8, 0x5d, 0xf9, 0xf7, 0x4e, 0x54, 0xd9,
  0x35, 0x33, 0xf4, 0x51, 0xb3, 0x31, 0xd4, 0x1e,
  0x1e, 0x28, 0xdf, 0xe3, 0x43, 0xdd, 0x6f, 0x3c,
  0xe9, 0xf4, 0x7f, 0xf7, 0xd7, 0x45, 0xeb, 0xb0,
  0x92, 0x59, 0xcd, 0x5d, 0xc1, 0x21, 0x2e, 0xc5,
  0xdf, 0x71, 0xe8, 0x02, 0xec, 0x22, 0x2c, 0x39,
  0x3b, 0x0a, 0x22, 0x1a, 0x0d, 0x50, 0x20, 0xb0,
  0xef, 0x3c, 0xd4, 0xfc, 0xf3, 0x49, 0x0f, 0x02,
  0x14, 0x4d, 0xc5, 0xf1, 0x0d, 0x3b, 0x16, 0x37,
  0x4a, 0xe3, 0x0c, 0xfa, 0xde, 0x2d, 0x30, 0x93,
  0xfa, 0x24, 0xd4, 0x22, 0xc9, 0x76, 0x11, 0xeb,
  0x13, 0x30, 0xf4, 0xf1, 0x0e, 0x19, 0x32, 0x4e,
  0x44, 0xe1, 0x43, 0x23, 0xd3, 0x44, 0x37, 0x9c,
  0xd2, 0x05, 0x16, 0x21, 0xb2, 0x26, 0x37, 0x08,
  0x24, 0x41, 0xfc, 0xfc, 0xec, 0x1d, 0x07, 0x25,
  0x0d, 0xd8, 0x38, 0xc1, 0xce, 0x7f, 0x2c, 0xab,
  0x02, 0x28, 0xea, 0x22, 0xd8, 0x47, 0x17, 0xf6,
  0x1f, 0x51, 0xf6, 0x2f, 0xe9, 0xf1, 0x05, 0x07,
  0xdc, 0xc5, 0x22, 0xce, 0x03, 0x75, 0x08, 0xc4,
  0x00, 0xeb, 0xfd, 0x36, 0xe3, 0x17, 0xfc, 0xfb,
  0xd6, 0x46, 0x07, 0x03, 0x0a, 0xf2, 0x3c, 0xf0,
  0x2a, 0xf7, 0xff, 0xff, 0x04, 0x00, 0x00, 0x00,
  0x80, 0x00, 0x00, 0x00, 0xad, 0xfc, 0xff, 0xff,
  0x79, 0x03, 0x00, 0x00, 0x52, 0xfc, 0xff, 0xff,
  0xf5, 0x00, 0x00, 0x00, 0x74, 0x00, 0x00, 0x00,
  0xa2, 0x00, 0x00, 0x00, 0x2c, 0x04, 0x00, 0x00,
  0x93, 0x01, 0x00, 0x00, 0x83, 0xf7, 0xff, 0xff,
  0x60, 0xfe, 0xff, 0xff, 0x42, 0x00, 0x00, 0x00,
  0xff, 0x00, 0x00, 0x00, 0xd3, 0xff, 0xff, 0xff,
  0x1e, 0x01, 0x00, 0x00, 0x78, 0xff, 0xff, 0xff,
  0x9b, 0xfa, 0xff, 0xff, 0xeb, 0xfc, 0xff, 0xff,
  0xbd, 0xff, 0xff, 0xff, 0x92, 0xff, 0xff, 0xff,
  0xfd, 0x02, 0x00, 0x00, 0xd1, 0xfd, 0xff, 0xff,
  0xeb, 0xf5, 0xff, 0xff, 0xc3, 0xfc, 0xff, 0xff,
  0x03, 0xfc, 0xff, 0xff, 0xf3, 0x00, 0x00, 0x00,
  0x22, 0xfe, 0xff, 0xff, 0x2c, 0xfd, 0xff, 0xff,
  0x91, 0x03, 0x00, 0x00, 0x4c, 0xfd, 0xff, 0xff,
  0x1a, 0xff, 0xff, 0xff, 0x72, 0xff, 0xff, 0xff,
  0x84, 0xf9, 0xff, 0xff, 0xb6, 0xf7, 0xff, 0xff,
  0x04, 0x00, 0x00, 0x00, 0x00, 0x04, 0x00, 0x00,
  0x1e, 0xe3, 0x07, 0xbf, 0xdd, 0xc3, 0xd3, 0xc7,
  0xfc, 0x04, 0xd5, 0xc5, 0x28, 0x17, 0xe6, 0x23,
  0x20, 0x18, 0x14, 0xed, 0x09, 0xe4, 0xd6, 0xd6,
  0xcb, 0x02, 0xf3, 0xfa, 0xe1, 0x18, 0xf5, 0xce,
  0x35, 0xe6, 0xd2, 0xfa, 0x21, 0xd1, 0xf8, 0xf4,
  0xef, 0xee, 0xe6, 0xfc, 0x1b, 0x12, 0xec, 0x0a,
  0x1b, 0x1a, 0x1f, 0x17, 0x37, 0x0a, 0xdb, 0xeb,
  0xe5, 0x0a, 0xe6, 0xf0, 0x2f, 0xf0, 0xdd, 0xd4,
  0xc7, 0x3d, 0x2e, 0xec, 0x0e, 0x0a, 0x42, 0x26,
  0x35, 0x12, 0x18, 0xda, 0x04, 0x07, 0x32, 0x28,
  0x09, 0x1f, 0x01, 0x2f, 0xc2, 0x02, 0x39, 0x10,
  0x0c, 0x29, 0xfb, 0xee, 0xd4, 0xe0, 0xfb, 0x1f,
  0x00, 0x22, 0x1f, 0x04, 0x30, 0x0b, 0x2f, 0xe5,
  0x30, 0xd6, 0x25, 0xf0, 0x17, 0x11, 0x29, 0x30,
  0xc3, 0x0f, 0x0f, 0x52, 0xb4, 0x10, 0xf8, 0x2c,
  0x10, 0xde, 0x26, 0x18, 0xde, 0xff, 0x15, 0x15,
  0xc6, 0x30, 0x12, 0x22, 0xed, 0x1c, 0x5e, 0x0c,
  0x09, 0x0f, 0x1d, 0x18, 0x20, 0x2a, 0xe3, 0xf9,
  0xfa, 0x09, 0x11, 0x2a, 0xe3, 0x2e, 0xf6, 0xff,
  0x1a, 0xef, 0x0d, 0x11, 0xf1, 0xe3, 0xfb, 0x14,
  0xf1, 0xff, 0xd3, 0x19, 0x06, 0xf2, 0x1e, 0xd0,
  0x04, 0x18, 0xd0, 0xec, 0xd9, 0xd6, 0x1e, 0x05,
  0xcf, 0xdc, 0xce, 0xdc, 0xf1, 0xe5, 0x00, 0xe7,
  0x1d, 0xfe, 0xdc, 0x20, 0x09, 0xea, 0xdc, 0xe4,
  0x09, 0x40, 0x22, 0xfd, 0xe2, 0xec, 0x48, 0x2f,
  0x18, 0xe0, 0x1a, 0xb4, 0x2d, 0xe3, 0xf0, 0x10,
  0xf3, 0xe6, 0xf4, 0x3d, 0xbc, 0x15, 0xe2, 0x21,
  0x1f, 0xe9, 0xeb, 0xf3, 0xe0, 0x08, 0x07, 0x23,
  0x11, 0x00, 0xf2, 0xca, 0xff, 0xdf, 0x04, 0x0a,
  0xc6, 0x1d, 0xdd, 0xe4, 0xd3, 0x26, 0xb9, 0xcf,
  0x32, 0x30, 0xcf, 0xeb, 0x71, 0xbf, 0x25, 0xd9,
  0xbf, 0xd3, 0x03, 0xdb, 0x26, 0x05, 0xb7, 0x01,
  0x29, 0xfb, 0x1c, 0xcd, 0xc7, 0xfc, 0x1d, 0xee,
  0x07, 0x23, 0x05, 0x0a, 0xf0, 0xfa, 0xdb, 0xf4,
  0x14, 0x16, 0xd2, 0xc9, 0x33, 0xdf, 0xd1, 0xc3,
  0xbc, 0x13, 0xd0, 0x0b, 0x24, 0x25, 0xf8, 0xd1,
  0xdb, 0x43, 0x11, 0x03, 0x17, 0x14, 0x49, 0xfb,
  0x33, 0x0f, 0x2e, 0xc1, 0x11, 0xfc, 0x02, 0xfe,
  0x09, 0xf2, 0xe7, 0x34, 0xac, 0x0c, 0xe1, 0xfd,
  0x2c, 0x12, 0xd3, 0x00, 0xc4, 0xdb, 0x0e, 0x0f,
  0x2a, 0xbf, 0xf1, 0xee, 0x0d, 0xfa, 0xdf, 0xf0,
  0xed, 0x24, 0xc0, 0xde, 0xc6, 0xf7, 0xbe, 0xb9,
  0x29, 0x20, 0xd2, 0x09, 0x51, 0xdb, 0xf6, 0xbb,
  0xf5, 0xd1, 0xf8, 0x1a, 0x2d, 0x2a, 0xc3, 0xf8,
  0xd8, 0xd7, 0xea, 0xee, 0x08, 0x1a, 0x0c, 0xd2,
  0xe4, 0x11, 0x03, 0xef, 0x2c, 0xf1, 0xe3, 0xef,
  0xeb, 0xe0, 0xfc, 0xe0, 0xd4, 0xe9, 0xf9, 0x01,
  0x1e, 0xdf, 0xe9, 0xf1, 0xee, 0xef, 0x0b, 0xce,
  0x18, 0xed, 0x0c, 0x1e, 0xed, 0x0e, 0xfe, 0xc8,
  0xe0, 0xfa, 0xc3, 0x1a, 0xf7, 0x36, 0xd3, 0xf1,
  0x31, 0x19, 0xcc, 0xf9, 0x51, 0xda, 0x0a, 0xea,
  0x12, 0x07, 0x12, 0x0b, 0x22, 0x14, 0xf8, 0xfb,
  0xb9, 0xff, 0x25, 0x10, 0x0c, 0x12, 0x4e, 0x12,
  0x1f, 0x1f, 0xec, 0xe5, 0x0a, 0x02, 0x18, 0x30,
  0xda, 0xe5, 0xed, 0x17, 0xdd, 0x34, 0x35, 0x2f,
  0x29, 0x37, 0xd1, 0xe4, 0x05, 0xcc, 0x04, 0x1b,
  0x03, 0x3d, 0x32, 0x02, 0x1e, 0x1a, 0x2a, 0xfc,
  0x31, 0x24, 0xf3, 0xe3, 0x2e, 0xee, 0x34, 0x1f,
  0xf2, 0x0b, 0xfc, 0x21, 0xa5, 0x36, 0x03, 0xf6,
  0x18, 0x17, 0xdf, 0xd6, 0xc5, 0xd0, 0xf8, 0x2a,
  0xd5, 0x1a, 0x2a, 0x26, 0x21, 0x28, 0x0f, 0x08,
  0x2e, 0xe1, 0x32, 0xd5, 0x09, 0xfc, 0xf7, 0x15,
  0xe5, 0xee, 0xf6, 0x26, 0xad, 0x24, 0x0a, 0x1c,
  0x2a, 0xf3, 0xcb, 0xd1, 0xe8, 0xf6, 0xe8, 0x32,
  0xd5, 0xd6, 0xd7, 0x07, 0xd3, 0xfa, 0x10, 0x28,
  0x13, 0xe6, 0xe2, 0x00, 0x14, 0xe4, 0x21, 0xe5,
  0x09, 0xe0, 0xeb, 0xf0, 0xe4, 0xdd, 0xe6, 0x06,
  0xcf, 0x18, 0x09, 0xe4, 0xd0, 0xff, 0xf4, 0x06,
  0xc2, 0x29, 0xf7, 0x00, 0xf1, 0x13, 0x1a, 0x32,
  0x3c, 0x11, 0xf7, 0xd3, 0x2b, 0xfe, 0x34, 0xf9,
  0xfb, 0xff, 0xfe, 0x18, 0xc0, 0x09, 0x2c, 0x34,
  0x3f, 0x00, 0xd9, 0xd1, 0xd9, 0xe9, 0x23, 0x22,
  0xdc, 0xdc, 0x33, 0x06, 0xe8, 0x03, 0x08, 0x08,
  0x41, 0x09, 0xfa, 0x14, 0x1b, 0xe6, 0xf3, 0x21,
  0xd7, 0x2b, 0x10, 0xe5, 0xea, 0x3a, 0x22, 0xec,
  0xe8, 0x25, 0xeb, 0xe7, 0xec, 0x09, 0x00, 0xf9,
  0x3a, 0xb4, 0xee, 0xb8, 0xef, 0xeb, 0x15, 0xcf,
  0x09, 0x17, 0x04, 0xe7, 0xb9, 0xf5, 0xde, 0xd8,
  0x3d, 0x2e, 0x0b, 0xc7, 0x7f, 0xf6, 0xfb, 0xd9,
  0xcf, 0xe2, 0xd7, 0xd3, 0x3a, 0xeb, 0xfe, 0xc4,
  0xf4, 0x04, 0x09, 0xe6, 0xa4, 0xc3, 0xd1, 0xb8,
  0xf0, 0x23, 0xf2, 0xf4, 0xd4, 0x43, 0xd2, 0xf0,
  0xf6, 0x36, 0xc5, 0xf7, 0xe8, 0xe1, 0xe0, 0xd1,
  0x24, 0xbf, 0x24, 0x16, 0x29, 0x05, 0xb6, 0xf0,
  0xfd, 0x1a, 0xf4, 0x1f, 0x0c, 0x0f, 0x32, 0x14,
  0x2a, 0xfe, 0x06, 0xc9, 0xf9, 0xf6, 0x2e, 0x20,
  0xec, 0x0b, 0xeb, 0x3c, 0xc7, 0x1d, 0xe0, 0x31,
  0x29, 0x0f, 0xba, 0xde, 0xd2, 0xd9, 0x12, 0x26,
  0xf3, 0x2f, 0xd9, 0x18, 0x26, 0xf7, 0x4d, 0x26,
  0xef, 0xda, 0x28, 0xe6, 0xe3, 0x27, 0x1b, 0x1e,
  0xdc, 0x06, 0xe7, 0x49, 0xe4, 0x28, 0xe7, 0x1b,
  0x39, 0x15, 0xe6, 0xf5, 0xad, 0xd4, 0x1f, 0x07,
  0x14, 0xcd, 0xe1, 0xd1, 0xd2, 0xe5, 0xdc, 0xd6,
  0xe1, 0xe5, 0x18, 0xe4, 0x07, 0xcc, 0x0c, 0xfe,
  0x21, 0x0a, 0x28, 0xf1, 0xdd, 0xf4, 0xb5, 0xdc,
  0xf6, 0xf4, 0xe7, 0xe7, 0x02, 0xce, 0xb5, 0x00,
  0x05, 0xe5, 0xf3, 0xff, 0xb0, 0xf2, 0xf2, 0xdb,
  0x0d, 0x0e, 0xbd, 0xca, 0xda, 0x41, 0xe9, 0x05,
  0xf2, 0x07, 0xe4, 0xc1, 0x3e, 0x07, 0xe7, 0xea,
  0xd2, 0xe8, 0xed, 0xb9, 0x00, 0x30, 0xae, 0xe4,
  0x0b, 0xfd, 0x43, 0x25, 0x10, 0x04, 0x00, 0xf3,
  0x0d, 0xee, 0x0c, 0xff, 0xfe, 0xe8, 0xef, 0x1c,
  0x16, 0xfc, 0x12, 0xea, 0xce, 0x3f, 0xeb, 0x34,
  0xf6, 0x05, 0x25, 0xf2, 0x06, 0x21, 0x29, 0x0c,
  0x0e, 0x09, 0x39, 0x22, 0x11, 0x0b, 0x09, 0xdd,
  0x31, 0xea, 0x03, 0x03, 0x1d, 0x0c, 0x2d, 0xf3,
  0xc5, 0xe2, 0x00, 0xfb, 0xba, 0x38, 0x0f, 0x29,
  0x21, 0x17, 0xfb, 0xcc, 0xf4, 0x09, 0x1e, 0xf7,
  0x40, 0x0b, 0x27, 0xd3, 0xd4, 0xf8, 0xd8, 0xd5,
  0xc5, 0x27, 0xcc, 0x25, 0xf6, 0xef, 0xec, 0xd9,
  0x31, 0xee, 0xbd, 0xf8, 0x66, 0xb8, 0x04, 0x08,
  0xe1, 0xfc, 0x05, 0x02, 0xf5, 0x23, 0x14, 0x0a,
  0xf5, 0x40, 0xe9, 0x0a, 0xd5, 0x1f, 0x26, 0x0c,
  0x1b, 0xdf, 0x03, 0xf5, 0x16, 0x04, 0xe5, 0x41,
  0xdc, 0x0f, 0xea, 0x34, 0xd1, 0x08, 0x15, 0xf3,
  0x43, 0x16, 0xc3, 0xfc, 0x0c, 0xf6, 0x0d, 0x26,
  0x17, 0x0c, 0xf7, 0xf2, 0xfb, 0xb4, 0xf7, 0xec,
  0xb1, 0x2d, 0xdb, 0xf5, 0xdf, 0xfa, 0xe0, 0xdb,
  0xed, 0x37, 0xea, 0xd4, 0x2c, 0x00, 0xf2, 0xe5,
  0xe8, 0xd2, 0x00, 0xcb, 0x22, 0x2a, 0xe8, 0xcd,
  0x3d, 0xf5, 0x14, 0xe9, 0xea, 0xcf, 0x0b, 0xcd,
  0x11, 0x38, 0xde, 0xfc, 0xcc, 0xf6, 0xef, 0xd3,
  0x07, 0x08, 0xe4, 0xed, 0x55, 0xba, 0xfd, 0xf7,
  0xed, 0xe1, 0x00, 0xe9, 0xfb, 0x34, 0x02, 0xc8,
  0x38, 0x17, 0x25, 0xef, 0xe0, 0xbb, 0x26, 0xb7,
  0xc3, 0x36, 0xc2, 0xfe, 0xe2, 0x0f, 0xb1, 0xf4,
  0x30, 0x09, 0xda, 0xbe, 0x45, 0xeb, 0xf1, 0xfe,
  0x04, 0xd2, 0x0c, 0xec, 0xe0, 0x29, 0xcd, 0xe9,
  0xc2, 0xfb, 0xff, 0xff, 0x04, 0x00, 0x00, 0x00,
  0x80, 0x00, 0x00, 0x00, 0xf9, 0x00, 0x00, 0x00,
  0x33, 0xff, 0xff, 0xff, 0x5b, 0xff, 0xff, 0xff,
  0x50, 0x00, 0x00, 0x00, 0x94, 0xfe, 0xff, 0xff,
  0xa5, 0xfe, 0xff, 0xff, 0x0c, 0x02, 0x00, 0x00,
  0xe3, 0x01, 0x00, 0x00, 0xae, 0x01, 0x00, 0x00,
  0x7e, 0x01, 0x00, 0x00, 0x1a, 0xff, 0xff, 0xff,
  0x5c, 0xfe, 0xff, 0xff, 0xb4, 0xff, 0xff, 0xff,
  0x28, 0x01, 0x00, 0x00, 0xee, 0xff, 0xff, 0xff,
  0xae, 0x01, 0x00, 0x00, 0xe8, 0xfe, 0xff, 0xff,
  0x87, 0xff, 0xff, 0xff, 0xf7, 0xf8, 0xff, 0xff,
  0xe6, 0x02, 0x00, 0x00, 0x74, 0xff, 0xff, 0xff,
  0xbc, 0x01, 0x00, 0x00, 0x76, 0x02, 0x00, 0x00,
  0x81, 0x02, 0x00, 0x00, 0x00, 0x03, 0x00, 0x00,
  0x1d, 0xfc, 0xff, 0xff, 0x5b, 0xff, 0xff, 0xff,
  0x80, 0x00, 0x00, 0x00, 0x3a, 0x01, 0x00, 0x00,
  0x99, 0x00, 0x00, 0x00, 0xe6, 0xfe, 0xff, 0xff,
  0xe3, 0xff, 0xff, 0xff, 0x4e, 0xfc, 0xff, 0xff,
  0x04, 0x00, 0x00, 0x00, 0x00, 0x02, 0x00, 0x00,
  0xcf, 0xc9, 0x43, 0x03, 0x54, 0xd7, 0x22, 0xe5,
  0xdf, 0x15, 0xf9, 0xf2, 0xe6, 0x37, 0x3a, 0x4f,
  0x23, 0x12, 0x28, 0xd3, 0xc5, 0x5c, 0x3f, 0xcb,
  0xbf, 0x0c, 0x2d, 0x9b, 0x2a, 0xed, 0xab, 0xd2,
  0xeb, 0xb3, 0x14, 0x30, 0x14, 0x10, 0x1c, 0xd8,
  0x9a, 0x19, 0xca, 0xd2, 0xe0, 0x05, 0x19, 0x1d,
  0xea, 0x15, 0x12, 0xec, 0xb5, 0xf0, 0x31, 0xd1,
  0xca, 0xf9, 0x35, 0xa2, 0x28, 0xf2, 0x95, 0xba,
  0x45, 0x15, 0xc7, 0xe9, 0x0b, 0x08, 0x0e, 0x22,
  0x3c, 0x00, 0x48, 0xe4, 0x24, 0xdf, 0xbd, 0xf8,
  0x13, 0xd9, 0xd1, 0x61, 0x7f, 0xaa, 0x00, 0x7b,
  0x38, 0xca, 0xe1, 0x46, 0x09, 0x48, 0x59, 0x4b,
  0xcb, 0x08, 0xe8, 0xde, 0xf4, 0xd3, 0x15, 0xc3,
  0xff, 0x3e, 0xe6, 0xd6, 0xde, 0x2a, 0xe9, 0xfc,
  0x2a, 0xe7, 0x37, 0xb9, 0xf9, 0xf3, 0xf7, 0xfd,
  0xf7, 0x38, 0xee, 0xd1, 0xe2, 0xeb, 0xcb, 0xe3,
  0xf8, 0x08, 0x27, 0x02, 0x29, 0x35, 0x3b, 0xe3,
  0xde, 0x53, 0xc1, 0x2d, 0xd1, 0x28, 0x2f, 0x46,
  0xef, 0x2a, 0x3a, 0x96, 0xfe, 0xff, 0x53, 0xc4,
  0xe1, 0xdd, 0x01, 0xd6, 0x25, 0xfb, 0xc6, 0xb6,
  0x0d, 0x28, 0xf1, 0xd3, 0x12, 0xe6, 0x06, 0x3f,
  0x45, 0xda, 0x4c, 0xf3, 0x42, 0xe7, 0xc7, 0xde,
  0xf3, 0xb6, 0xf4, 0x51, 0x5c, 0xfa, 0xc1, 0x5b,
  0x25, 0xd2, 0xf2, 0x2b, 0xd7, 0x30, 0x1e, 0x3a,
  0xef, 0xf0, 0x39, 0x2e, 0x46, 0x0e, 0x53, 0xe7,
  0x96, 0x4d, 0xfa, 0x15, 0xf4, 0x21, 0x3e, 0x0a,
  0xe1, 0x02, 0xef, 0xcf, 0xac, 0x0a, 0x2c, 0xce,
  0xc9, 0xd4, 0x15, 0xab, 0x05, 0xcb, 0xcf, 0xbe,
  0x99, 0xb7, 0xef, 0x06, 0x0c, 0xde, 0xef, 0xe2,
  0xd9, 0x4b, 0xce, 0xd6, 0x07, 0xf5, 0xee, 0x43,
  0x35, 0x42, 0x52, 0xce, 0xe2, 0x6a, 0x61, 0xe3,
  0xbc, 0xdf, 0x48, 0xa6, 0x0e, 0xb2, 0xcb, 0xcf,
  0x40, 0xfe, 0xe3, 0xb4, 0xd8, 0xe3, 0xf4, 0x53,
  0x00, 0xee, 0x24, 0x1c, 0x30, 0xde, 0xc5, 0xcb,
  0xcc, 0xc8, 0xed, 0x60, 0x68, 0xd5, 0xc0, 0x74,
  0x33, 0x0d, 0xf7, 0x1c, 0xf2, 0x51, 0x52, 0x39,
  0x42, 0x1e, 0xe9, 0xde, 0xe3, 0xcf, 0x0e, 0x3c,
  0x3f, 0xf1, 0x2a, 0x14, 0x34, 0xe1, 0xde, 0xca,
  0x03, 0xd4, 0xe6, 0x67, 0x6c, 0xb3, 0xa5, 0x7c,
  0x42, 0xdd, 0xe2, 0x4c, 0x11, 0x2d, 0x46, 0x55,
  0xad, 0xf1, 0x4a, 0xff, 0xe2, 0x26, 0x1c, 0xd3,
  0xed, 0x31, 0xe3, 0xf1, 0x12, 0x19, 0x30, 0x42,
  0x33, 0x08, 0x0b, 0xa4, 0xc3, 0x03, 0x37, 0xe5,
  0xb0, 0x1c, 0x22, 0xcf, 0x0f, 0xcf, 0xad, 0xab,
  0xe3, 0xd2, 0x34, 0x06, 0x20, 0xd7, 0x26, 0xdf,
  0xb6, 0xfc, 0xc5, 0xf6, 0xc2, 0x2b, 0x07, 0xf4,
  0xf6, 0x2e, 0x2d, 0xef, 0xd9, 0x17, 0x41, 0xe2,
  0xef, 0xf9, 0x15, 0xbf, 0x3e, 0xbe, 0xed, 0xf3,
  0x01, 0xd0, 0x00, 0x25, 0x36, 0xcd, 0x02, 0xe6,
  0xd1, 0x20, 0xb0, 0xda, 0xeb, 0x25, 0x1d, 0x11,
  0x2d, 0x01, 0x3e, 0xda, 0xb0, 0x4a, 0x1d, 0xc4,
  0xbb, 0x27, 0xeb, 0x9a, 0x44, 0xe4, 0xcc, 0xc6,
  0xd6, 0xcb, 0xe9, 0x14, 0x22, 0x0a, 0x1d, 0xe4,
  0xc2, 0x3f, 0xe0, 0x26, 0xc8, 0xf2, 0x21, 0x3b,
  0xc8, 0x1e, 0x13, 0xe0, 0xcf, 0x3e, 0x46, 0xe0,
  0xc7, 0xe7, 0xe7, 0xe4, 0x1a, 0xd2, 0xcc, 0xdd,
  0xec, 0xdf, 0x0b, 0x23, 0x3c, 0xcd, 0x0d, 0xdb,
  0xe6, 0x2f, 0xed, 0xfa, 0x05, 0x3f, 0xf4, 0x08,
  0x15, 0x30, 0x30, 0xd9, 0xb9, 0x31, 0x26, 0xe4,
  0xd3, 0x28, 0x39, 0xf8, 0xf0, 0xf7, 0xe7, 0xd7,
  0xeb, 0xc9, 0xf9, 0x21, 0x13, 0x2e, 0x3a, 0xba,
  0xc3, 0x59, 0xc9, 0xdd, 0xf3, 0xfa, 0x3d, 0x40,
  0x0f, 0x1c, 0xfe, 0xd0, 0xe3, 0x2b, 0x2b, 0xd6,
  0xa2, 0x23, 0xd7, 0xd9, 0x25, 0xca, 0xe4, 0xaf,
  0x5a, 0xfe, 0xff, 0xff, 0x04, 0x00, 0x00, 0x00,
  0x40, 0x00, 0x00, 0x00, 0x86, 0x02, 0x00, 0x00,
  0xc6, 0x02, 0x00, 0x00, 0xc3, 0x01, 0x00, 0x00,
  0x65, 0xfe, 0xff, 0xff, 0x2c, 0x02, 0x00, 0x00,
  0x13, 0x02, 0x00, 0x00, 0x19, 0x02, 0x00, 0x00,
  0x02, 0x04, 0x00, 0x00, 0x28, 0x03, 0x00, 0x00,
  0x26, 0x03, 0x00, 0x00, 0xb8, 0x02, 0x00, 0x00,
  0x02, 0x02, 0x00, 0x00, 0xe4, 0x01, 0x00, 0x00,
  0xde, 0x02, 0x00, 0x00, 0x1c, 0x01, 0x00, 0x00,
  0xd3, 0x03, 0x00, 0x00, 0xa6, 0xfe, 0xff, 0xff,
  0x04, 0x00, 0x00, 0x00, 0x20, 0x00, 0x00, 0x00,
  0x38, 0x6b, 0xf8, 0x03, 0x02, 0xbf, 0x08, 0x7f,
  0xc3, 0xc9, 0x54, 0x27, 0x20, 0x57, 0x41, 0x18,
  0xe2, 0xf6, 0x6e, 0xaa, 0x9d, 0x52, 0x9c, 0x17,
  0x44, 0x4f, 0xe9, 0x9f, 0xc1, 0xc0, 0xd6, 0xa4,
  0xd2, 0xfe, 0xff, 0xff, 0x04, 0x00, 0x00, 0x00,
  0x08, 0x00, 0x00, 0x00, 0x5e, 0xfc, 0xff, 0xff,
  0xa2, 0x03, 0x00, 0x00, 0xe6, 0xfe, 0xff, 0xff,
  0x04, 0x00, 0x00, 0x00, 0x04, 0x00, 0x00, 0x00,
  0x01, 0x00, 0x00, 0x00, 0xf6, 0xfe, 0xff, 0xff,
  0x04, 0x00, 0x00, 0x00, 0x0c, 0x00, 0x00, 0x00,
  0xff, 0xff, 0xff, 0xff, 0x41, 0x00, 0x00, 0x00,
  0x20, 0x00, 0x00, 0x00, 0x0e, 0xff, 0xff, 0xff,
  0x04, 0x00, 0x00, 0x00, 0x0c, 0x00, 0x00, 0x00,
  0xff, 0xff, 0xff, 0xff, 0x41, 0x00, 0x00, 0x00,
  0x18, 0x00, 0x00, 0x00, 0x26, 0xff, 0xff, 0xff,
  0x04, 0x00, 0x00, 0x00, 0x04, 0x00, 0x00, 0x00,
  0xfd, 0xff, 0xff, 0xff, 0x14, 0xe9, 0xff, 0xff,
  0x18, 0xe9, 0xff, 0xff, 0x0f, 0x00, 0x00, 0x00,
  0x4d, 0x4c, 0x49, 0x52, 0x20, 0x43, 0x6f, 0x6e,
  0x76, 0x65, 0x72, 0x74, 0x65, 0x64, 0x2e, 0x00,
  0x01, 0x00, 0x00, 0x00, 0x14, 0x00, 0x00, 0x00,
  0x00, 0x00, 0x0e, 0x00, 0x18, 0x00, 0x14, 0x00,
  0x10, 0x00, 0x0c, 0x00, 0x08, 0x00, 0x04, 0x00,
  0x0e, 0x00, 0x00, 0x00, 0x14, 0x00, 0x00, 0x00,
  0x1c, 0x00, 0x00, 0x00, 0xfc, 0x02, 0x00, 0x00,
  0x00, 0x03, 0x00, 0x00, 0x04, 0x03, 0x00, 0x00,
  0x04, 0x00, 0x00, 0x00, 0x6d, 0x61, 0x69, 0x6e,
  0x00, 0x00, 0x00, 0x00, 0x0d, 0x00, 0x00, 0x00,
  0xc4, 0x02, 0x00, 0x00, 0x84, 0x02, 0x00, 0x00,
  0x24, 0x02, 0x00, 0x00, 0xfc, 0x01, 0x00, 0x00,
  0xbc, 0x01, 0x00, 0x00, 0x78, 0x01, 0x00, 0x00,
  0x50, 0x01, 0x00, 0x00, 0x1c, 0x01, 0x00, 0x00,
  0xd8, 0x00, 0x00, 0x00, 0x9c, 0x00, 0x00, 0x00,
  0x64, 0x00, 0x00, 0x00, 0x28, 0x00, 0x00, 0x00,
  0x04, 0x00, 0x00, 0x00, 0x36, 0xfe, 0xff, 0xff,
  0x0c, 0x00, 0x00, 0x00, 0x10, 0x00, 0x00, 0x00,
  0x07, 0x00, 0x00, 0x00, 0x01, 0x00, 0x00, 0x00,
  0x1b, 0x00, 0x00, 0x00, 0x01, 0x00, 0x00, 0x00,
  0x1a, 0x00, 0x00, 0x00, 0xda, 0xfd, 0xff, 0xff,
  0x1c, 0x00, 0x00, 0x00, 0x00, 0x00, 0x00, 0x09,
  0x1c, 0x00, 0x00, 0x00, 0x20, 0x00, 0x00, 0x00,
  0x06, 0x00, 0x00, 0x00, 0x00, 0x00, 0x06, 0x00,
  0x08, 0x00, 0x04, 0x00, 0x06, 0x00, 0x00, 0x00,
  0x00, 0x00, 0x80, 0x3f, 0x01, 0x00, 0x00, 0x00,
  0x1a, 0x00, 0x00, 0x00, 0x01, 0x00, 0x00, 0x00,
  0x19, 0x00, 0x00, 0x00, 0x12, 0xfe, 0xff, 0xff,
  0x14, 0x00, 0x00, 0x00, 0x00, 0x00, 0x00, 0x08,
  0x10, 0x00, 0x00, 0x00, 0x14, 0x00, 0x00, 0x00,
  0x05, 0x00, 0x00, 0x00, 0x14, 0xea, 0xff, 0xff,
  0x01, 0x00, 0x00, 0x00, 0x19, 0x00, 0x00, 0x00,
  0x03, 0x00, 0x00, 0x00, 0x18, 0x00, 0x00, 0x00,
  0x06, 0x00, 0x00, 0x00, 0x05, 0x00, 0x00, 0x00,
  0x46, 0xfe, 0xff, 0xff, 0x14, 0x00, 0x00, 0x00,
  0x00, 0x00, 0x00, 0x08, 0x14, 0x00, 0x00, 0x00,
  0x18, 0x00, 0x00, 0x00, 0x05, 0x00, 0x00, 0x00,
  0xc6, 0xff, 0xff, 0xff, 0x00, 0x00, 0x00, 0x01,
  0x01, 0x00, 0x00, 0x00, 0x18, 0x00, 0x00, 0x00,
  0x03, 0x00, 0x00, 0x00, 0x17, 0x00, 0x00, 0x00,
  0x08, 0x00, 0x00, 0x00, 0x07, 0x00, 0x00, 0x00,
  0x7e, 0xfe, 0xff, 0xff, 0x1c, 0x00, 0x00, 0x00,
  0x00, 0x00, 0x00, 0x08, 0x1c, 0x00, 0x00, 0x00,
  0x20, 0x00, 0x00, 0x00, 0x05, 0x00, 0x00, 0x00,
  0x00, 0x00, 0x06, 0x00, 0x08, 0x00, 0x07, 0x00,
  0x06, 0x00, 0x00, 0x00, 0x00, 0x00, 0x00, 0x01,
  0x01, 0x00, 0x00, 0x00, 0x17, 0x00, 0x00, 0x00,
  0x03, 0x00, 0x00, 0x00, 0x16, 0x00, 0x00, 0x00,
  0x0a, 0x00, 0x00, 0x00, 0x09, 0x00, 0x00, 0x00,
  0xbe, 0xfe, 0xff, 0xff, 0x14, 0x00, 0x00, 0x00,
  0x00, 0x00, 0x00, 0x1b, 0x10, 0x00, 0x00, 0x00,
  0x14, 0x00, 0x00, 0x00, 0x04, 0x00, 0x00, 0x00,
  0xc0, 0xea, 0xff, 0xff, 0x01, 0x00, 0x00, 0x00,
  0x16, 0x00, 0x00, 0x00, 0x02, 0x00, 0x00, 0x00,
  0x15, 0x00, 0x00, 0x00, 0x04, 0x00, 0x00, 0x00,
  0x6a, 0xff, 0xff, 0xff, 0x0c, 0x00, 0x00, 0x00,
  0x10, 0x00, 0x00, 0x00, 0x03, 0x00, 0x00, 0x00,
  0x01, 0x00, 0x00, 0x00, 0x15, 0x00, 0x00, 0x00,
  0x02, 0x00, 0x00, 0x00, 0x14, 0x00, 0x00, 0x00,
  0x03, 0x00, 0x00, 0x00, 0x12, 0xff, 0xff, 0xff,
  0x14, 0x00, 0x00, 0x00, 0x00, 0x00, 0x00, 0x01,
  0x1c, 0x00, 0x00, 0x00, 0x20, 0x00, 0x00, 0x00,
  0x02, 0x00, 0x00, 0x00, 0x60, 0xff, 0xff, 0xff,
  0x00, 0x00, 0x00, 0x01, 0x01, 0x00, 0x00, 0x00,
  0x01, 0x00, 0x00, 0x00, 0x01, 0x00, 0x00, 0x00,
  0x14, 0x00, 0x00, 0x00, 0x03, 0x00, 0x00, 0x00,
  0x13, 0x00, 0x00, 0x00, 0x0c, 0x00, 0x00, 0x00,
  0x0b, 0x00, 0x00, 0x00, 0x52, 0xff, 0xff, 0xff,
  0x14, 0x00, 0x00, 0x00, 0x00, 0x00, 0x00, 0x34,
  0x10, 0x00, 0x00, 0x00, 0x14, 0x00, 0x00, 0x00,
  0x01, 0x00, 0x00, 0x00, 0x54, 0xeb, 0xff, 0xff,
  0x01, 0x00, 0x00, 0x00, 0x13, 0x00, 0x00, 0x00,
  0x02, 0x00, 0x00, 0x00, 0x12, 0x00, 0x00, 0x00,
  0x01, 0x00, 0x00, 0x00, 0x00, 0x00, 0x0a, 0x00,
  0x10, 0x00, 0x0c, 0x00, 0x08, 0x00, 0x04, 0x00,
  0x0a, 0x00, 0x00, 0x00, 0x0c, 0x00, 0x00, 0x00,
  0x10, 0x00, 0x00, 0x00, 0x03, 0x00, 0x00, 0x00,
  0x01, 0x00, 0x00, 0x00, 0x12, 0x00, 0x00, 0x00,
  0x02, 0x00, 0x00, 0x00, 0x11, 0x00, 0x00, 0x00,
  0x02, 0x00, 0x00, 0x00, 0xb2, 0xff, 0xff, 0xff,
  0x20, 0x00, 0x00, 0x00, 0x00, 0x00, 0x00, 0x01,
  0x28, 0x00, 0x00, 0x00, 0x2c, 0x00, 0x00, 0x00,
  0x02, 0x00, 0x00, 0x00, 0x0c, 0x00, 0x10, 0x00,
  0x00, 0x00, 0x0c, 0x00, 0x08, 0x00, 0x07, 0x00,
  0x0c, 0x00, 0x00, 0x00, 0x00, 0x00, 0x00, 0x01,
  0x01, 0x00, 0x00, 0x00, 0x01, 0x00, 0x00, 0x00,
  0x01, 0x00, 0x00, 0x00, 0x11, 0x00, 0x00, 0x00,
  0x03, 0x00, 0x00, 0x00, 0x10, 0x00, 0x00, 0x00,
  0x0e, 0x00, 0x00, 0x00, 0x0d, 0x00, 0x00, 0x00,
  0x00, 0x00, 0x0e, 0x00, 0x18, 0x00, 0x14, 0x00,
  0x10, 0x00, 0x0c, 0x00, 0x0b, 0x00, 0x04, 0x00,
  0x0e, 0x00, 0x00, 0x00, 0x14, 0x00, 0x00, 0x00,
  0x00, 0x00, 0x00, 0x34, 0x10, 0x00, 0x00, 0x00,
  0x14, 0x00, 0x00, 0x00, 0x01, 0x00, 0x00, 0x00,
  0x10, 0xec, 0xff, 0xff, 0x01, 0x00, 0x00, 0x00,
  0x10, 0x00, 0x00, 0x00, 0x02, 0x00, 0x00, 0x00,
  0x0f, 0x00, 0x00, 0x00, 0x01, 0x00, 0x00, 0x00,
  0x00, 0x00, 0x0a, 0x00, 0x0c, 0x00, 0x00, 0x00,
  0x08, 0x00, 0x04, 0x00, 0x0a, 0x00, 0x00, 0x00,
  0x08, 0x00, 0x00, 0x00, 0x0c, 0x00, 0x00, 0x00,
  0x01, 0x00, 0x00, 0x00, 0x0f, 0x00, 0x00, 0x00,
  0x01, 0x00, 0x00, 0x00, 0x00, 0x00, 0x00, 0x00,
  0x01, 0x00, 0x00, 0x00, 0x1b, 0x00, 0x00, 0x00,
  0x01, 0x00, 0x00, 0x00, 0x00, 0x00, 0x00, 0x00,
  0x1c, 0x00, 0x00, 0x00, 0x70, 0x13, 0x00, 0x00,
  0x08, 0x13, 0x00, 0x00, 0xa4, 0x12, 0x00, 0x00,
  0x54, 0x12, 0x00, 0x00, 0xf0, 0x11, 0x00, 0x00,
  0x70, 0x11, 0x00, 0x00, 0x08, 0x11, 0x00, 0x00,
  0x94, 0x10, 0x00, 0x00, 0x28, 0x10, 0x00, 0x00,
  0xb4, 0x0f, 0x00, 0x00, 0x50, 0x0f, 0x00, 0x00,
  0x64, 0x0d, 0x00, 0x00, 0x80, 0x0b, 0x00, 0x00,
  0xfc, 0x09, 0x00, 0x00, 0x78, 0x08, 0x00, 0x00,
  0x00, 0x08, 0x00, 0x00, 0x58, 0x07, 0x00, 0x00,
  0x6c, 0x06, 0x00, 0x00, 0x9c, 0x05, 0x00, 0x00,
  0x04, 0x05, 0x00, 0x00, 0x08, 0x04, 0x00, 0x00,
  0x30, 0x03, 0x00, 0x00, 0xa8, 0x02, 0x00, 0x00,
  0x0c, 0x02, 0x00, 0x00, 0x68, 0x01, 0x00, 0x00,
  0xdc, 0x00, 0x00, 0x00, 0x60, 0x00, 0x00, 0x00,
  0x04, 0x00, 0x00, 0x00, 0x16, 0xed, 0xff, 0xff,
  0x00, 0x00, 0x00, 0x01, 0x14, 0x00, 0x00, 0x00,
  0x1c, 0x00, 0x00, 0x00, 0x1c, 0x00, 0x00, 0x00,
  0x1c, 0x00, 0x00, 0x00, 0x34, 0x00, 0x00, 0x00,
  0x02, 0x00, 0x00, 0x00, 0xff, 0xff, 0xff, 0xff,
  0x02, 0x00, 0x00, 0x00, 0xfc, 0xec, 0xff, 0xff,
  0x19, 0x00, 0x00, 0x00, 0x53, 0x74, 0x61, 0x74,
  0x65, 0x66, 0x75, 0x6c, 0x50, 0x61, 0x72, 0x74,
  0x69, 0x74, 0x69, 0x6f, 0x6e, 0x65, 0x64, 0x43,
  0x61, 0x6c, 0x6c, 0x3a, 0x30, 0x00, 0x00, 0x00,
  0x02, 0x00, 0x00, 0x00, 0x01, 0x00, 0x00, 0x00,
  0x02, 0x00, 0x00, 0x00, 0xa2, 0xf8, 0xff, 0xff,
  0x00, 0x00, 0x00, 0x01, 0x18, 0x00, 0x00, 0x00,
  0x20, 0x00, 0x00, 0x00, 0x3c, 0x00, 0x00, 0x00,
  0x1b, 0x00, 0x00, 0x00, 0x00, 0x00, 0x00, 0x09,
  0x50, 0x00, 0x00, 0x00, 0x02, 0x00, 0x00, 0x00,
  0xff, 0xff, 0xff, 0xff, 0x02, 0x00, 0x00, 0x00,
  0x54, 0xef, 0xff, 0xff, 0x08, 0x00, 0x00, 0x00,
  0x10, 0x00, 0x00, 0x00, 0x01, 0x00, 0x00, 0x00,
  0x80, 0xff, 0xff, 0xff, 0xff, 0xff, 0xff, 0xff,
  0x01, 0x00, 0x00, 0x00, 0x00, 0x00, 0x80, 0x3b,
  0x1a, 0x00, 0x00, 0x00, 0x53, 0x74, 0x61, 0x74,
  0x65, 0x66, 0x75, 0x6c, 0x50, 0x61, 0x72, 0x74,
  0x69, 0x74, 0x69, 0x6f, 0x6e, 0x65, 0x64, 0x43,
  0x61, 0x6c, 0x6c, 0x3a, 0x30, 0x31, 0x00, 0x00,
  0x02, 0x00, 0x00, 0x00, 0x01, 0x00, 0x00, 0x00,
  0x02, 0x00, 0x00, 0x00, 0x1a, 0xf9, 0xff, 0xff,
  0x00, 0x00, 0x00, 0x01, 0x18, 0x00, 0x00, 0x00,
  0x20, 0x00, 0x00, 0x00, 0x3c, 0x00, 0x00, 0x00,
  0x1a, 0x00, 0x00, 0x00, 0x00, 0x00, 0x00, 0x09,
  0x60, 0x00, 0x00, 0x00, 0x02, 0x00, 0x00, 0x00,
  0xff, 0xff, 0xff, 0xff, 0x02, 0x00, 0x00, 0x00,
  0xcc, 0xef, 0xff, 0xff, 0x08, 0x00, 0x00, 0x00,
  0x10, 0x00, 0x00, 0x00, 0x01, 0x00, 0x00, 0x00,
  0xfd, 0xff, 0xff, 0xff, 0xff, 0xff, 0xff, 0xff,
  0x01, 0x00, 0x00, 0x00, 0x46, 0x32, 0x2a, 0x3f,
  0x2a, 0x00, 0x00, 0x00, 0x6d, 0x6f, 0x64, 0x65,
  0x6c, 0x2f, 0x64, 0x65, 0x6e, 0x73, 0x65, 0x5f,
  0x32, 0x2f, 0x4d, 0x61, 0x74, 0x4d, 0x75, 0x6c,
  0x3b, 0x6d, 0x6f, 0x64, 0x65, 0x6c, 0x2f, 0x64,
  0x65, 0x6e, 0x73, 0x65, 0x5f, 0x32, 0x2f, 0x42,
  0x69, 0x61, 0x73, 0x41, 0x64, 0x64, 0x00, 0x00,
  0x02, 0x00, 0x00, 0x00, 0x01, 0x00, 0x00, 0x00,
  0x02, 0x00, 0x00, 0x00, 0xa2, 0xf9, 0xff, 0xff,
  0x00, 0x00, 0x00, 0x01, 0x18, 0x00, 0x00, 0x00,
  0x20, 0x00, 0x00, 0x00, 0x40, 0x00, 0x00, 0x00,
  0x19, 0x00, 0x00, 0x00, 0x00, 0x00, 0x00, 0x09,
  0x78, 0x00, 0x00, 0x00, 0x02, 0x00, 0x00, 0x00,
  0xff, 0xff, 0xff, 0xff, 0x10, 0x00, 0x00, 0x00,
  0x54, 0xf0, 0xff, 0xff, 0x08, 0x00, 0x00, 0x00,
  0x14, 0x00, 0x00, 0x00, 0x01, 0x00, 0x00, 0x00,
  0x80, 0xff, 0xff, 0xff, 0xff, 0xff, 0xff, 0xff,
  0x00, 0x00, 0x00, 0x00, 0x01, 0x00, 0x00, 0x00,
  0x7a, 0x32, 0xf7, 0x3d, 0x3d, 0x00, 0x00, 0x00,
  0x6d, 0x6f, 0x64, 0x65, 0x6c, 0x2f, 0x64, 0x65,
  0x6e, 0x73, 0x65, 0x5f, 0x31, 0x2f, 0x4d, 0x61,
  0x74, 0x4d, 0x75, 0x6c, 0x3b, 0x6d, 0x6f, 0x64,
  0x65, 0x6c, 0x2f, 0x64, 0x65, 0x6e, 0x73, 0x65,
  0x5f, 0x31, 0x2f, 0x52, 0x65, 0x6c, 0x75, 0x3b,
  0x6d, 0x6f, 0x64, 0x65, 0x6c, 0x2f, 0x64, 0x65,
  0x6e, 0x73, 0x65, 0x5f, 0x31, 0x2f, 0x42, 0x69,
  0x61, 0x73, 0x41, 0x64, 0x64, 0x00, 0x00, 0x00,
  0x02, 0x00, 0x00, 0x00, 0x01, 0x00, 0x00, 0x00,
  0x10, 0x00, 0x00, 0x00, 0x42, 0xfa, 0xff, 0xff,
  0x00, 0x00, 0x00, 0x01, 0x18, 0x00, 0x00, 0x00,
  0x20, 0x00, 0x00, 0x00, 0x40, 0x00, 0x00, 0x00,
  0x18, 0x00, 0x00, 0x00, 0x00, 0x00, 0x00, 0x09,
  0x70, 0x00, 0x00, 0x00, 0x02, 0x00, 0x00, 0x00,
  0xff, 0xff, 0xff, 0xff, 0x20, 0x00, 0x00, 0x00,
  0xf4, 0xf0, 0xff, 0xff, 0x08, 0x00, 0x00, 0x00,
  0x14, 0x00, 0x00, 0x00, 0x01, 0x00, 0x00, 0x00,
  0x80, 0xff, 0xff, 0xff, 0xff, 0xff, 0xff, 0xff,
  0x00, 0x00, 0x00, 0x00, 0x01, 0x00, 0x00, 0x00,
  0xc5, 0x1e, 0x18, 0x3d, 0x37, 0x00, 0x00, 0x00,
  0x6d, 0x6f, 0x64, 0x65, 0x6c, 0x2f, 0x64, 0x65,
  0x6e, 0x73, 0x65, 0x2f, 0x4d, 0x61, 0x74, 0x4d,
  0x75, 0x6c, 0x3b, 0x6d, 0x6f, 0x64, 0x65, 0x6c,
  0x2f, 0x64, 0x65, 0x6e, 0x73, 0x65, 0x2f, 0x52,
  0x65, 0x6c, 0x75, 0x3b, 0x6d, 0x6f, 0x64, 0x65,
  0x6c, 0x2f, 0x64, 0x65, 0x6e, 0x73, 0x65, 0x2f,
  0x42, 0x69, 0x61, 0x73, 0x41, 0x64, 0x64, 0x00,
  0x02, 0x00, 0x00, 0x00, 0x01, 0x00, 0x00, 0x00,
  0x20, 0x00, 0x00, 0x00, 0xda, 0xfa, 0xff, 0xff,
  0x00, 0x00, 0x00, 0x01, 0x18, 0x00, 0x00, 0x00,
  0x20, 0x00, 0x00, 0x00, 0x40, 0x00, 0x00, 0x00,
  0x17, 0x00, 0x00, 0x00, 0x00, 0x00, 0x00, 0x09,
  0x5c, 0x00, 0x00, 0x00, 0x02, 0x00, 0x00, 0x00,
  0xff, 0xff, 0xff, 0xff, 0x20, 0x00, 0x00, 0x00,
  0x8c, 0xf1, 0xff, 0xff, 0x08, 0x00, 0x00, 0x00,
  0x14, 0x00, 0x00, 0x00, 0x01, 0x00, 0x00, 0x00,
  0x80, 0xff, 0xff, 0xff, 0xff, 0xff, 0xff, 0xff,
  0x00, 0x00, 0x00, 0x00, 0x01, 0x00, 0x00, 0x00,
  0x5e, 0x16, 0xc5, 0x3c, 0x23, 0x00, 0x00, 0x00,
  0x6d, 0x6f, 0x64, 0x65, 0x6c, 0x2f, 0x67, 0x6c,
  0x6f, 0x62, 0x61, 0x6c, 0x5f, 0x61, 0x76, 0x65,
  0x72, 0x61, 0x67, 0x65, 0x5f, 0x70, 0x6f, 0x6f,
  0x6c, 0x69, 0x6e, 0x67, 0x31, 0x64, 0x2f, 0x4d,
  0x65, 0x61, 0x6e, 0x00, 0x02, 0x00, 0x00, 0x00,
  0x01, 0x00, 0x00, 0x00, 0x20, 0x00, 0x00, 0x00,
  0x5e, 0xfb, 0xff, 0xff, 0x00, 0x00, 0x00, 0x01,
  0x18, 0x00, 0x00, 0x00, 0x24, 0x00, 0x00, 0x00,
  0x40, 0x00, 0x00, 0x00, 0x16, 0x00, 0x00, 0x00,
  0x00, 0x00, 0x00, 0x09, 0xa8, 0x00, 0x00, 0x00,
  0x03, 0x00, 0x00, 0x00, 0xff, 0xff, 0xff, 0xff,
  0x41, 0x00, 0x00, 0x00, 0x20, 0x00, 0x00, 0x00,
  0x14, 0xf2, 0xff, 0xff, 0x08, 0x00, 0x00, 0x00,
  0x10, 0x00, 0x00, 0x00, 0x01, 0x00, 0x00, 0x00,
  0x80, 0xff, 0xff, 0xff, 0xff, 0xff, 0xff, 0xff,
  0x01, 0x00, 0x00, 0x00, 0x82, 0x4d, 0x9e, 0x3d,
  0x6e, 0x00, 0x00, 0x00, 0x6d, 0x6f, 0x64, 0x65,
  0x6c, 0x2f, 0x63, 0x6f, 0x6e, 0x76, 0x31, 0x64,
  0x5f, 0x31, 0x2f, 0x52, 0x65, 0x6c, 0x75, 0x3b,
  0x6d, 0x6f, 0x64, 0x65, 0x6c, 0x2f, 0x63, 0x6f,
  0x6e, 0x76, 0x31, 0x64, 0x5f, 0x31, 0x2f, 0x42,
  0x69, 0x61, 0x73, 0x41, 0x64, 0x64, 0x3b, 0x6d,
  0x6f, 0x64, 0x65, 0x6c, 0x2f, 0x63, 0x6f, 0x6e,
  0x76, 0x31, 0x64, 0x5f, 0x31, 0x2f, 0x43, 0x6f,
  0x6e, 0x76, 0x31, 0x44, 0x2f, 0x53, 0x71, 0x75,
  0x65, 0x65, 0x7a, 0x65, 0x3b, 0x6d, 0x6f, 0x64,
  0x65, 0x6c, 0x2f, 0x63, 0x6f, 0x6e, 0x76, 0x31,
  0x64, 0x5f, 0x31, 0x2f, 0x42, 0x69, 0x61, 0x73,
  0x41, 0x64, 0x64, 0x2f, 0x52, 0x65, 0x61, 0x64,
  0x56, 0x61, 0x72, 0x69, 0x61, 0x62, 0x6c, 0x65,
  0x4f, 0x70, 0x00, 0x00, 0x03, 0x00, 0x00, 0x00,
  0x01, 0x00, 0x00, 0x00, 0x41, 0x00, 0x00, 0x00,
  0x20, 0x00, 0x00, 0x00, 0x32, 0xfc, 0xff, 0xff,
  0x00, 0x00, 0x00, 0x01, 0x18, 0x00, 0x00, 0x00,
  0x28, 0x00, 0x00, 0x00, 0x48, 0x00, 0x00, 0x00,
  0x15, 0x00, 0x00, 0x00, 0x00, 0x00, 0x00, 0x09,
  0xc8, 0x00, 0x00, 0x00, 0x04, 0x00, 0x00, 0x00,
  0xff, 0xff, 0xff, 0xff, 0x01, 0x00, 0x00, 0x00,
  0x41, 0x00, 0x00, 0x00, 0x20, 0x00, 0x00, 0x00,
  0xec, 0xf2, 0xff, 0xff, 0x08, 0x00, 0x00, 0x00,
  0x14, 0x00, 0x00, 0x00, 0x01, 0x00, 0x00, 0x00,
  0x80, 0xff, 0xff, 0xff, 0xff, 0xff, 0xff, 0xff,
  0x00, 0x00, 0x00, 0x00, 0x01, 0x00, 0x00, 0x00,
  0x82, 0x4d, 0x9e, 0x3d, 0x84, 0x00, 0x00, 0x00,
  0x6d, 0x6f, 0x64, 0x65, 0x6c, 0x2f, 0x63, 0x6f,
  0x6e, 0x76, 0x31, 0x64, 0x5f, 0x31, 0x2f, 0x52,
  0x65, 0x6c, 0x75, 0x3b, 0x6d, 0x6f, 0x64, 0x65,
  0x6c, 0x2f, 0x63, 0x6f, 0x6e, 0x76, 0x31, 0x64,
  0x5f, 0x31, 0x2f, 0x42, 0x69, 0x61, 0x73, 0x41,
  0x64, 0x64, 0x3b, 0x6d, 0x6f, 0x64, 0x65, 0x6c,
  0x2f, 0x63, 0x6f, 0x6e, 0x76, 0x31, 0x64, 0x5f,
  0x31, 0x2f, 0x43, 0x6f, 0x6e, 0x76, 0x31, 0x44,
  0x2f, 0x53, 0x71, 0x75, 0x65, 0x65, 0x7a, 0x65,
  0x3b, 0x6d, 0x6f, 0x64, 0x65, 0x6c, 0x2f, 0x63,
  0x6f, 0x6e, 0x76, 0x31, 0x64, 0x5f, 0x31, 0x2f,
  0x42, 0x69, 0x61, 0x73, 0x41, 0x64, 0x64, 0x2f,
  0x52, 0x65, 0x61, 0x64, 0x56, 0x61, 0x72, 0x69,
  0x61, 0x62, 0x6c, 0x65, 0x4f, 0x70, 0x3b, 0x6d,
  0x6f, 0x64, 0x65, 0x6c, 0x2f, 0x63, 0x6f, 0x6e,
  0x76, 0x31, 0x64, 0x5f, 0x31, 0x2f, 0x43, 0x6f,
  0x6e, 0x76, 0x31, 0x44, 0x00, 0x00, 0x00, 0x00,
  0x04, 0x00, 0x00, 0x00, 0x01, 0x00, 0x00, 0x00,
  0x01, 0x00, 0x00, 0x00, 0x41, 0x00, 0x00, 0x00,
  0x20, 0x00, 0x00, 0x00, 0x2a, 0xfd, 0xff, 0xff,
  0x00, 0x00, 0x00, 0x01, 0x18, 0x00, 0x00, 0x00,
  0x28, 0x00, 0x00, 0x00, 0x48, 0x00, 0x00, 0x00,
  0x14, 0x00, 0x00, 0x00, 0x00, 0x00, 0x00, 0x09,
  0x64, 0x00, 0x00, 0x00, 0x04, 0x00, 0x00, 0x00,
  0xff, 0xff, 0xff, 0xff, 0x01, 0x00, 0x00, 0x00,
  0x41, 0x00, 0x00, 0x00, 0x18, 0x00, 0x00, 0x00,
  0xe4, 0xf3, 0xff, 0xff, 0x08, 0x00, 0x00, 0x00,
  0x14, 0x00, 0x00, 0x00, 0x01, 0x00, 0x00, 0x00,
  0x80, 0xff, 0xff, 0xff, 0xff, 0xff, 0xff, 0xff,
  0x00, 0x00, 0x00, 0x00, 0x01, 0x00, 0x00, 0x00,
  0xeb, 0x80, 0x6c, 0x3d, 0x20, 0x00, 0x00, 0x00,
  0x6d, 0x6f, 0x64, 0x65, 0x6c, 0x2f, 0x63, 0x6f,
  0x6e, 0x76, 0x31, 0x64, 0x5f, 0x31, 0x2f, 0x43,
  0x6f, 0x6e, 0x76, 0x31, 0x44, 0x2f, 0x45, 0x78,
  0x70, 0x61, 0x6e, 0x64, 0x44, 0x69, 0x6d, 0x73,
  0x00, 0x00, 0x00, 0x00, 0x04, 0x00, 0x00, 0x00,
  0x01, 0x00, 0x00, 0x00, 0x01, 0x00, 0x00, 0x00,
  0x41, 0x00, 0x00, 0x00, 0x18, 0x00, 0x00, 0x00,
  0xbe, 0xfd, 0xff, 0xff, 0x00, 0x00, 0x00, 0x01,
  0x18, 0x00, 0x00, 0x00, 0x24, 0x00, 0x00, 0x00,
  0x40, 0x00, 0x00, 0x00, 0x13, 0x00, 0x00, 0x00,
  0x00, 0x00, 0x00, 0x09, 0xa0, 0x00, 0x00, 0x00,
  0x03, 0x00, 0x00, 0x00, 0xff, 0xff, 0xff, 0xff,
  0x41, 0x00, 0x00, 0x00, 0x18, 0x00, 0x00, 0x00,
  0x74, 0xf4, 0xff, 0xff, 0x08, 0x00, 0x00, 0x00,
  0x10, 0x00, 0x00, 0x00, 0x01, 0x00, 0x00, 0x00,
  0x80, 0xff, 0xff, 0xff, 0xff, 0xff, 0xff, 0xff,
  0x01, 0x00, 0x00, 0x00, 0xeb, 0x80, 0x6c, 0x3d,
  0x66, 0x00, 0x00, 0x00, 0x6d, 0x6f, 0x64, 0x65,
  0x6c, 0x2f, 0x63, 0x6f, 0x6e, 0x76, 0x31, 0x64,
  0x2f, 0x52, 0x65, 0x6c, 0x75, 0x3b, 0x6d, 0x6f,
  0x64, 0x65, 0x6c, 0x2f, 0x63, 0x6f, 0x6e, 0x76,
  0x31, 0x64, 0x2f, 0x42, 0x69, 0x61, 0x73, 0x41,
  0x64, 0x64, 0x3b, 0x6d, 0x6f, 0x64, 0x65, 0x6c,
  0x2f, 0x63, 0x6f, 0x6e, 0x76, 0x31, 0x64, 0x2f,
  0x43, 0x6f, 0x6e, 0x76, 0x31, 0x44, 0x2f, 0x53,
  0x71, 0x75, 0x65, 0x65, 0x7a, 0x65, 0x3b, 0x6d,
  0x6f, 0x64, 0x65, 0x6c, 0x2f, 0x63, 0x6f, 0x6e,
  0x76, 0x31, 0x64, 0x2f, 0x42, 0x69, 0x61, 0x73,
  0x41, 0x64, 0x64, 0x2f, 0x52, 0x65, 0x61, 0x64,
  0x56, 0x61, 0x72, 0x69, 0x61, 0x62, 0x6c, 0x65,
  0x4f, 0x70, 0x00, 0x00, 0x03, 0x00, 0x00, 0x00,
  0x01, 0x00, 0x00, 0x00, 0x41, 0x00, 0x00, 0x00,
  0x18, 0x00, 0x00, 0x00, 0x8a, 0xfe, 0xff, 0xff,
  0x00, 0x00, 0x00, 0x01, 0x18, 0x00, 0x00, 0x00,
  0x28, 0x00, 0x00, 0x00, 0x44, 0x00, 0x00, 0x00,
  0x12, 0x00, 0x00, 0x00, 0x00, 0x00, 0x00, 0x09,
  0xb8, 0x00, 0x00, 0x00, 0x04, 0x00, 0x00, 0x00,
  0xff, 0xff, 0xff, 0xff, 0x01, 0x00, 0x00, 0x00,
  0x41, 0x00, 0x00, 0x00, 0x18, 0x00, 0x00, 0x00,
  0x44, 0xf5, 0xff, 0xff, 0x08, 0x00, 0x00, 0x00,
  0x10, 0x00, 0x00, 0x00, 0x01, 0x00, 0x00, 0x00,
  0x80, 0xff, 0xff, 0xff, 0xff, 0xff, 0xff, 0xff,
  0x01, 0x00, 0x00, 0x00, 0xeb, 0x80, 0x6c, 0x3d,
  0x7a, 0x00, 0x00, 0x00, 0x6d, 0x6f, 0x64, 0x65,
  0x6c, 0x2f, 0x63, 0x6f, 0x6e, 0x76, 0x31, 0x64,
  0x2f, 0x52, 0x65, 0x6c, 0x75, 0x3b, 0x6d, 0x6f,
  0x64, 0x65, 0x6c, 0x2f, 0x63, 0x6f, 0x6e, 0x76,
  0x31, 0x64, 0x2f, 0x42, 0x69, 0x61, 0x73, 0x41,
  0x64, 0x64, 0x3b, 0x6d, 0x6f, 0x64, 0x65, 0x6c,
  0x2f, 0x63, 0x6f, 0x6e, 0x76, 0x31, 0x64, 0x2f,
  0x43, 0x6f, 0x6e, 0x76, 0x31, 0x44, 0x2f, 0x53,
  0x71, 0x75, 0x65, 0x65, 0x7a, 0x65, 0x3b, 0x6d,
  0x6f, 0x64, 0x65, 0x6c, 0x2f, 0x63, 0x6f, 0x6e,
  0x76, 0x31, 0x64, 0x2f, 0x42, 0x69, 0x61, 0x73,
  0x41, 0x64, 0x64, 0x2f, 0x52, 0x65, 0x61, 0x64,
  0x56, 0x61, 0x72, 0x69, 0x61, 0x62, 0x6c, 0x65,
  0x4f, 0x70, 0x3b, 0x6d, 0x6f, 0x64, 0x65, 0x6c,
  0x2f, 0x63, 0x6f, 0x6e, 0x76, 0x31, 0x64, 0x2f,
  0x43, 0x6f, 0x6e, 0x76, 0x31, 0x44, 0x00, 0x00,
  0x04, 0x00, 0x00, 0x00, 0x01, 0x00, 0x00, 0x00,
  0x01, 0x00, 0x00, 0x00, 0x41, 0x00, 0x00, 0x00,
  0x18, 0x00, 0x00, 0x00, 0x72, 0xff, 0xff, 0xff,
  0x00, 0x00, 0x00, 0x01, 0x18, 0x00, 0x00, 0x00,
  0x28, 0x00, 0x00, 0x00, 0x44, 0x00, 0x00, 0x00,
  0x11, 0x00, 0x00, 0x00, 0x00, 0x00, 0x00, 0x09,
  0x5c, 0x00, 0x00, 0x00, 0x04, 0x00, 0x00, 0x00,
  0xff, 0xff, 0xff, 0xff, 0x01, 0x00, 0x00, 0x00,
  0x41, 0x00, 0x00, 0x00, 0x06, 0x00, 0x00, 0x00,
  0x2c, 0xf6, 0xff, 0xff, 0x08, 0x00, 0x00, 0x00,
  0x10, 0x00, 0x00, 0x00, 0x01, 0x00, 0x00, 0x00,
  0xf6, 0xff, 0xff, 0xff, 0xff, 0xff, 0xff, 0xff,
  0x01, 0x00, 0x00, 0x00, 0x87, 0xab, 0xea, 0x3d,
  0x1e, 0x00, 0x00, 0x00, 0x6d, 0x6f, 0x64, 0x65,
  0x6c, 0x2f, 0x63, 0x6f, 0x6e, 0x76, 0x31, 0x64,
  0x2f, 0x43, 0x6f, 0x6e, 0x76, 0x31, 0x44, 0x2f,
  0x45, 0x78, 0x70, 0x61, 0x6e, 0x64, 0x44, 0x69,
  0x6d, 0x73, 0x00, 0x00, 0x04, 0x00, 0x00, 0x00,
  0x01, 0x00, 0x00, 0x00, 0x01, 0x00, 0x00, 0x00,
  0x41, 0x00, 0x00, 0x00, 0x06, 0x00, 0x00, 0x00,
  0x00, 0x00, 0x16, 0x00, 0x20, 0x00, 0x1c, 0x00,
  0x1b, 0x00, 0x14, 0x00, 0x10, 0x00, 0x0c, 0x00,
  0x00, 0x00, 0x00, 0x00, 0x08, 0x00, 0x07, 0x00,
  0x16, 0x00, 0x00, 0x00, 0x00, 0x00, 0x00, 0x01,
  0x18, 0x00, 0x00, 0x00, 0x24, 0x00, 0x00, 0x00,
  0x40, 0x00, 0x00, 0x00, 0x10, 0x00, 0x00, 0x00,
  0x00, 0x00, 0x00, 0x09, 0x48, 0x00, 0x00, 0x00,
  0x03, 0x00, 0x00, 0x00, 0xff, 0xff, 0xff, 0xff,
  0x41, 0x00, 0x00, 0x00, 0x06, 0x00, 0x00, 0x00,
  0xcc, 0xf6, 0xff, 0xff, 0x08, 0x00, 0x00, 0x00,
  0x10, 0x00, 0x00, 0x00, 0x01, 0x00, 0x00, 0x00,
  0xf6, 0xff, 0xff, 0xff, 0xff, 0xff, 0xff, 0xff,
  0x01, 0x00, 0x00, 0x00, 0x87, 0xab, 0xea, 0x3d,
  0x0c, 0x00, 0x00, 0x00, 0x74, 0x66, 0x6c, 0x2e,
  0x71, 0x75, 0x61, 0x6e, 0x74, 0x69, 0x7a, 0x65,
  0x00, 0x00, 0x00, 0x00, 0x03, 0x00, 0x00, 0x00,
  0x01, 0x00, 0x00, 0x00, 0x41, 0x00, 0x00, 0x00,
  0x06, 0x00, 0x00, 0x00, 0xba, 0xf5, 0xff, 0xff,
  0x00, 0x00, 0x00, 0x01, 0x14, 0x00, 0x00, 0x00,
  0x48, 0x01, 0x00, 0x00, 0x0f, 0x00, 0x00, 0x00,
  0x00, 0x00, 0x00, 0x09, 0x54, 0x01, 0x00, 0x00,
  0x2c, 0xf7, 0xff, 0xff, 0x08, 0x00, 0x00, 0x00,
  0xcc, 0x00, 0x00, 0x00, 0x18, 0x00, 0x00, 0x00,
  0x00, 0x00, 0x00, 0x00, 0x00, 0x00, 0x00, 0x00,
  0x00, 0x00, 0x00, 0x00, 0x00, 0x00, 0x00, 0x00,
  0x00, 0x00, 0x00, 0x00, 0x00, 0x00, 0x00, 0x00,
  0x00, 0x00, 0x00, 0x00, 0x00, 0x00, 0x00, 0x00,
  0x00, 0x00, 0x00, 0x00, 0x00, 0x00, 0x00, 0x00,
  0x00, 0x00, 0x00, 0x00, 0x00, 0x00, 0x00, 0x00,
  0x00, 0x00, 0x00, 0x00, 0x00, 0x00, 0x00, 0x00,
  0x00, 0x00, 0x00, 0x00, 0x00, 0x00, 0x00, 0x00,
  0x00, 0x00, 0x00, 0x00, 0x00, 0x00, 0x00, 0x00,
  0x00, 0x00, 0x00, 0x00, 0x00, 0x00, 0x00, 0x00,
  0x00, 0x00, 0x00, 0x00, 0x00, 0x00, 0x00, 0x00,
  0x00, 0x00, 0x00, 0x00, 0x00, 0x00, 0x00, 0x00,
  0x00, 0x00, 0x00, 0x00, 0x00, 0x00, 0x00, 0x00,
  0x00, 0x00, 0x00, 0x00, 0x00, 0x00, 0x00, 0x00,
  0x00, 0x00, 0x00, 0x00, 0x00, 0x00, 0x00, 0x00,
  0x00, 0x00, 0x00, 0x00, 0x00, 0x00, 0x00, 0x00,
  0x00, 0x00, 0x00, 0x00, 0x00, 0x00, 0x00, 0x00,
  0x00, 0x00, 0x00, 0x00, 0x00, 0x00, 0x00, 0x00,
  0x00, 0x00, 0x00, 0x00, 0x00, 0x00, 0x00, 0x00,
  0x00, 0x00, 0x00, 0x00, 0x00, 0x00, 0x00, 0x00,
  0x00, 0x00, 0x00, 0x00, 0x00, 0x00, 0x00, 0x00,
  0x00, 0x00, 0x00, 0x00, 0x00, 0x00, 0x00, 0x00,
  0x00, 0x00, 0x00, 0x00, 0x00, 0x00, 0x00, 0x00,
  0x00, 0x00, 0x00, 0x00, 0x00, 0x00, 0x00, 0x00,
  0x00, 0x00, 0x00, 0x00, 0x18, 0x00, 0x00, 0x00,
  0x8a, 0x3a, 0x4e, 0x3b, 0xaf, 0x58, 0x2c, 0x3b,
  0x2f, 0x3c, 0x61, 0x3b, 0xc5, 0x4d, 0x2e, 0x3b,
  0xfd, 0x9e, 0x2d, 0x3b, 0x91, 0xd2, 0x5c, 0x3b,
  0xd7, 0x5c, 0x33, 0x3b, 0x76, 0xf2, 0x15, 0x3b,
  0xc3, 0x0f, 0x28, 0x3b, 0xac, 0x44, 0x2d, 0x3b,
  0x3f, 0x76, 0x12, 0x3b, 0x2a, 0x7f, 0x44, 0x3b,
  0xdf, 0x2c, 0x14, 0x3b, 0x26, 0x1e, 0x60, 0x3b,
  0x9f, 0xc5, 0x2d, 0x3b, 0x65, 0x51, 0x0e, 0x3b,
  0x78, 0x0e, 0x1a, 0x3b, 0xab, 0x60, 0x31, 0x3b,
  0x92, 0x7b, 0x10, 0x3b, 0x73, 0x0c, 0x4d, 0x3b,
  0xf8, 0xa9, 0x0b, 0x3b, 0xed, 0xcc, 0x1c, 0x3b,
  0xf3, 0x5b, 0x1d, 0x3b, 0x8b, 0x36, 0x29, 0x3b,
  0x13, 0x00, 0x00, 0x00, 0x6d, 0x6f, 0x64, 0x65,
  0x6c, 0x2f, 0x63, 0x6f, 0x6e, 0x76, 0x31, 0x64,
  0x2f, 0x43, 0x6f, 0x6e, 0x76, 0x31, 0x44, 0x00,
  0x04, 0x00, 0x00, 0x00, 0x18, 0x00, 0x00, 0x00,
  0x01, 0x00, 0x00, 0x00, 0x05, 0x00, 0x00, 0x00,
  0x06, 0x00, 0x00, 0x00, 0x3a, 0xf7, 0xff, 0xff,
  0x00, 0x00, 0x00, 0x01, 0x14, 0x00, 0x00, 0x00,
  0x44, 0x01, 0x00, 0x00, 0x0e, 0x00, 0x00, 0x00,
  0x00, 0x00, 0x00, 0x02, 0x60, 0x01, 0x00, 0x00,
  0xac, 0xf8, 0xff, 0xff, 0x08, 0x00, 0x00, 0x00,
  0xc8, 0x00, 0x00, 0x00, 0x18, 0x00, 0x00, 0x00,
  0x00, 0x00, 0x00, 0x00, 0x00, 0x00, 0x00, 0x00,
  0x00, 0x00, 0x00, 0x00, 0x00, 0x00, 0x00, 0x00,
  0x00, 0x00, 0x00, 0x00, 0x00, 0x00, 0x00, 0x00,
  0x00, 0x00, 0x00, 0x00, 0x00, 0x00, 0x00, 0x00,
  0x00, 0x00, 0x00, 0x00, 0x00, 0x00, 0x00, 0x00,
  0x00, 0x00, 0x00, 0x00, 0x00, 0x00, 0x00, 0x00,
  0x00, 0x00, 0x00, 0x00, 0x00, 0x00, 0x00, 0x00,
  0x00, 0x00, 0x00, 0x00, 0x00, 0x00, 0x00, 0x00,
  0x00, 0x00, 0x00, 0x00, 0x00, 0x00, 0x00, 0x00,
  0x00, 0x00, 0x00, 0x00, 0x00, 0x00, 0x00, 0x00,
  0x00, 0x00, 0x00, 0x00, 0x00, 0x00, 0x00, 0x00,
  0x00, 0x00, 0x00, 0x00, 0x00, 0x00, 0x00, 0x00,
  0x00, 0x00, 0x00, 0x00, 0x00, 0x00, 0x00, 0x00,
  0x00, 0x00, 0x00, 0x00, 0x00, 0x00, 0x00, 0x00,
  0x00, 0x00, 0x00, 0x00, 0x00, 0x00, 0x00, 0x00,
  0x00, 0x00, 0x00, 0x00, 0x00, 0x00, 0x00, 0x00,
  0x00, 0x00, 0x00, 0x00, 0x00, 0x00, 0x00, 0x00,
  0x00, 0x00, 0x00, 0x00, 0x00, 0x00, 0x00, 0x00,
  0x00, 0x00, 0x00, 0x00, 0x00, 0x00, 0x00, 0x00,
  0x00, 0x00, 0x00, 0x00, 0x00, 0x00, 0x00, 0x00,
  0x00, 0x00, 0x00, 0x00, 0x00, 0x00, 0x00, 0x00,
  0x00, 0x00, 0x00, 0x00, 0x00, 0x00, 0x00, 0x00,
  0x00, 0x00, 0x00, 0x00, 0x00, 0x00, 0x00, 0x00,
  0x00, 0x00, 0x00, 0x00, 0x00, 0x00, 0x00, 0x00,
  0x18, 0x00, 0x00, 0x00, 0xb0, 0x0b, 0xbd, 0x39,
  0x8a, 0xfc, 0x9d, 0x39, 0xed, 0x77, 0xce, 0x39,
  0xe0, 0xc7, 0x9f, 0x39, 0xa8, 0x27, 0x9f, 0x39,
  0x6e, 0x6c, 0xca, 0x39, 0x0a, 0x6b, 0xa4, 0x39,
  0x18, 0x74, 0x89, 0x39, 0x03, 0x0f, 0x9a, 0x39,
  0xdd, 0xd4, 0x9e, 0x39, 0x38, 0x42, 0x86, 0x39,
  0xe5, 0x1f, 0xb4, 0x39, 0x4c, 0xd4, 0x87, 0x39,
  0xb9, 0x71, 0xcd, 0x39, 0x12, 0x4b, 0x9f, 0x39,
  0xc2, 0x75, 0x82, 0x39, 0x73, 0x38, 0x8d, 0x39,
  0x35, 0x99, 0xa2, 0x39, 0xc2, 0x71, 0x84, 0x39,
  0xc5, 0xf6, 0xbb, 0x39, 0xf1, 0x06, 0x80, 0x39,
  0x60, 0xbc, 0x8f, 0x39, 0x7c, 0x3f, 0x90, 0x39,
  0x3c, 0x1d, 0x9b, 0x39, 0x23, 0x00, 0x00, 0x00,
  0x6d, 0x6f, 0x64, 0x65, 0x6c, 0x2f, 0x63, 0x6f,
  0x6e, 0x76, 0x31, 0x64, 0x2f, 0x42, 0x69, 0x61,
  0x73, 0x41, 0x64, 0x64, 0x2f, 0x52, 0x65, 0x61,
  0x64, 0x56, 0x61, 0x72, 0x69, 0x61, 0x62, 0x6c,
  0x65, 0x4f, 0x70, 0x00, 0x01, 0x00, 0x00, 0x00,
  0x18, 0x00, 0x00, 0x00, 0xba, 0xf8, 0xff, 0xff,
  0x00, 0x00, 0x00, 0x01, 0x14, 0x00, 0x00, 0x00,
  0xa4, 0x01, 0x00, 0x00, 0x0d, 0x00, 0x00, 0x00,
  0x00, 0x00, 0x00, 0x09, 0xb4, 0x01, 0x00, 0x00,
  0x2c, 0xfa, 0xff, 0xff, 0x08, 0x00, 0x00, 0x00,
  0x08, 0x01, 0x00, 0x00, 0x20, 0x00, 0x00, 0x00,
  0x00, 0x00, 0x00, 0x00, 0x00, 0x00, 0x00, 0x00,
  0x00, 0x00, 0x00, 0x00, 0x00, 0x00, 0x00, 0x00,
  0x00, 0x00, 0x00, 0x00, 0x00, 0x00, 0x00, 0x00,
  0x00, 0x00, 0x00, 0x00, 0x00, 0x00, 0x00, 0x00,
  0x00, 0x00, 0x00, 0x00, 0x00, 0x00, 0x00, 0x00,
  0x00, 0x00, 0x00, 0x00, 0x00, 0x00, 0x00, 0x00,
  0x00, 0x00, 0x00, 0x00, 0x00, 0x00, 0x00, 0x00,
  0x00, 0x00, 0x00, 0x00, 0x00, 0x00, 0x00, 0x00,
  0x00, 0x00, 0x00, 0x00, 0x00, 0x00, 0x00, 0x00,
  0x00, 0x00, 0x00, 0x00, 0x00, 0x00, 0x00, 0x00,
  0x00, 0x00, 0x00, 0x00, 0x00, 0x00, 0x00, 0x00,
  0x00, 0x00, 0x00, 0x00, 0x00, 0x00, 0x00, 0x00,
  0x00, 0x00, 0x00, 0x00, 0x00, 0x00, 0x00, 0x00,
  0x00, 0x00, 0x00, 0x00, 0x00, 0x00, 0x00, 0x00,
  0x00, 0x00, 0x00, 0x00, 0x00, 0x00, 0x00, 0x00,
  0x00, 0x00, 0x00, 0x00, 0x00, 0x00, 0x00, 0x00,
  0x00, 0x00, 0x00, 0x00, 0x00, 0x00, 0x00, 0x00,
  0x00, 0x00, 0x00, 0x00, 0x00, 0x00, 0x00, 0x00,
  0x00, 0x00, 0x00, 0x00, 0x00, 0x00, 0x00, 0x00,
  0x00, 0x00, 0x00, 0x00, 0x00, 0x00, 0x00, 0x00,
  0x00, 0x00, 0x00, 0x00, 0x00, 0x00, 0x00, 0x00,
  0x00, 0x00, 0x00, 0x00, 0x00, 0x00, 0x00, 0x00,
  0x00, 0x00, 0x00, 0x00, 0x00, 0x00, 0x00, 0x00,
  0x00, 0x00, 0x00, 0x00, 0x00, 0x00, 0x00, 0x00,
  0x00, 0x00, 0x00, 0x00, 0x00, 0x00, 0x00, 0x00,
  0x00, 0x00, 0x00, 0x00, 0x00, 0x00, 0x00, 0x00,
  0x00, 0x00, 0x00, 0x00, 0x00, 0x00, 0x00, 0x00,
  0x00, 0x00, 0x00, 0x00, 0x00, 0x00, 0x00, 0x00,
  0x00, 0x00, 0x00, 0x00, 0x00, 0x00, 0x00, 0x00,
  0x00, 0x00, 0x00, 0x00, 0x00, 0x00, 0x00, 0x00,
  0x00, 0x00, 0x00, 0x00, 0x00, 0x00, 0x00, 0x00,
  0x00, 0x00, 0x00, 0x00, 0x00, 0x00, 0x00, 0x00,
  0x20, 0x00, 0x00, 0x00, 0x95, 0x4a, 0x46, 0x3b,
  0xe3, 0x55, 0x8e, 0x3b, 0x7f, 0x2a, 0x19, 0x3b,
  0xfd, 0xd8, 0x2a, 0x3b, 0x39, 0xc5, 0x52, 0x3b,
  0x3b, 0x21, 0x50, 0x3b, 0x4b, 0xc2, 0x9d, 0x3b,
  0x41, 0xd7, 0x42, 0x3b, 0x69, 0x14, 0x6d, 0x3b,
  0xa0, 0xa1, 0x13, 0x3b, 0xca, 0x66, 0x55, 0x3b,
  0x21, 0xbe, 0x34, 0x3b, 0x9d, 0xd8, 0x37, 0x3b,
  0x26, 0xff, 0x2d, 0x3b, 0xcb, 0xc4, 0x74, 0x3b,
  0xbe, 0x8d, 0x42, 0x3b, 0x4a, 0x77, 0x5a, 0x3b,
  0x0e, 0xba, 0x32, 0x3b, 0x4a, 0x16, 0x9e, 0x3b,
  0x5d, 0x0c, 0xb4, 0x3b, 0x27, 0x91, 0x8b, 0x3b,
  0xc3, 0x07, 0x55, 0x3b, 0x06, 0xeb, 0x3f, 0x3b,
  0x19, 0xaf, 0x1c, 0x3b, 0x42, 0xc5, 0xe4, 0x3b,
  0x03, 0xd7, 0x47, 0x3b, 0x9c, 0x6e, 0x2d, 0x3b,
  0x76, 0x6d, 0x3f, 0x3b, 0xb2, 0xf0, 0x36, 0x3b,
  0xd2, 0xa8, 0x1e, 0x3b, 0xdb, 0xb9, 0x2d, 0x3b,
  0x01, 0x30, 0x57, 0x3b, 0x15, 0x00, 0x00, 0x00,
  0x6d, 0x6f, 0x64, 0x65, 0x6c, 0x2f, 0x63, 0x6f,
  0x6e, 0x76, 0x31, 0x64, 0x5f, 0x31, 0x2f, 0x43,
  0x6f, 0x6e, 0x76, 0x31, 0x44, 0x00, 0x00, 0x00,
  0x04, 0x00, 0x00, 0x00, 0x20, 0x00, 0x00, 0x00,
  0x01, 0x00, 0x00, 0x00, 0x05, 0x00, 0x00, 0x00,
  0x18, 0x00, 0x00, 0x00, 0x9a, 0xfa, 0xff, 0xff,
  0x00, 0x00, 0x00, 0x01, 0x14, 0x00, 0x00, 0x00,
  0xa8, 0x01, 0x00, 0x00, 0x0c, 0x00, 0x00, 0x00,
  0x00, 0x00, 0x00, 0x02, 0xc8, 0x01, 0x00, 0x00,
  0x0c, 0xfc, 0xff, 0xff, 0x08, 0x00, 0x00, 0x00,
  0x0c, 0x01, 0x00, 0x00, 0x20, 0x00, 0x00, 0x00,
  0x00, 0x00, 0x00, 0x00, 0x00, 0x00, 0x00, 0x00,
  0x00, 0x00, 0x00, 0x00, 0x00, 0x00, 0x00, 0x00,
  0x00, 0x00, 0x00, 0x00, 0x00, 0x00, 0x00, 0x00,
  0x00, 0x00, 0x00, 0x00, 0x00, 0x00, 0x00, 0x00,
  0x00, 0x00, 0x00, 0x00, 0x00, 0x00, 0x00, 0x00,
  0x00, 0x00, 0x00, 0x00, 0x00, 0x00, 0x00, 0x00,
  0x00, 0x00, 0x00, 0x00, 0x00, 0x00, 0x00, 0x00,
  0x00, 0x00, 0x00, 0x00, 0x00, 0x00, 0x00, 0x00,
  0x00, 0x00, 0x00, 0x00, 0x00, 0x00, 0x00, 0x00,
  0x00, 0x00, 0x00, 0x00, 0x00, 0x00, 0x00, 0x00,
  0x00, 0x00, 0x00, 0x00, 0x00, 0x00, 0x00, 0x00,
  0x00, 0x00, 0x00, 0x00, 0x00, 0x00, 0x00, 0x00,
  0x00, 0x00, 0x00, 0x00, 0x00, 0x00, 0x00, 0x00,
  0x00, 0x00, 0x00, 0x00, 0x00, 0x00, 0x00, 0x00,
  0x00, 0x00, 0x00, 0x00, 0x00, 0x00, 0x00, 0x00,
  0x00, 0x00, 0x00, 0x00, 0x00, 0x00, 0x00, 0x00,
  0x00, 0x00, 0x00, 0x00, 0x00, 0x00, 0x00, 0x00,
  0x00, 0x00, 0x00, 0x00, 0x00, 0x00, 0x00, 0x00,
  0x00, 0x00, 0x00, 0x00, 0x00, 0x00, 0x00, 0x00,
  0x00, 0x00, 0x00, 0x00, 0x00, 0x00, 0x00, 0x00,
  0x00, 0x00, 0x00, 0x00, 0x00, 0x00, 0x00, 0x00,
  0x00, 0x00, 0x00, 0x00, 0x00, 0x00, 0x00, 0x00,
  0x00, 0x00, 0x00, 0x00, 0x00, 0x00, 0x00, 0x00,
  0x00, 0x00, 0x00, 0x00, 0x00, 0x00, 0x00, 0x00,
  0x00, 0x00, 0x00, 0x00, 0x00, 0x00, 0x00, 0x00,
  0x00, 0x00, 0x00, 0x00, 0x00, 0x00, 0x00, 0x00,
  0x00, 0x00, 0x00, 0x00, 0x00, 0x00, 0x00, 0x00,
  0x00, 0x00, 0x00, 0x00, 0x00, 0x00, 0x00, 0x00,
  0x00, 0x00, 0x00, 0x00, 0x00, 0x00, 0x00, 0x00,
  0x00, 0x00, 0x00, 0x00, 0x00, 0x00, 0x00, 0x00,
  0x00, 0x00, 0x00, 0x00, 0x00, 0x00, 0x00, 0x00,
  0x00, 0x00, 0x00, 0x00, 0x00, 0x00, 0x00, 0x00,
  0x00, 0x00, 0x00, 0x00, 0x20, 0x00, 0x00, 0x00,
  0x9d, 0x30, 0x37, 0x39, 0xdb, 0x7e, 0x83, 0x39,
  0x4f, 0x80, 0x0d, 0x39, 0x13, 0xd6, 0x1d, 0x39,
  0xf5, 0xb7, 0x42, 0x39, 0x72, 0x47, 0x40, 0x39,
  0x8f, 0xbe, 0x91, 0x39, 0x8e, 0x00, 0x34, 0x39,
  0x35, 0x06, 0x5b, 0x39, 0x58, 0x63, 0x08, 0x39,
  0x3a, 0x26, 0x45, 0x39, 0x4b, 0xfa, 0x26, 0x39,
  0x46, 0xd8, 0x29, 0x39, 0xd6, 0xbe, 0x20, 0x39,
  0xae, 0x20, 0x62, 0x39, 0xa5, 0xbc, 0x33, 0x39,
  0xfc, 0xd3, 0x49, 0x39, 0x86, 0x1d, 0x25, 0x39,
  0x28, 0x0c, 0x92, 0x39, 0x11, 0x56, 0xa6, 0x39,
  0x19, 0xf0, 0x80, 0x39, 0x6f, 0xce, 0x44, 0x39,
  0x4f, 0x4d, 0x31, 0x39, 0x52, 0xc0, 0x10, 0x39,
  0x0d, 0x59, 0xd3, 0x39, 0xda, 0x9e, 0x38, 0x39,
  0x4e, 0x39, 0x20, 0x39, 0x4f, 0xd9, 0x30, 0x39,
  0x04, 0x02, 0x29, 0x39, 0x88, 0x93, 0x12, 0x39,
  0xd2, 0x7e, 0x20, 0x39, 0x9e, 0xcc, 0x46, 0x39,
  0x25, 0x00, 0x00, 0x00, 0x6d, 0x6f, 0x64, 0x65,
  0x6c, 0x2f, 0x63, 0x6f, 0x6e, 0x76, 0x31, 0x64,
  0x5f, 0x31, 0x2f, 0x42, 0x69, 0x61, 0x73, 0x41,
  0x64, 0x64, 0x2f, 0x52, 0x65, 0x61, 0x64, 0x56,
  0x61, 0x72, 0x69, 0x61, 0x62, 0x6c, 0x65, 0x4f,
  0x70, 0x00, 0x00, 0x00, 0x01, 0x00, 0x00, 0x00,
  0x20, 0x00, 0x00, 0x00, 0x82, 0xfc, 0xff, 0xff,
  0x00, 0x00, 0x00, 0x01, 0x14, 0x00, 0x00, 0x00,
  0x30, 0x00, 0x00, 0x00, 0x0b, 0x00, 0x00, 0x00,
  0x00, 0x00, 0x00, 0x09, 0x3c, 0x00, 0x00, 0x00,
  0xf4, 0xfd, 0xff, 0xff, 0x08, 0x00, 0x00, 0x00,
  0x10, 0x00, 0x00, 0x00, 0x01, 0x00, 0x00, 0x00,
  0x00, 0x00, 0x00, 0x00, 0x00, 0x00, 0x00, 0x00,
  0x01, 0x00, 0x00, 0x00, 0xc8, 0x93, 0xd8, 0x3b,
  0x12, 0x00, 0x00, 0x00, 0x6d, 0x6f, 0x64, 0x65,
  0x6c, 0x2f, 0x64, 0x65, 0x6e, 0x73, 0x65, 0x2f,
  0x4d, 0x61, 0x74, 0x4d, 0x75, 0x6c, 0x00, 0x00,
  0x02, 0x00, 0x00, 0x00, 0x20, 0x00, 0x00, 0x00,
  0x20, 0x00, 0x00, 0x00, 0xe2, 0xfc, 0xff, 0xff,
  0x00, 0x00, 0x00, 0x01, 0x14, 0x00, 0x00, 0x00,
  0x34, 0x00, 0x00, 0x00, 0x0a, 0x00, 0x00, 0x00,
  0x00, 0x00, 0x00, 0x02, 0x50, 0x00, 0x00, 0x00,
  0x54, 0xfe, 0xff, 0xff, 0x08, 0x00, 0x00, 0x00,
  0x14, 0x00, 0x00, 0x00, 0x01, 0x00, 0x00, 0x00,
  0x00, 0x00, 0x00, 0x00, 0x00, 0x00, 0x00, 0x00,
  0x00, 0x00, 0x00, 0x00, 0x01, 0x00, 0x00, 0x00,
  0xa5, 0xbc, 0x26, 0x39, 0x22, 0x00, 0x00, 0x00,
  0x6d, 0x6f, 0x64, 0x65, 0x6c, 0x2f, 0x64, 0x65,
  0x6e, 0x73, 0x65, 0x2f, 0x42, 0x69, 0x61, 0x73,
  0x41, 0x64, 0x64, 0x2f, 0x52, 0x65, 0x61, 0x64,
  0x56, 0x61, 0x72, 0x69, 0x61, 0x62, 0x6c, 0x65,
  0x4f, 0x70, 0x00, 0x00, 0x01, 0x00, 0x00, 0x00,
  0x20, 0x00, 0x00, 0x00, 0x52, 0xfd, 0xff, 0xff,
  0x00, 0x00, 0x00, 0x01, 0x14, 0x00, 0x00, 0x00,
  0x34, 0x00, 0x00, 0x00, 0x09, 0x00, 0x00, 0x00,
  0x00, 0x00, 0x00, 0x09, 0x44, 0x00, 0x00, 0x00,
  0xc4, 0xfe, 0xff, 0xff, 0x08, 0x00, 0x00, 0x00,
  0x14, 0x00, 0x00, 0x00, 0x01, 0x00, 0x00, 0x00,
  0x00, 0x00, 0x00, 0x00, 0x00, 0x00, 0x00, 0x00,
  0x00, 0x00, 0x00, 0x00, 0x01, 0x00, 0x00, 0x00,
  0x25, 0xcf, 0xd1, 0x3b, 0x14, 0x00, 0x00, 0x00,
  0x6d, 0x6f, 0x64, 0x65, 0x6c, 0x2f, 0x64, 0x65,
  0x6e, 0x73, 0x65, 0x5f, 0x31, 0x2f, 0x4d, 0x61,
  0x74, 0x4d, 0x75, 0x6c, 0x00, 0x00, 0x00, 0x00,
  0x02, 0x00, 0x00, 0x00, 0x10, 0x00, 0x00, 0x00,
  0x20, 0x00, 0x00, 0x00, 0xba, 0xfd, 0xff, 0xff,
  0x00, 0x00, 0x00, 0x01, 0x14, 0x00, 0x00, 0x00,
  0x30, 0x00, 0x00, 0x00, 0x08, 0x00, 0x00, 0x00,
  0x00, 0x00, 0x00, 0x02, 0x50, 0x00, 0x00, 0x00,
  0x2c, 0xff, 0xff, 0xff, 0x08, 0x00, 0x00, 0x00,
  0x10, 0x00, 0x00, 0x00, 0x01, 0x00, 0x00, 0x00,
  0x00, 0x00, 0x00, 0x00, 0x00, 0x00, 0x00, 0x00,
  0x01, 0x00, 0x00, 0x00, 0x6b, 0x58, 0x79, 0x39,
  0x24, 0x00, 0x00, 0x00, 0x6d, 0x6f, 0x64, 0x65,
  0x6c, 0x2f, 0x64, 0x65, 0x6e, 0x73, 0x65, 0x5f,
  0x31, 0x2f, 0x42, 0x69, 0x61, 0x73, 0x41, 0x64,
  0x64, 0x2f, 0x52, 0x65, 0x61, 0x64, 0x56, 0x61,
  0x72, 0x69, 0x61, 0x62, 0x6c, 0x65, 0x4f, 0x70,
  0x00, 0x00, 0x00, 0x00, 0x01, 0x00, 0x00, 0x00,
  0x10, 0x00, 0x00, 0x00, 0x2a, 0xfe, 0xff, 0xff,
  0x00, 0x00, 0x00, 0x01, 0x14, 0x00, 0x00, 0x00,
  0x30, 0x00, 0x00, 0x00, 0x07, 0x00, 0x00, 0x00,
  0x00, 0x00, 0x00, 0x09, 0x40, 0x00, 0x00, 0x00,
  0x9c, 0xff, 0xff, 0xff, 0x08, 0x00, 0x00, 0x00,
  0x10, 0x00, 0x00, 0x00, 0x01, 0x00, 0x00, 0x00,
  0x00, 0x00, 0x00, 0x00, 0x00, 0x00, 0x00, 0x00,
  0x01, 0x00, 0x00, 0x00, 0xf5, 0x11, 0xe8, 0x3b,
  0x14, 0x00, 0x00, 0x00, 0x6d, 0x6f, 0x64, 0x65,
  0x6c, 0x2f, 0x64, 0x65, 0x6e, 0x73, 0x65, 0x5f,
  0x32, 0x2f, 0x4d, 0x61, 0x74, 0x4d, 0x75, 0x6c,
  0x00, 0x00, 0x00, 0x00, 0x02, 0x00, 0x00, 0x00,
  0x02, 0x00, 0x00, 0x00, 0x10, 0x00, 0x00, 0x00,
  0x8e, 0xfe, 0xff, 0xff, 0x00, 0x00, 0x00, 0x01,
  0x20, 0x00, 0x00, 0x00, 0x3c, 0x00, 0x00, 0x00,
  0x06, 0x00, 0x00, 0x00, 0x00, 0x00, 0x00, 0x02,
  0x5c, 0x00, 0x00, 0x00, 0x0c, 0x00, 0x0c, 0x00,
  0x00, 0x00, 0x00, 0x00, 0x08, 0x00, 0x04, 0x00,
  0x0c, 0x00, 0x00, 0x00, 0x08, 0x00, 0x00, 0x00,
  0x10, 0x00, 0x00, 0x00, 0x01, 0x00, 0x00, 0x00,
  0x00, 0x00, 0x00, 0x00, 0x00, 0x00, 0x00, 0x00,
  0x01, 0x00, 0x00, 0x00, 0x15, 0x17, 0x60, 0x3a,
  0x24, 0x00, 0x00, 0x00, 0x6d, 0x6f, 0x64, 0x65,
  0x6c, 0x2f, 0x64, 0x65, 0x6e, 0x73, 0x65, 0x5f,
  0x32, 0x2f, 0x42, 0x69, 0x61, 0x73, 0x41, 0x64,
  0x64, 0x2f, 0x52, 0x65, 0x61, 0x64, 0x56, 0x61,
  0x72, 0x69, 0x61, 0x62, 0x6c, 0x65, 0x4f, 0x70,
  0x00, 0x00, 0x00, 0x00, 0x01, 0x00, 0x00, 0x00,
  0x02, 0x00, 0x00, 0x00, 0x0a, 0xff, 0xff, 0xff,
  0x00, 0x00, 0x00, 0x01, 0x14, 0x00, 0x00, 0x00,
  0x14, 0x00, 0x00, 0x00, 0x05, 0x00, 0x00, 0x00,
  0x00, 0x00, 0x00, 0x02, 0x44, 0x00, 0x00, 0x00,
  0x80, 0xfe, 0xff, 0xff, 0x35, 0x00, 0x00, 0x00,
  0x6d, 0x6f, 0x64, 0x65, 0x6c, 0x2f, 0x67, 0x6c,
  0x6f, 0x62, 0x61, 0x6c, 0x5f, 0x61, 0x76, 0x65,
  0x72, 0x61, 0x67, 0x65, 0x5f, 0x70, 0x6f, 0x6f,
  0x6c, 0x69, 0x6e, 0x67, 0x31, 0x64, 0x2f, 0x4d,
  0x65, 0x61, 0x6e, 0x2f, 0x72, 0x65, 0x64, 0x75,
  0x63, 0x74, 0x69, 0x6f, 0x6e, 0x5f, 0x69, 0x6e,
  0x64, 0x69, 0x63, 0x65, 0x73, 0x00, 0x00, 0x00,
  0x00, 0x00, 0x00, 0x00, 0x6a, 0xff, 0xff, 0xff,
  0x00, 0x00, 0x00, 0x01, 0x14, 0x00, 0x00, 0x00,
  0x14, 0x00, 0x00, 0x00, 0x04, 0x00, 0x00, 0x00,
  0x00, 0x00, 0x00, 0x02, 0x2c, 0x00, 0x00, 0x00,
  0xe0, 0xfe, 0xff, 0xff, 0x1d, 0x00, 0x00, 0x00,
  0x6d, 0x6f, 0x64, 0x65, 0x6c, 0x2f, 0x63, 0x6f,
  0x6e, 0x76, 0x31, 0x64, 0x5f, 0x31, 0x2f, 0x43,
  0x6f, 0x6e, 0x76, 0x31, 0x44, 0x2f, 0x53, 0x71,
  0x75, 0x65, 0x65, 0x7a, 0x65, 0x00, 0x00, 0x00,
  0x01, 0x00, 0x00, 0x00, 0x03, 0x00, 0x00, 0x00,
  0xb6, 0xff, 0xff, 0xff, 0x00, 0x00, 0x00, 0x01,
  0x14, 0x00, 0x00, 0x00, 0x14, 0x00, 0x00, 0x00,
  0x03, 0x00, 0x00, 0x00, 0x00, 0x00, 0x00, 0x02,
  0x28, 0x00, 0x00, 0x00, 0x2c, 0xff, 0xff, 0xff,
  0x1b, 0x00, 0x00, 0x00, 0x6d, 0x6f, 0x64, 0x65,
  0x6c, 0x2f, 0x63, 0x6f, 0x6e, 0x76, 0x31, 0x64,
  0x2f, 0x43, 0x6f, 0x6e, 0x76, 0x31, 0x44, 0x2f,
  0x53, 0x71, 0x75, 0x65, 0x65, 0x7a, 0x65, 0x00,
  0x01, 0x00, 0x00, 0x00, 0x03, 0x00, 0x00, 0x00,
  0x00, 0x00, 0x16, 0x00, 0x1c, 0x00, 0x18, 0x00,
  0x17, 0x00, 0x10, 0x00, 0x0c, 0x00, 0x08, 0x00,
  0x00, 0x00, 0x00, 0x00, 0x00, 0x00, 0x07, 0x00,
  0x16, 0x00, 0x00, 0x00, 0x00, 0x00, 0x00, 0x01,
  0x14, 0x00, 0x00, 0x00, 0x14, 0x00, 0x00, 0x00,
  0x02, 0x00, 0x00, 0x00, 0x00, 0x00, 0x00, 0x02,
  0x30, 0x00, 0x00, 0x00, 0x8c, 0xff, 0xff, 0xff,
  0x22, 0x00, 0x00, 0x00, 0x6d, 0x6f, 0x64, 0x65,
  0x6c, 0x2f, 0x63, 0x6f, 0x6e, 0x76, 0x31, 0x64,
  0x2f, 0x43, 0x6f, 0x6e, 0x76, 0x31, 0x44, 0x2f,
  0x45, 0x78, 0x70, 0x61, 0x6e, 0x64, 0x44, 0x69,
  0x6d, 0x73, 0x2f, 0x64, 0x69, 0x6d, 0x00, 0x00,
  0x00, 0x00, 0x00, 0x00, 0x00, 0x00, 0x16, 0x00,
  0x1c, 0x00, 0x18, 0x00, 0x00, 0x00, 0x14, 0x00,
  0x10, 0x00, 0x0c, 0x00, 0x00, 0x00, 0x00, 0x00,
  0x08, 0x00, 0x07, 0x00, 0x16, 0x00, 0x00, 0x00,
  0x00, 0x00, 0x00, 0x01, 0x14, 0x00, 0x00, 0x00,
  0x24, 0x00, 0x00, 0x00, 0x24, 0x00, 0x00, 0x00,
  0x01, 0x00, 0x00, 0x00, 0x3c, 0x00, 0x00, 0x00,
  0x03, 0x00, 0x00, 0x00, 0xff, 0xff, 0xff, 0xff,
  0x41, 0x00, 0x00, 0x00, 0x06, 0x00, 0x00, 0x00,
  0x04, 0x00, 0x04, 0x00, 0x04, 0x00, 0x00, 0x00,
  0x19, 0x00, 0x00, 0x00, 0x73, 0x65, 0x72, 0x76,
  0x69, 0x6e, 0x67, 0x5f, 0x64, 0x65, 0x66, 0x61,
  0x75, 0x6c, 0x74, 0x5f, 0x69, 0x6e, 0x70, 0x75,
  0x74, 0x5f, 0x31, 0x3a, 0x30, 0x00, 0x00, 0x00,
  0x03, 0x00, 0x00, 0x00, 0x01, 0x00, 0x00, 0x00,
  0x41, 0x00, 0x00, 0x00, 0x06, 0x00, 0x00, 0x00,
  0x08, 0x00, 0x00, 0x00, 0xa0, 0x00, 0x00, 0x00,
  0x84, 0x00, 0x00, 0x00, 0x70, 0x00, 0x00, 0x00,
  0x54, 0x00, 0x00, 0x00, 0x40, 0x00, 0x00, 0x00,
  0x2c, 0x00, 0x00, 0x00, 0x18, 0x00, 0x00, 0x00,
  0x04, 0x00, 0x00, 0x00, 0xb4, 0xff, 0xff, 0xff,
  0x06, 0x00, 0x00, 0x00, 0x02, 0x00, 0x00, 0x00,
  0x00, 0x00, 0x00, 0x06, 0xc4, 0xff, 0xff, 0xff,
  0x19, 0x00, 0x00, 0x00, 0x02, 0x00, 0x00, 0x00,
  0x00, 0x00, 0x00, 0x19, 0xd4, 0xff, 0xff, 0xff,
  0x09, 0x00, 0x00, 0x00, 0x04, 0x00, 0x00, 0x00,
  0x00, 0x00, 0x00, 0x09, 0xe4, 0xff, 0xff, 0xff,
  0x28, 0x00, 0x00, 0x00, 0x02, 0x00, 0x00, 0x00,
  0x00, 0x00, 0x00, 0x28, 0xcc, 0xff, 0xff, 0xff,
  0x16, 0x00, 0x00, 0x00, 0x00, 0x00, 0x00, 0x16,
  0x0c, 0x00, 0x10, 0x00, 0x0f, 0x00, 0x00, 0x00,
  0x08, 0x00, 0x04, 0x00, 0x0c, 0x00, 0x00, 0x00,
  0x03, 0x00, 0x00, 0x00, 0x03, 0x00, 0x00, 0x00,
  0x00, 0x00, 0x00, 0x03, 0xf4, 0xff, 0xff, 0xff,
  0x46, 0x00, 0x00, 0x00, 0x00, 0x00, 0x00, 0x46,
  0x0c, 0x00, 0x0c, 0x00, 0x0b, 0x00, 0x00, 0x00,
  0x00, 0x00, 0x04, 0x00, 0x0c, 0x00, 0x00, 0x00,
  0x72, 0x00, 0x00, 0x00, 0x00, 0x00, 0x00, 0x72
};
const unsigned int model_25hz_tflite_len = 13416;

#endif
