#ifndef MODEL_25HZ_H
#define MODEL_25HZ_H

const unsigned char model_25hz_tflite[] = {
  0x1c, 0x00, 0x00, 0x00, 0x54, 0x46, 0x4c, 0x33,
  0x14, 0x00, 0x20, 0x00, 0x1c, 0x00, 0x18, 0x00,
  0x14, 0x00, 0x10, 0x00, 0x0c, 0x00, 0x00, 0x00,
  0x08, 0x00, 0x04, 0x00, 0x14, 0x00, 0x00, 0x00,
  0x1c, 0x00, 0x00, 0x00, 0x80, 0x00, 0x00, 0x00,
  0xd8, 0x00, 0x00, 0x00, 0x70, 0x1c, 0x00, 0x00,
  0x80, 0x1c, 0x00, 0x00, 0x84, 0x33, 0x00, 0x00,
  0x03, 0x00, 0x00, 0x00, 0x01, 0x00, 0x00, 0x00,
  0x04, 0x00, 0x00, 0x00, 0x56, 0xe1, 0xff, 0xff,
  0x0c, 0x00, 0x00, 0x00, 0x1c, 0x00, 0x00, 0x00,
  0x38, 0x00, 0x00, 0x00, 0x0f, 0x00, 0x00, 0x00,
  0x73, 0x65, 0x72, 0x76, 0x69, 0x6e, 0x67, 0x5f,
  0x64, 0x65, 0x66, 0x61, 0x75, 0x6c, 0x74, 0x00,
  0x01, 0x00, 0x00, 0x00, 0x04, 0x00, 0x00, 0x00,
  0x9c, 0xff, 0xff, 0xff, 0x1b, 0x00, 0x00, 0x00,
  0x04, 0x00, 0x00, 0x00, 0x07, 0x00, 0x00, 0x00,
  0x64, 0x65, 0x6e, 0x73, 0x65, 0x5f, 0x32, 0x00,
  0x01, 0x00, 0x00, 0x00, 0x04, 0x00, 0x00, 0x00,
  0x32, 0xe3, 0xff, 0xff, 0x04, 0x00, 0x00, 0x00,
  0x07, 0x00, 0x00, 0x00, 0x69, 0x6e, 0x70, 0x75,
  0x74, 0x5f, 0x31, 0x00, 0x02, 0x00, 0x00, 0x00,
  0x34, 0x00, 0x00, 0x00, 0x04, 0x00, 0x00, 0x00,
  0xdc, 0xff, 0xff, 0xff, 0x1e, 0x00, 0x00, 0x00,
  0x04, 0x00, 0x00, 0x00, 0x13, 0x00, 0x00, 0x00,
  0x43, 0x4f, 0x4e, 0x56, 0x45, 0x52, 0x53, 0x49,
  0x4f, 0x4e, 0x5f, 0x4d, 0x45, 0x54, 0x41, 0x44,
  0x41, 0x54, 0x41, 0x00, 0x08, 0x00, 0x0c, 0x00,
  0x08, 0x00, 0x04, 0x00, 0x08, 0x00, 0x00, 0x00,
  0x1d, 0x00, 0x00, 0x00, 0x04, 0x00, 0x00, 0x00,
  0x13, 0x00, 0x00, 0x00, 0x6d, 0x69, 0x6e, 0x5f,
  0x72, 0x75, 0x6e, 0x74, 0x69, 0x6d, 0x65, 0x5f,
  0x76, 0x65, 0x72, 0x73, 0x69, 0x6f, 0x6e, 0x00,
  0x1f, 0x00, 0x00, 0x00, 0x94, 0x1b, 0x00, 0x00,
  0x8c, 0x1b, 0x00, 0x00, 0x78, 0x1b, 0x00, 0x00,
  0x5c, 0x1b, 0x00, 0x00, 0x40, 0x1b, 0x00, 0x00,
  0x2c, 0x1b, 0x00, 0x00, 0x14, 0x1b, 0x00, 0x00,
  0xe4, 0x1a, 0x00, 0x00, 0x94, 0x1a, 0x00, 0x00,
  0x84, 0x18, 0x00, 0x00, 0xf4, 0x17, 0x00, 0x00,
  0xe4, 0x13, 0x00, 0x00, 0x54, 0x13, 0x00, 0x00,
  0x44, 0x04, 0x00, 0x00, 0xd4, 0x03, 0x00, 0x00,
  0xf4, 0x00, 0x00, 0x00, 0xec, 0x00, 0x00, 0x00,
  0xe4, 0x00, 0x00, 0x00, 0xdc, 0x00, 0x00, 0x00,
  0xd4, 0x00, 0x00, 0x00, 0xcc, 0x00, 0x00, 0x00,
  0xc4, 0x00, 0x00, 0x00, 0xbc, 0x00, 0x00, 0x00,
  0xb4, 0x00, 0x00, 0x00, 0xac, 0x00, 0x00, 0x00,
  0xa4, 0x00, 0x00, 0x00, 0x9c, 0x00, 0x00, 0x00,
  0x94, 0x00, 0x00, 0x00, 0x8c, 0x00, 0x00, 0x00,
  0x6c, 0x00, 0x00, 0x00, 0x04, 0x00, 0x00, 0x00,
  0x22, 0xe4, 0xff, 0xff, 0x04, 0x00, 0x00, 0x00,
  0x58, 0x00, 0x00, 0x00, 0x0c, 0x00, 0x00, 0x00,
  0x08, 0x00, 0x0e, 0x00, 0x08, 0x00, 0x04, 0x00,
  0x08, 0x00, 0x00, 0x00, 0x10, 0x00, 0x00, 0x00,
  0x28, 0x00, 0x00, 0x00, 0x00, 0x00, 0x06, 0x00,
  0x08, 0x00, 0x04, 0x00, 0x06, 0x00, 0x00, 0x00,
  0x04, 0x00, 0x00, 0x00, 0x01, 0x00, 0x00, 0x00,
  0xeb, 0x03, 0x00, 0x00, 0x00, 0x00, 0x0a, 0x00,
  0x10, 0x00, 0x0c, 0x00, 0x08, 0x00, 0x04, 0x00,
  0x0a, 0x00, 0x00, 0x00, 0x02, 0x00, 0x00, 0x00,
  0x02, 0x00, 0x00, 0x00, 0x04, 0x00, 0x00, 0x00,
  0x06, 0x00, 0x00, 0x00, 0x32, 0x2e, 0x31, 0x30,
  0x2e, 0x30, 0x00, 0x00, 0x86, 0xe4, 0xff, 0xff,
  0x04, 0x00, 0x00, 0x00, 0x10, 0x00, 0x00, 0x00,
  0x31, 0x2e, 0x31, 0x34, 0x2e, 0x30, 0x00, 0x00,
  0x00, 0x00, 0x00, 0x00, 0x00, 0x00, 0x00, 0x00,
  0x80, 0xce, 0xff, 0xff, 0x84, 0xce, 0xff, 0xff,
  0x88, 0xce, 0xff, 0xff, 0x8c, 0xce, 0xff, 0xff,
  0x90, 0xce, 0xff, 0xff, 0x94, 0xce, 0xff, 0xff,
  0x98, 0xce, 0xff, 0xff, 0x9c, 0xce, 0xff, 0xff,
  0xa0, 0xce, 0xff, 0xff, 0xa4, 0xce, 0xff, 0xff,
  0xa8, 0xce, 0xff, 0xff, 0xac, 0xce, 0xff, 0xff,
  0xb0, 0xce, 0xff, 0xff, 0xd6, 0xe4, 0xff, 0xff,
  0x04, 0x00, 0x00, 0x00, 0xd0, 0x02, 0x00, 0x00,
  0xa8, 0x16, 0xeb, 0x25, 0xa3, 0xc8, 0xd7, 0xcc,
  0xf3, 0x2a, 0x81, 0xfa, 0x06, 0x64, 0xf1, 0xcc,
  0xab, 0xa2, 0xd1, 0x24, 0x27, 0xb9, 0x1b, 0x02,
  0xb2, 0xe1, 0xd2, 0x1f, 0xf3, 0xb3, 0x5c, 0xf6,
  0x7c, 0x68, 0x04, 0x28, 0x02, 0xad, 0xfc, 0x16,
  0xec, 0x5b, 0x6b, 0x91, 0x40, 0x00, 0x37, 0xcc,
  0xec, 0x96, 0x25, 0xec, 0xed, 0x0b, 0x7f, 0x01,
  0x6d, 0x2e, 0x1a, 0xe0, 0x91, 0x3f, 0xe5, 0xfb,
  0xaa, 0xf5, 0xb3, 0xc8, 0xf9, 0xe2, 0x10, 0xf6,
  0x95, 0x7f, 0x0b, 0x03, 0x16, 0xf8, 0xab, 0xcb,
  0x25, 0xdc, 0xbf, 0x02, 0x33, 0x07, 0x0a, 0x36,
  0x70, 0xe2, 0xd4, 0xb8, 0x5d, 0x78, 0x45, 0x5a,
  0x1a, 0xdd, 0x35, 0x37, 0x17, 0x1f, 0x39, 0xd8,
  0xee, 0x49, 0xf1, 0x05, 0xa3, 0xe3, 0x42, 0x65,
  0xf0, 0xd0, 0x11, 0xe3, 0x20, 0x7f, 0x12, 0x22,
  0x03, 0x3e, 0x59, 0xda, 0xdb, 0xc8, 0x81, 0x11,
  0x3c, 0xee, 0xf1, 0xdd, 0xe5, 0x1d, 0xc7, 0x00,
  0x2c, 0xfa, 0x28, 0x36, 0x60, 0x08, 0xc3, 0xfa,
  0x94, 0x27, 0x62, 0x0b, 0x4b, 0xe9, 0xd9, 0x81,
  0xee, 0x05, 0x18, 0x02, 0xea, 0x01, 0x36, 0xdc,
  0xda, 0xfe, 0xe2, 0xb3, 0xde, 0x0a, 0xd4, 0x00,
  0x33, 0x2d, 0xfb, 0xd9, 0xde, 0xf1, 0xe7, 0x4a,
  0x1e, 0x0d, 0x1a, 0xfa, 0x41, 0x03, 0x02, 0xe1,
  0x2a, 0x60, 0x41, 0xd1, 0x27, 0x48, 0xba, 0x63,
  0x37, 0xb7, 0xd5, 0x57, 0xeb, 0xe5, 0x1a, 0x08,
  0x02, 0x16, 0xd0, 0x46, 0x63, 0x02, 0x24, 0x7f,
  0xbf, 0x42, 0xa9, 0xf2, 0xba, 0x05, 0x4c, 0xf1,
  0xa9, 0xe0, 0xee, 0xe6, 0xd1, 0x04, 0x08, 0xeb,
  0x03, 0xf1, 0xf2, 0x08, 0x27, 0x38, 0x20, 0xc7,
  0xfe, 0xe9, 0x7f, 0xb7, 0xad, 0x14, 0xff, 0x09,
  0x81, 0xeb, 0xfd, 0xb1, 0xaa, 0x05, 0xc9, 0x21,
  0x54, 0x0a, 0x14, 0xeb, 0x3c, 0xeb, 0x0e, 0xd9,
  0x21, 0xe5, 0x74, 0xd2, 0xfc, 0x08, 0xe0, 0xed,
  0x63, 0x38, 0x5e, 0xee, 0x30, 0xf4, 0x51, 0x0c,
  0xc5, 0xf2, 0x25, 0x31, 0x5b, 0x0a, 0x00, 0x09,
  0x3a, 0x44, 0x23, 0x2b, 0xff, 0xea, 0xd7, 0xf0,
  0x7f, 0xcd, 0xdc, 0x1c, 0x3f, 0x4c, 0x56, 0xe5,
  0xb2, 0x13, 0xf3, 0xf5, 0x63, 0x27, 0x5c, 0xe8,
  0x02, 0x08, 0x0a, 0xd0, 0x26, 0xde, 0xb6, 0xea,
  0x29, 0xac, 0xcb, 0x3e, 0xe2, 0xe2, 0xd8, 0x22,
  0xc2, 0x2f, 0xaa, 0xff, 0xf2, 0x02, 0xde, 0x81,
  0xb9, 0xf3, 0x2b, 0xc4, 0x7f, 0xcb, 0x19, 0x9f,
  0xfa, 0xc1, 0x27, 0x24, 0xf6, 0x11, 0x24, 0x22,
  0xf3, 0xee, 0x0d, 0xa1, 0x14, 0xbc, 0xf7, 0xdd,
  0x22, 0x9e, 0x29, 0xa7, 0xef, 0xd5, 0x0d, 0xa8,
  0xce, 0xca, 0x55, 0x0b, 0xc2, 0xfc, 0x2c, 0x81,
  0xaf, 0xf0, 0x2f, 0x00, 0x93, 0x58, 0xa4, 0x2e,
  0x4c, 0xf9, 0x33, 0x66, 0x42, 0xba, 0x0c, 0x04,
  0x25, 0xd9, 0xec, 0x0b, 0xbc, 0xec, 0xc8, 0x4a,
  0x15, 0x0f, 0xff, 0x07, 0x25, 0x3b, 0xdd, 0xfd,
  0xf9, 0x0a, 0x26, 0xf8, 0xd2, 0x27, 0x39, 0x0a,
  0x00, 0xf6, 0x41, 0xf1, 0x1b, 0x0a, 0xf5, 0x81,
  0xfb, 0xed, 0xcc, 0x08, 0xdb, 0x07, 0xcb, 0x1e,
  0x7f, 0x5b, 0x47, 0xef, 0x32, 0xaa, 0x77, 0xa0,
  0xe7, 0x63, 0x65, 0xe8, 0x1e, 0xa1, 0xb8, 0x23,
  0x1f, 0xdb, 0x6f, 0x7e, 0xf8, 0x5d, 0x3d, 0xe4,
  0x43, 0x56, 0x28, 0xb1, 0xb0, 0xa9, 0xd3, 0x09,
  0x01, 0x81, 0x0e, 0x0d, 0x16, 0x0c, 0xdd, 0xe2,
  0xf2, 0xdb, 0x0a, 0x0b, 0x27, 0xf6, 0x4b, 0xce,
  0x5e, 0x51, 0x2a, 0xaf, 0x4d, 0xea, 0x16, 0xc4,
  0x2f, 0x27, 0xae, 0x53, 0xcf, 0xeb, 0xd4, 0x4d,
  0xbc, 0x4e, 0x62, 0xdc, 0x1c, 0xf2, 0x15, 0x70,
  0x58, 0x93, 0xbe, 0x22, 0xda, 0x63, 0x81, 0xd8,
  0x23, 0xf8, 0x74, 0x59, 0xff, 0xce, 0x68, 0xdf,
  0xf5, 0xfd, 0x07, 0xfc, 0x21, 0xe1, 0x11, 0xe4,
  0xb4, 0x01, 0xe3, 0xc9, 0x2f, 0xe3, 0x23, 0xf8,
  0xc8, 0x10, 0xd9, 0xfa, 0x1f, 0xd7, 0xd8, 0x7f,
  0xe2, 0x40, 0xdc, 0xf9, 0xec, 0xe1, 0x56, 0xe5,
  0x81, 0xc2, 0xe0, 0x55, 0x4b, 0xe1, 0xbb, 0x99,
  0x0d, 0x4b, 0xf4, 0xe8, 0xb4, 0xa3, 0xd9, 0xd4,
  0x10, 0xe4, 0x9a, 0xb1, 0x9c, 0xfd, 0x0d, 0xf2,
  0xd7, 0x55, 0x81, 0xab, 0xc1, 0x0c, 0x0c, 0x03,
  0xbc, 0xe3, 0x25, 0x04, 0xe6, 0x05, 0x50, 0x24,
  0x20, 0xc4, 0x0c, 0xef, 0x32, 0xef, 0x0e, 0xe6,
  0x10, 0xf8, 0x5f, 0x52, 0xf9, 0x2b, 0x0d, 0xfd,
  0x47, 0xe8, 0xb6, 0x10, 0xf0, 0xf4, 0xd5, 0x0c,
  0x31, 0xbb, 0x33, 0x04, 0xa5, 0xa4, 0x38, 0xcd,
  0x6f, 0xfe, 0x0c, 0xd2, 0xc7, 0x06, 0xa5, 0x01,
  0x4d, 0x7c, 0x03, 0x7f, 0xd0, 0xfe, 0xac, 0xbd,
  0xb6, 0x4d, 0x51, 0xf6, 0xfe, 0xf0, 0xa0, 0x02,
  0x4b, 0xd0, 0xc7, 0xda, 0xcd, 0x4e, 0xb3, 0xf4,
  0x73, 0xd8, 0xd4, 0xbb, 0xdd, 0xf0, 0x3b, 0xc9,
  0x2d, 0xdc, 0x7f, 0xc1, 0x6b, 0xed, 0x5a, 0x11,
  0x03, 0x7f, 0x17, 0x55, 0x16, 0xe5, 0xba, 0xbc,
  0xfb, 0x5f, 0x39, 0xf1, 0x20, 0xbb, 0xf5, 0x13,
  0x55, 0x1b, 0xd0, 0x3e, 0x0b, 0x4f, 0x18, 0xfa,
  0x0d, 0x58, 0xe8, 0xd7, 0xd7, 0xcc, 0xb4, 0xbc,
  0x27, 0xaf, 0xbc, 0xe7, 0xd8, 0x08, 0x0c, 0xe6,
  0xd6, 0x13, 0xd4, 0xd4, 0xaa, 0xe9, 0x46, 0x3b,
  0xf0, 0xc3, 0xeb, 0xbf, 0x7f, 0x2c, 0xee, 0x05,
  0xb2, 0xe7, 0xff, 0xff, 0x04, 0x00, 0x00, 0x00,
  0x60, 0x00, 0x00, 0x00, 0xf1, 0xf7, 0xff, 0xff,
  0xb0, 0x00, 0x00, 0x00, 0x1c, 0xf3, 0xff, 0xff,
  0x52, 0x00, 0x00, 0x00, 0x03, 0xf3, 0xff, 0xff,
  0xee, 0xf7, 0xff, 0xff, 0xea, 0x00, 0x00, 0x00,
  0x8f, 0xfa, 0xff, 0xff, 0x72, 0xfa, 0xff, 0xff,
  0x65, 0x01, 0x00, 0x00, 0x2f, 0xfd, 0xff, 0xff,
  0x69, 0xff, 0xff, 0xff, 0xd2, 0xf4, 0xff, 0xff,
  0x07, 0xff, 0xff, 0xff, 0x54, 0x02, 0x00, 0x00,
  0x83, 0x00, 0x00, 0x00, 0xab, 0xf3, 0xff, 0xff,
  0x9e, 0xf7, 0xff, 0xff, 0x32, 0x01, 0x00, 0x00,
  0x00, 0xff, 0xff, 0xff, 0xa2, 0xf9, 0xff, 0xff,
  0x89, 0xfc, 0xff, 0xff, 0xf7, 0x02, 0x00, 0x00,
  0x5d, 0xff, 0xff, 0xff, 0x1e, 0xe8, 0xff, 0xff,
  0x04, 0x00, 0x00, 0x00, 0x00, 0x0f, 0x00, 0x00,
  0x04, 0xe9, 0x0c, 0xf7, 0xeb, 0xf5, 0x23, 0x03,
  0xfc, 0xed, 0x1b, 0xf2, 0x3c, 0x10, 0xe7, 0x13,
  0x12, 0x38, 0xf0, 0x1f, 0x20, 0x14, 0xe6, 0xea,
  0x13, 0xeb, 0x18, 0xfd, 0xdb, 0x32, 0x2d, 0x0d,
  0xf0, 0x0c, 0x0e, 0xf6, 0x24, 0x25, 0xf1, 0x09,
  0x1c, 0x2c, 0xd4, 0x16, 0x22, 0x26, 0xd5, 0xfd,
  0xf4, 0xef, 0x09, 0xe6, 0x08, 0x1b, 0x30, 0x02,
  0x0d, 0xf8, 0x2e, 0xfd, 0x41, 0x14, 0x0c, 0x03,
  0x18, 0x1d, 0xee, 0x2a, 0x02, 0x11, 0xea, 0x0f,
  0x00, 0xcd, 0xfb, 0xc4, 0xbc, 0x21, 0xe3, 0x04,
  0x11, 0xd6, 0xec, 0xe2, 0x38, 0x3a, 0xeb, 0x0a,
  0x04, 0x03, 0xca, 0x34, 0xd1, 0x0f, 0xd5, 0x0e,
  0xfe, 0x95, 0xf5, 0x81, 0xbd, 0x30, 0xa9, 0xd9,
  0xe6, 0xd1, 0xa1, 0xe3, 0x29, 0xf8, 0xe6, 0xf9,
  0xce, 0x1d, 0xb1, 0x3c, 0xed, 0x10, 0xbf, 0xf7,
  0x11, 0xfe, 0xf2, 0x05, 0xf4, 0x11, 0x28, 0xe9,
  0xd2, 0x27, 0xfd, 0xca, 0x3c, 0x12, 0xfa, 0x20,
  0x16, 0x45, 0xb0, 0x28, 0x07, 0xde, 0xdf, 0xe2,
  0x24, 0xc6, 0x1a, 0xea, 0x1d, 0x02, 0x15, 0x1d,
  0xcd, 0xec, 0x2f, 0x09, 0x59, 0x27, 0xe4, 0x17,
  0x17, 0x52, 0xd4, 0x16, 0x33, 0x15, 0xe4, 0x07,
  0xea, 0xb6, 0x2f, 0x0e, 0x0d, 0x40, 0x14, 0x0f,
  0x09, 0xec, 0x01, 0xd9, 0x51, 0x3c, 0xf7, 0x23,
  0x22, 0x28, 0xd0, 0x27, 0x4e, 0x26, 0x04, 0x01,
  0xe0, 0x81, 0x30, 0xe4, 0x28, 0x51, 0x09, 0xe4,
  0x2d, 0xda, 0x19, 0xc1, 0x3b, 0x18, 0xfa, 0xe3,
  0x0a, 0x4d, 0xe6, 0x4b, 0x16, 0x2e, 0xcd, 0xf4,
  0xec, 0xa8, 0x0e, 0xca, 0xd1, 0x29, 0xfd, 0x0a,
  0xfb, 0xd0, 0xbc, 0x97, 0x2d, 0x41, 0xdd, 0xbd,
  0xcc, 0x4b, 0xb8, 0x49, 0xe6, 0xec, 0xc8, 0xf7,
  0xdb, 0x1e, 0x07, 0x1b, 0x23, 0x07, 0xe8, 0xf5,
  0x55, 0xa5, 0xf6, 0xf9, 0x27, 0xb9, 0xe2, 0xf4,
  0xd3, 0x4f, 0x14, 0x26, 0xca, 0xa0, 0x01, 0xde,
  0xf9, 0xe9, 0xef, 0x03, 0x36, 0x23, 0x05, 0xe1,
  0x5b, 0xc0, 0xc8, 0x12, 0x37, 0xd5, 0xcf, 0xf5,
  0xbd, 0xf9, 0x16, 0x01, 0xb9, 0x13, 0xe0, 0xda,
  0x02, 0x27, 0x34, 0xe0, 0x3c, 0x1d, 0xff, 0x04,
  0x25, 0xe6, 0xca, 0x21, 0x49, 0x33, 0xde, 0x2c,
  0x0e, 0x03, 0x00, 0x0f, 0x2a, 0x17, 0xfd, 0xc6,
  0xed, 0x25, 0x39, 0xf3, 0x2b, 0x26, 0xe6, 0x28,
  0x45, 0x18, 0xec, 0x38, 0x0c, 0x0a, 0x14, 0xf7,
  0xfc, 0xcd, 0x20, 0x24, 0x28, 0x04, 0x0a, 0xba,
  0xca, 0xfd, 0xe8, 0x08, 0x2a, 0x56, 0xff, 0x3a,
  0x7f, 0x49, 0xe9, 0x0e, 0x42, 0x41, 0x05, 0x52,
  0xc8, 0x0a, 0x09, 0x62, 0xf2, 0xe4, 0x09, 0xe0,
  0x05, 0xc5, 0xe7, 0xfe, 0x17, 0x45, 0x0b, 0x0c,
  0x18, 0x03, 0x0c, 0xca, 0x18, 0x22, 0xd5, 0xdc,
  0xed, 0x3a, 0x81, 0x43, 0x1b, 0xea, 0xba, 0xc8,
  0x22, 0xf5, 0x19, 0x25, 0xef, 0x25, 0xf9, 0x26,
  0x1f, 0xff, 0x28, 0xd1, 0x6e, 0xff, 0xe6, 0xd7,
  0x34, 0x2b, 0xcf, 0x41, 0x46, 0x2d, 0x9f, 0xfa,
  0x09, 0xe0, 0x28, 0x03, 0x18, 0x61, 0x0e, 0x2b,
  0xfc, 0xfb, 0x2d, 0xd6, 0x5f, 0x3d, 0xc6, 0x12,
  0x35, 0x57, 0xb0, 0x38, 0x49, 0x04, 0xca, 0x1e,
  0x0d, 0xe6, 0xf5, 0xda, 0x03, 0x2f, 0xfd, 0x0f,
  0xf0, 0x1d, 0xe0, 0xc0, 0x61, 0x28, 0xb7, 0x0f,
  0x2a, 0x51, 0xdb, 0x3a, 0x19, 0xfd, 0xcd, 0xff,
  0xe5, 0xfe, 0x26, 0xec, 0xe2, 0x50, 0xf5, 0x22,
  0x3b, 0xf4, 0x1e, 0xf4, 0x4a, 0x31, 0xdb, 0xef,
  0x29, 0x36, 0xc0, 0x47, 0x48, 0x2e, 0xbb, 0xf8,
  0xc6, 0xfd, 0x98, 0x0f, 0xab, 0xce, 0x05, 0xfe,
  0xe2, 0xf7, 0xd7, 0xee, 0xf3, 0x1c, 0xee, 0x00,
  0xb8, 0xc1, 0xe4, 0x04, 0xc2, 0x20, 0x18, 0x04,
  0xd1, 0x03, 0x81, 0x1b, 0xcc, 0xb6, 0x0b, 0x0f,
  0xf4, 0x31, 0xc7, 0x17, 0xc0, 0x1e, 0xe9, 0xfe,
  0xc9, 0xc3, 0xef, 0x02, 0xca, 0x09, 0xf5, 0xfc,
  0xf1, 0xf6, 0xd4, 0x0b, 0xd6, 0xa0, 0x1a, 0xe4,
  0xe1, 0x2f, 0xcc, 0x0a, 0xdf, 0xed, 0xf7, 0x06,
  0xbd, 0xaa, 0xe3, 0xf5, 0xfa, 0x01, 0x06, 0xe3,
  0xf4, 0xf8, 0xae, 0x0c, 0xba, 0xd3, 0x0b, 0x0c,
  0x0d, 0x03, 0xb5, 0x10, 0xd6, 0xf7, 0xde, 0x07,
  0xd0, 0x84, 0xdc, 0x00, 0xc3, 0x0e, 0xed, 0x0d,
  0xe8, 0x09, 0xe0, 0xf2, 0xcd, 0xe9, 0x27, 0x12,
  0x0b, 0x39, 0xc6, 0xf0, 0xd9, 0xef, 0xe6, 0x24,
  0xcf, 0xcf, 0xf8, 0x10, 0xdd, 0xfe, 0xed, 0x0a,
  0xe6, 0xcf, 0x06, 0xe5, 0x0b, 0xb5, 0xca, 0x18,
  0xbf, 0x20, 0xc3, 0x18, 0xdd, 0x81, 0x12, 0x18,
  0x13, 0xc7, 0xcd, 0xca, 0x09, 0x4b, 0x21, 0x4b,
  0xe3, 0x10, 0x04, 0xc7, 0xff, 0xe3, 0xdd, 0x23,
  0x88, 0x0a, 0xc5, 0x2e, 0xe2, 0xab, 0x2a, 0x33,
  0x05, 0xab, 0xee, 0xb3, 0xbf, 0x3d, 0x2a, 0x33,
  0xaf, 0xc7, 0xdb, 0xe9, 0x05, 0xd6, 0xfa, 0xf1,
  0x94, 0xeb, 0xc8, 0xfa, 0xb1, 0x87, 0x45, 0xf8,
  0x2b, 0x82, 0xc5, 0xd9, 0xe6, 0x14, 0x2f, 0x32,
  0xc3, 0xd5, 0x27, 0xd0, 0x09, 0xb4, 0xfa, 0xfd,
  0x95, 0x16, 0xd6, 0xfa, 0xb9, 0xa5, 0x20, 0x1c,
  0x27, 0xc8, 0xd5, 0xb8, 0xd2, 0x14, 0x2f, 0x02,
  0xea, 0xf2, 0x18, 0xdc, 0x2c, 0xe8, 0x09, 0xfa,
  0x95, 0x16, 0xd2, 0x2f, 0xb3, 0xb5, 0x54, 0x2d,
  0x35, 0xa1, 0xdb, 0xb5, 0xe4, 0x18, 0x49, 0xf6,
  0x14, 0x31, 0xf2, 0x00, 0x13, 0xe2, 0x25, 0xe0,
  0x21, 0x20, 0xd1, 0x08, 0x14, 0xf7, 0xa3, 0xcc,
  0xb0, 0xbc, 0x02, 0x36, 0xd8, 0xab, 0xd9, 0xec,
  0xfd, 0xef, 0x2f, 0x07, 0xfd, 0xe1, 0x36, 0xc1,
  0x3e, 0xf9, 0x9a, 0xee, 0xf7, 0x2c, 0xc4, 0xfc,
  0xe2, 0xb2, 0x0a, 0x31, 0xea, 0xc0, 0x05, 0x17,
  0xa5, 0xf0, 0x2a, 0xe9, 0x3c, 0x14, 0x35, 0x09,
  0xe9, 0x41, 0xc5, 0xe5, 0xfc, 0xef, 0x81, 0xca,
  0xaa, 0xf3, 0xd1, 0x32, 0xbb, 0xde, 0x0c, 0xfb,
  0x09, 0x15, 0xf1, 0x0f, 0xf3, 0x23, 0x14, 0xe2,
  0x25, 0x3c, 0x92, 0x0c, 0xea, 0x22, 0x8b, 0xc7,
  0xb1, 0x18, 0x01, 0x1b, 0xc3, 0xfa, 0x12, 0xf3,
  0x1c, 0x27, 0x33, 0x12, 0x00, 0x46, 0x3a, 0xe4,
  0x33, 0x21, 0x85, 0xd6, 0xa9, 0xf9, 0xe5, 0xd7,
  0xe8, 0x10, 0x03, 0x0c, 0xa6, 0xfc, 0xfd, 0xcc,
  0x08, 0x28, 0x66, 0xbe, 0xfa, 0xe9, 0x07, 0x1d,
  0x03, 0xd8, 0xf1, 0x03, 0x07, 0xd7, 0x13, 0xd3,
  0xc6, 0xaf, 0x32, 0xdf, 0xd1, 0x01, 0xe3, 0xb3,
  0xe6, 0x1d, 0x46, 0x11, 0x68, 0x3d, 0xf1, 0x4b,
  0xdd, 0xe4, 0x16, 0xec, 0x0d, 0xff, 0x0a, 0xe1,
  0xca, 0x0d, 0x09, 0xcf, 0xfe, 0xed, 0xc5, 0x35,
  0x49, 0xf2, 0x14, 0x1f, 0x0f, 0x60, 0xcf, 0x40,
  0x57, 0x39, 0xe2, 0xf2, 0xc5, 0x7f, 0xc8, 0xce,
  0xa0, 0xc8, 0x0a, 0x43, 0x0e, 0xc1, 0xf5, 0xeb,
  0x06, 0xd1, 0x3a, 0xcb, 0x58, 0xe0, 0x1b, 0x1d,
  0x32, 0x0b, 0x04, 0x2e, 0x30, 0x6b, 0x27, 0xe7,
  0xb5, 0x09, 0x13, 0xf5, 0xec, 0x12, 0xe4, 0xb1,
  0x3d, 0xf6, 0x3b, 0xba, 0x53, 0x14, 0xfa, 0x66,
  0xec, 0xb3, 0xf9, 0x42, 0x54, 0x5a, 0xd2, 0x0f,
  0xc6, 0x2f, 0xb8, 0x3c, 0xc7, 0x03, 0xdf, 0x24,
  0x19, 0xeb, 0x01, 0x08, 0x36, 0x47, 0x07, 0xe1,
  0x0d, 0xe7, 0x11, 0xf6, 0x43, 0x17, 0xed, 0xe6,
  0x21, 0x78, 0xf7, 0xf7, 0xf3, 0x04, 0xda, 0xc1,
  0xe6, 0xd9, 0x37, 0xf4, 0x51, 0x1d, 0xfa, 0xf3,
  0x10, 0xe7, 0x2c, 0xed, 0x7a, 0x25, 0x09, 0xf8,
  0x24, 0x51, 0xfd, 0x0e, 0x38, 0x10, 0xf4, 0xef,
  0x07, 0xfd, 0x05, 0xe2, 0x1e, 0x2f, 0xfa, 0xf9,
  0x24, 0xff, 0x19, 0xee, 0x7f, 0x17, 0xfa, 0x06,
  0x0d, 0x15, 0x18, 0x14, 0x45, 0x24, 0xfc, 0xcc,
  0xe6, 0xf8, 0x39, 0x09, 0x41, 0x55, 0xf6, 0x26,
  0x0f, 0xf6, 0x04, 0xfb, 0x40, 0x2d, 0x07, 0xee,
  0x02, 0x17, 0xee, 0x36, 0x17, 0xf9, 0xea, 0xfc,
  0xeb, 0xd2, 0x0a, 0xe7, 0x2d, 0x4d, 0xec, 0x11,
  0x15, 0x07, 0x02, 0xf6, 0x2d, 0x3d, 0x0a, 0x02,
  0xd8, 0x3a, 0xf9, 0x2f, 0x0b, 0x0c, 0xe4, 0xfe,
  0x12, 0xd9, 0x10, 0x1e, 0xc4, 0x99, 0x18, 0x5b,
  0xea, 0x2f, 0x3f, 0x00, 0xbc, 0xde, 0x40, 0x16,
  0x62, 0x8f, 0x04, 0xf9, 0xf2, 0x36, 0x37, 0x3e,
  0xf3, 0x00, 0x10, 0xdd, 0xc3, 0x9f, 0xf0, 0x01,
  0xe9, 0xf6, 0x1d, 0xe8, 0xc0, 0xbf, 0x0e, 0x03,
  0x5e, 0x87, 0xe1, 0xe5, 0x14, 0x10, 0x0e, 0x26,
  0xf9, 0x08, 0x25, 0x04, 0xf9, 0xbd, 0x05, 0x04,
  0xc2, 0xce, 0xfa, 0x14, 0x91, 0xd6, 0x2e, 0x1a,
  0x2b, 0x91, 0x1d, 0xa8, 0xf4, 0x3d, 0x33, 0x0f,
  0x18, 0x1b, 0xf7, 0x08, 0xd2, 0xa6, 0xfd, 0x05,
  0xb6, 0xd3, 0x4a, 0x00, 0xc1, 0xed, 0x08, 0x24,
  0x47, 0xe2, 0x42, 0x93, 0x14, 0x0b, 0x43, 0xdb,
  0x04, 0x18, 0x21, 0x03, 0xef, 0x81, 0xd3, 0x34,
  0x99, 0x2e, 0x42, 0x25, 0x8f, 0xcf, 0xfe, 0x22,
  0x2c, 0xb0, 0x10, 0xc4, 0x08, 0x50, 0xf4, 0xeb,
  0x25, 0xea, 0x7f, 0xd2, 0x78, 0x07, 0xf0, 0x2e,
  0x42, 0xed, 0xbc, 0xfa, 0xd6, 0x65, 0xc7, 0x0a,
  0xc3, 0xe8, 0xf2, 0x5d, 0x0b, 0x01, 0xd3, 0xa7,
  0xed, 0x1a, 0x33, 0x1d, 0x02, 0x7c, 0x4f, 0xde,
  0x1b, 0x4e, 0x38, 0x1b, 0x28, 0x2c, 0xb0, 0xc5,
  0x09, 0x06, 0xf4, 0x16, 0xe8, 0x2d, 0x24, 0x1a,
  0x40, 0x23, 0x1e, 0x04, 0x58, 0x27, 0x41, 0xf1,
  0x37, 0x2a, 0xd6, 0xc4, 0x40, 0x49, 0xdf, 0xa7,
  0xaa, 0x3d, 0xf2, 0x60, 0xdc, 0x39, 0xef, 0x23,
  0x01, 0xf5, 0x46, 0x24, 0x27, 0x3c, 0x69, 0xe7,
  0x16, 0x3b, 0x25, 0xe9, 0x25, 0x09, 0xd9, 0xff,
  0xde, 0xf2, 0x04, 0x5b, 0xff, 0x49, 0x0e, 0xf9,
  0xfa, 0x21, 0x1e, 0x0e, 0x09, 0x54, 0x5e, 0x17,
  0x4e, 0x4a, 0x28, 0xb6, 0xf9, 0x2d, 0x98, 0xc4,
  0xd4, 0x12, 0xdb, 0x6d, 0xa4, 0x60, 0xf0, 0xd0,
  0xc1, 0x11, 0xf2, 0x25, 0x10, 0xf3, 0x1d, 0xee,
  0x08, 0x00, 0xe5, 0xf0, 0xea, 0xfd, 0xed, 0xcf,
  0xa4, 0xfd, 0x05, 0xef, 0xeb, 0xf3, 0x08, 0x05,
  0xa1, 0x04, 0xfe, 0x1c, 0x01, 0x06, 0xfa, 0x12,
  0x0b, 0x06, 0xda, 0xd8, 0xf7, 0xfd, 0xe7, 0xe1,
  0xab, 0xd8, 0xfe, 0x10, 0xdd, 0xef, 0x0f, 0xf1,
  0xd4, 0x11, 0xf6, 0x1a, 0x07, 0x02, 0x15, 0xf2,
  0x1d, 0x06, 0xdf, 0xca, 0xff, 0xf0, 0x07, 0xdb,
  0xbe, 0x0a, 0x0a, 0x16, 0xe0, 0xde, 0x0a, 0x0e,
  0xce, 0x09, 0xd6, 0x13, 0xf6, 0xf5, 0x09, 0xdc,
  0xf9, 0xe2, 0xc2, 0xb3, 0xfe, 0xcd, 0xfe, 0xb8,
  0xcf, 0xee, 0xfa, 0x0c, 0xdc, 0xce, 0x0d, 0xef,
  0x81, 0x05, 0xfa, 0x02, 0xf5, 0x0a, 0x0b, 0xea,
  0x1f, 0xf8, 0xba, 0xc3, 0xf1, 0xc8, 0xf8, 0xbd,
  0xb8, 0xe4, 0xee, 0x1c, 0xf8, 0xde, 0x18, 0xed,
  0x3c, 0xfa, 0x07, 0x0e, 0xce, 0xd1, 0x0a, 0xf0,
  0x01, 0x0e, 0x10, 0x33, 0xbb, 0xe8, 0xe0, 0xbe,
  0x71, 0xe2, 0x1f, 0xdf, 0xc5, 0x01, 0x10, 0xd3,
  0x0b, 0xcb, 0x1e, 0xef, 0xa6, 0x0a, 0xf3, 0x1f,
  0x22, 0xeb, 0xec, 0x09, 0xa3, 0xff, 0xbc, 0xf6,
  0x3d, 0xe1, 0x42, 0x05, 0xdf, 0xd6, 0xe5, 0xc6,
  0x32, 0xbb, 0x16, 0xeb, 0xa6, 0xf8, 0xfc, 0xfe,
  0x00, 0xe2, 0x0d, 0xe2, 0x81, 0xc7, 0x0e, 0x40,
  0x02, 0xb7, 0x3b, 0xc3, 0x1c, 0xd8, 0xd4, 0x11,
  0xfe, 0xc9, 0xee, 0x38, 0xb8, 0xd8, 0xf5, 0xd4,
  0xb6, 0xca, 0xf3, 0xde, 0xdc, 0x02, 0xb8, 0x33,
  0x1e, 0xdd, 0x11, 0xfc, 0xf9, 0xe0, 0x29, 0xcb,
  0x27, 0xd1, 0xf7, 0x45, 0xdf, 0x0e, 0xf6, 0xed,
  0xa7, 0xf3, 0xff, 0xe4, 0xb1, 0x09, 0xe2, 0xed,
  0x41, 0xfd, 0x0e, 0xd0, 0xfc, 0xf7, 0xf2, 0xe2,
  0x25, 0x27, 0x36, 0x2c, 0x13, 0x32, 0x41, 0x21,
  0x55, 0x15, 0xd2, 0x01, 0x10, 0x53, 0xed, 0xe7,
  0xba, 0x39, 0xd8, 0x2e, 0xa5, 0x28, 0x1e, 0x81,
  0x46, 0x07, 0x57, 0xf1, 0x0c, 0x16, 0x1a, 0xe5,
  0x2e, 0x45, 0xe5, 0xf0, 0x6d, 0x53, 0x07, 0xfc,
  0xaf, 0xf5, 0xcb, 0x20, 0x24, 0x16, 0xfc, 0xb6,
  0x23, 0x02, 0x40, 0x37, 0x1e, 0x42, 0x18, 0xec,
  0x35, 0x35, 0xcb, 0xef, 0x67, 0x59, 0xe7, 0x1d,
  0xf0, 0x00, 0xf0, 0x21, 0x1e, 0x0f, 0xfa, 0x9d,
  0xf1, 0x33, 0x4e, 0xf8, 0x38, 0x0b, 0x0a, 0x3a,
  0x34, 0xf8, 0xca, 0xe4, 0x4c, 0x45, 0xfc, 0xd3,
  0xb3, 0xde, 0xfa, 0xfa, 0x06, 0x05, 0xf9, 0xc8,
  0x32, 0x3f, 0x3a, 0x1f, 0x2c, 0x18, 0x40, 0x33,
  0x12, 0x43, 0xa5, 0xff, 0x19, 0x6d, 0xf4, 0x05,
  0xac, 0x19, 0xda, 0xfd, 0xdb, 0x2d, 0x08, 0xde,
  0xea, 0xf1, 0xed, 0xcd, 0x11, 0xe3, 0xc5, 0xe9,
  0x07, 0xfe, 0xe4, 0x13, 0xbe, 0xf0, 0x31, 0x26,
  0x2c, 0xda, 0xfe, 0xcd, 0xfd, 0x26, 0x09, 0x7f,
  0xc4, 0xfc, 0xef, 0xe4, 0xfe, 0xe0, 0xc7, 0xfa,
  0xff, 0xe3, 0xf8, 0xfb, 0xf1, 0x02, 0x06, 0x23,
  0x49, 0xc2, 0x05, 0xef, 0x10, 0x15, 0xfc, 0x2c,
  0xcd, 0xe7, 0x0f, 0x08, 0xf8, 0xc3, 0xe8, 0xf3,
  0xe5, 0xd1, 0xfe, 0x11, 0xc7, 0x15, 0x29, 0x09,
  0x08, 0xe9, 0xe8, 0xc7, 0xe7, 0x1a, 0x2a, 0x36,
  0xf4, 0xcc, 0xf8, 0xcd, 0xed, 0xc5, 0xc7, 0xfe,
  0xcd, 0xd0, 0x09, 0x04, 0xd9, 0xfe, 0x0f, 0xfd,
  0x20, 0xf2, 0xf8, 0xe6, 0xf1, 0x23, 0xfb, 0xf6,
  0xd5, 0xc2, 0x13, 0xec, 0xde, 0xc9, 0xdc, 0x0d,
  0xdb, 0xd9, 0x0b, 0x32, 0xe2, 0x0f, 0x00, 0xeb,
  0x1c, 0x11, 0xfa, 0xef, 0xdd, 0x26, 0x13, 0xcf,
  0x21, 0xdd, 0x1d, 0x10, 0x5c, 0x0a, 0xd6, 0xaa,
  0x13, 0xd7, 0xb1, 0x23, 0x38, 0xb9, 0xf6, 0xfe,
  0xd2, 0x62, 0x2f, 0xf7, 0x12, 0xb9, 0xfd, 0xbf,
  0xf0, 0xf4, 0x3d, 0x09, 0x5b, 0x4d, 0xe3, 0xd5,
  0x3b, 0xfc, 0xd5, 0xe0, 0x14, 0x0f, 0x14, 0xe9,
  0xe6, 0x0f, 0xea, 0x12, 0x10, 0x0d, 0xcd, 0xa8,
  0xe5, 0x13, 0x0a, 0x16, 0x45, 0x33, 0xd2, 0xfa,
  0x4c, 0xc3, 0x91, 0xeb, 0x5c, 0xc5, 0x19, 0xe1,
  0xef, 0x3e, 0x0b, 0xde, 0xfe, 0x24, 0xed, 0xcb,
  0x29, 0x0f, 0x46, 0xf8, 0x13, 0x49, 0xfc, 0xf1,
  0x26, 0x18, 0xc2, 0xe4, 0x12, 0x2d, 0x06, 0x1a,
  0xc2, 0x15, 0x1e, 0xdd, 0x81, 0xdc, 0x06, 0xd5,
  0xfd, 0x27, 0x2c, 0x09, 0x65, 0x06, 0xea, 0xb2,
  0x20, 0xd5, 0xb2, 0x07, 0x13, 0x1a, 0x02, 0xf7,
  0xde, 0xea, 0xf3, 0xe5, 0xd1, 0xb8, 0xfc, 0xc7,
  0xc7, 0xeb, 0xc2, 0x03, 0xe9, 0xd9, 0xdd, 0xe0,
  0xff, 0x9a, 0x1e, 0x10, 0xe7, 0x03, 0x0c, 0x21,
  0x2b, 0x2a, 0x0a, 0xbd, 0x0e, 0x14, 0x31, 0x4f,
  0x05, 0xec, 0xe0, 0xf8, 0xf2, 0xf5, 0xfa, 0x02,
  0x03, 0x92, 0x12, 0x1b, 0x00, 0x0a, 0x2c, 0x01,
  0x25, 0xdc, 0x36, 0xfa, 0x1d, 0x05, 0x3d, 0x0f,
  0xce, 0x0e, 0x0a, 0x0b, 0x0a, 0x07, 0xf7, 0xfa,
  0xdf, 0x86, 0xdc, 0x12, 0xed, 0xeb, 0x0f, 0x26,
  0x2f, 0xcd, 0x04, 0xd0, 0x05, 0x05, 0x15, 0xf8,
  0xd4, 0x15, 0xd3, 0xfb, 0xea, 0xe2, 0xd1, 0x05,
  0xd2, 0x81, 0x0e, 0x11, 0x11, 0x04, 0x06, 0x14,
  0x31, 0xe3, 0x2a, 0xcd, 0x3b, 0xd0, 0x10, 0x22,
  0xd1, 0x08, 0xe6, 0x18, 0xe9, 0xdd, 0xb6, 0xde,
  0xe2, 0xac, 0xfb, 0x41, 0xe1, 0x12, 0x2d, 0x22,
  0x2d, 0x10, 0x07, 0xc6, 0x33, 0xfb, 0x0e, 0x11,
  0x01, 0xeb, 0x09, 0xf6, 0x22, 0x4c, 0xf9, 0x26,
  0xf8, 0x00, 0x28, 0xd5, 0x5f, 0x1b, 0xe3, 0xd7,
  0x0d, 0x7b, 0xed, 0x16, 0x36, 0xfe, 0xaf, 0xed,
  0xf5, 0xc6, 0x2c, 0xf0, 0x08, 0x41, 0x16, 0xe5,
  0x0e, 0x08, 0x06, 0xf5, 0x39, 0x1b, 0xf4, 0x01,
  0x09, 0x47, 0xfa, 0x3f, 0x13, 0x1f, 0xec, 0x0a,
  0x12, 0xc6, 0x18, 0xf4, 0x30, 0x4a, 0x1e, 0x06,
  0x33, 0x0d, 0x0d, 0xde, 0x69, 0x6c, 0x03, 0xf9,
  0x1f, 0x7f, 0xed, 0x5a, 0x05, 0x18, 0xc1, 0x13,
  0x01, 0xc1, 0x11, 0x11, 0xd4, 0x41, 0x05, 0x27,
  0x26, 0xf6, 0x1a, 0xf8, 0x63, 0x72, 0xe3, 0x09,
  0x12, 0x66, 0xec, 0x52, 0x2b, 0x10, 0xbb, 0xfc,
  0x04, 0xd2, 0xf8, 0xdc, 0x01, 0x5e, 0xf1, 0xee,
  0x0a, 0x0b, 0x22, 0xfd, 0x58, 0x2f, 0xcb, 0xd4,
  0x1d, 0x6c, 0xaf, 0x32, 0x29, 0xdd, 0xc2, 0xea,
  0x27, 0xbf, 0x04, 0xe0, 0xfc, 0x3a, 0xf1, 0xf4,
  0xf5, 0x0d, 0x33, 0xe1, 0x57, 0x31, 0xef, 0xf2,
  0x1e, 0x67, 0xf2, 0x11, 0x06, 0xd6, 0x93, 0xf3,
  0xfe, 0xd1, 0x04, 0x09, 0x04, 0x2d, 0x0c, 0x17,
  0x11, 0xf9, 0x38, 0x0b, 0x58, 0x22, 0xf5, 0xfa,
  0x31, 0x3e, 0xc8, 0x29, 0x14, 0x18, 0xc0, 0x0d,
  0xf2, 0xbc, 0x1a, 0xf9, 0xdd, 0x46, 0xf4, 0x10,
  0x31, 0xfe, 0x0d, 0xea, 0x7f, 0x42, 0xea, 0x0d,
  0x0b, 0x5e, 0xf0, 0x58, 0x14, 0x32, 0xb4, 0xf5,
  0xe9, 0xce, 0x05, 0xef, 0xe5, 0x30, 0x19, 0x34,
  0x31, 0x04, 0x20, 0xf8, 0x51, 0x4d, 0xd7, 0x04,
  0x24, 0x5a, 0xf3, 0x53, 0x3a, 0x33, 0xbc, 0xff,
  0xed, 0xc0, 0xfc, 0xe2, 0x90, 0x27, 0xec, 0x21,
  0x0a, 0x07, 0x21, 0xd8, 0x63, 0x34, 0xcb, 0xda,
  0x10, 0x3c, 0xd3, 0x3d, 0x3b, 0x2e, 0xd7, 0xd5,
  0xfc, 0xc7, 0x04, 0x23, 0xa0, 0xe4, 0x04, 0xfe,
  0x1e, 0xcd, 0x22, 0xed, 0x69, 0x38, 0xa6, 0x07,
  0x29, 0x6b, 0x9c, 0x27, 0x2a, 0xcc, 0xa6, 0xe4,
  0x26, 0x81, 0x14, 0xf9, 0xed, 0x4a, 0x05, 0xfd,
  0xd1, 0x05, 0x12, 0xed, 0x4e, 0x19, 0xaf, 0xd9,
  0x32, 0x5a, 0xab, 0x34, 0x3e, 0x36, 0xc0, 0xe3,
  0x20, 0x9e, 0x04, 0x03, 0xfc, 0x3c, 0xfd, 0x0d,
  0x01, 0xfb, 0x3e, 0xfb, 0x45, 0x31, 0xd5, 0x27,
  0x2e, 0x4c, 0xb3, 0x26, 0xef, 0x0a, 0xc6, 0xee,
  0x00, 0xc8, 0xf9, 0xdd, 0xf4, 0x42, 0xf8, 0x24,
  0x1c, 0xe8, 0x20, 0x0a, 0x68, 0x18, 0xed, 0xec,
  0x17, 0x4f, 0x9d, 0x69, 0xd6, 0x05, 0xf2, 0x1b,
  0x03, 0xba, 0xec, 0xcf, 0x94, 0x56, 0xe2, 0x07,
  0x20, 0x15, 0x09, 0xe7, 0x71, 0x24, 0xe9, 0xba,
  0xd8, 0x42, 0xbb, 0x6c, 0x45, 0xfd, 0xc9, 0xbd,
  0x03, 0xcb, 0x03, 0x13, 0xc7, 0x0b, 0x18, 0x39,
  0x2f, 0x08, 0x14, 0xb5, 0x4d, 0x30, 0xd5, 0xf9,
  0x0c, 0x5c, 0xc9, 0x3d, 0x37, 0x37, 0xf7, 0x03,
  0x0a, 0xfe, 0x04, 0xd8, 0xe0, 0x79, 0x23, 0xf5,
  0x17, 0x14, 0x27, 0xa5, 0x5e, 0x48, 0xbb, 0xd6,
  0xfe, 0x69, 0xdc, 0x35, 0xf5, 0x32, 0xac, 0x01,
  0x10, 0x0e, 0xef, 0xf8, 0xf9, 0x66, 0x14, 0x23,
  0x0a, 0xf4, 0xf2, 0xc6, 0x48, 0x6d, 0xc6, 0x13,
  0x23, 0x66, 0xac, 0x48, 0x0e, 0x32, 0xe1, 0x1e,
  0xf0, 0xc7, 0xec, 0xdc, 0x92, 0x3b, 0xe2, 0xdf,
  0x3b, 0x1c, 0xd1, 0xbd, 0x53, 0x0b, 0xbf, 0xeb,
  0x12, 0x6d, 0xb7, 0x2e, 0x20, 0x2e, 0xfd, 0x05,
  0xe2, 0xcb, 0xee, 0xd8, 0x81, 0x49, 0x00, 0xd7,
  0xfa, 0x18, 0x26, 0x97, 0x35, 0x3d, 0xcb, 0xb7,
  0x28, 0x66, 0xd0, 0x3d, 0x30, 0x39, 0xc2, 0xdd,
  0x01, 0xc8, 0xbd, 0x13, 0xf0, 0xe3, 0xee, 0x02,
  0xf0, 0x1b, 0x2a, 0x1f, 0xa1, 0x22, 0x03, 0x1a,
  0x62, 0xe7, 0x40, 0x23, 0x1b, 0x69, 0xf3, 0x69,
  0x03, 0xd0, 0xbc, 0xe5, 0xbd, 0xe1, 0x0c, 0x40,
  0xa5, 0xd6, 0x49, 0xe9, 0xad, 0x27, 0xe8, 0x23,
  0x7a, 0xce, 0x35, 0xf9, 0x23, 0x2d, 0x2e, 0x5b,
  0xd4, 0xc2, 0xfa, 0x15, 0xf3, 0xd1, 0xd8, 0x22,
  0xb9, 0xef, 0x47, 0x37, 0xb8, 0xf5, 0x2a, 0xe6,
  0x4e, 0xb1, 0x3f, 0xc3, 0x24, 0x43, 0x26, 0x2d,
  0xe3, 0xd0, 0xc1, 0xfc, 0xce, 0xb2, 0xe3, 0x10,
  0xb4, 0x16, 0x22, 0x0d, 0xb4, 0xf9, 0x1f, 0xfc,
  0x3b, 0xc8, 0x04, 0xff, 0xe3, 0x10, 0x28, 0x14,
  0xfd, 0xcc, 0xd9, 0xdc, 0xf2, 0x81, 0xd5, 0x28,
  0xf9, 0x04, 0x42, 0xe9, 0x99, 0xf3, 0x1f, 0xfb,
  0x2c, 0xbb, 0x1f, 0x01, 0xf1, 0x21, 0x01, 0x1e,
  0xfa, 0x1d, 0xb3, 0x25, 0x07, 0x13, 0xdd, 0xf4,
  0xf9, 0x97, 0x27, 0xf7, 0x2c, 0xf5, 0x16, 0xfc,
  0x1e, 0xfb, 0xea, 0x07, 0x0e, 0xf3, 0x1c, 0x3b,
  0xfc, 0x0b, 0xdc, 0x10, 0x12, 0x08, 0x00, 0x03,
  0x15, 0x9c, 0x02, 0xef, 0xf6, 0x08, 0x02, 0x18,
  0x1b, 0xf1, 0x0a, 0x0a, 0x02, 0xb5, 0x26, 0x21,
  0xe3, 0x16, 0xf1, 0x0b, 0xd8, 0x07, 0xed, 0xd8,
  0xf2, 0x81, 0xd6, 0x0c, 0x0b, 0x0b, 0xed, 0xe8,
  0x10, 0x0f, 0x32, 0xe6, 0x1d, 0xb4, 0x06, 0xf6,
  0x05, 0x05, 0xe1, 0x06, 0xd8, 0xfa, 0xca, 0xf5,
  0xe6, 0x86, 0x0a, 0x12, 0xed, 0x1a, 0xf9, 0xfe,
  0x16, 0x14, 0x0a, 0x1c, 0xf9, 0xc4, 0xe2, 0xf7,
  0xea, 0x08, 0xe4, 0x1b, 0xe8, 0xf6, 0xe9, 0xef,
  0x2c, 0x8c, 0x0a, 0x26, 0xf1, 0xe5, 0x03, 0xf5,
  0x0c, 0x00, 0x2c, 0xfa, 0xfa, 0xc1, 0x0f, 0x29,
  0x1c, 0xb4, 0x17, 0x1a, 0x0d, 0x18, 0x02, 0xd1,
  0x25, 0xbd, 0x0e, 0xf0, 0x7f, 0x45, 0xdf, 0xfe,
  0xe4, 0x21, 0xbc, 0x04, 0x34, 0xf8, 0xc8, 0xce,
  0x06, 0xcd, 0x31, 0xec, 0x0e, 0x4e, 0xf8, 0xf9,
  0xe3, 0xf2, 0x13, 0xf5, 0x7c, 0x4c, 0x01, 0xff,
  0x37, 0x57, 0xdf, 0x18, 0x27, 0xd8, 0xcc, 0xd2,
  0x07, 0xc0, 0xf9, 0xf8, 0x46, 0x51, 0xd7, 0x07,
  0xfb, 0x07, 0x2f, 0x14, 0x43, 0x2d, 0xfa, 0x19,
  0x41, 0x1e, 0xd7, 0x39, 0xe3, 0x03, 0xda, 0xed,
  0xea, 0xf2, 0x35, 0xd5, 0x34, 0x28, 0xf5, 0x38,
  0x21, 0x1d, 0xcc, 0xdc, 0x70, 0x33, 0x0c, 0x1a,
  0x2b, 0x5c, 0xc5, 0x40, 0xe5, 0x04, 0xd8, 0xec,
  0x02, 0xf5, 0xfb, 0xdb, 0x06, 0x2f, 0xe4, 0x37,
  0x03, 0xfa, 0x24, 0xda, 0x59, 0x14, 0xe5, 0xd5,
  0xee, 0xfe, 0xde, 0x54, 0x19, 0xf8, 0xe9, 0xcd,
  0xe5, 0xc7, 0xd2, 0x13, 0x92, 0xf1, 0x04, 0xdb,
  0xbd, 0xfd, 0x03, 0xdf, 0xf0, 0xf9, 0xbf, 0x05,
  0xfb, 0x45, 0xe4, 0x05, 0x0f, 0x90, 0xc2, 0xa1,
  0x03, 0xb3, 0xde, 0x21, 0xa6, 0x10, 0x01, 0xf6,
  0xf8, 0x02, 0x3d, 0xfb, 0x4f, 0x1e, 0xe0, 0xfd,
  0x1d, 0x35, 0x03, 0xdc, 0xee, 0xc2, 0x81, 0xb7,
  0xf4, 0xb8, 0xe9, 0x0f, 0xeb, 0x2a, 0xf3, 0xfd,
  0xac, 0xf8, 0x17, 0xdd, 0x1f, 0x0f, 0xde, 0x00,
  0x2a, 0x40, 0xea, 0x2e, 0x24, 0x1e, 0xc2, 0xbc,
  0xf2, 0x9e, 0xf9, 0xf5, 0xe9, 0xff, 0xf6, 0xf4,
  0xc6, 0x18, 0x33, 0x0d, 0x60, 0x3d, 0xe2, 0x1b,
  0x24, 0x0c, 0xc9, 0x21, 0x9f, 0x2b, 0xc2, 0xf6,
  0x10, 0xb3, 0x1f, 0xfb, 0x8b, 0xc8, 0x03, 0x01,
  0xde, 0x22, 0xfa, 0x18, 0x36, 0x2a, 0xc5, 0x00,
  0xf3, 0x18, 0xca, 0x2e, 0x0d, 0x26, 0xaa, 0x14,
  0xeb, 0xf1, 0x02, 0x08, 0xf9, 0xda, 0xd1, 0xe0,
  0xb4, 0xc8, 0x45, 0xcb, 0xd9, 0xa1, 0x20, 0x14,
  0x7f, 0x16, 0xdf, 0xc7, 0xb0, 0x37, 0xef, 0x1a,
  0xe8, 0xcb, 0x00, 0x13, 0xed, 0x99, 0xe5, 0x04,
  0xc2, 0xf4, 0x0a, 0xe9, 0xbb, 0xd8, 0xfa, 0xe0,
  0x63, 0xf8, 0xca, 0xc8, 0xbb, 0x3a, 0xb8, 0x2f,
  0xb0, 0xd1, 0x0c, 0x12, 0x15, 0xd0, 0x04, 0xdd,
  0x07, 0x07, 0xc3, 0xc6, 0xd1, 0xba, 0x43, 0x12,
  0x67, 0xda, 0xc3, 0xbf, 0xad, 0x32, 0xd2, 0xeb,
  0xde, 0x17, 0x1d, 0xf6, 0xfc, 0x17, 0xef, 0xad,
  0x29, 0xdb, 0xe2, 0x04, 0xd3, 0x9a, 0x2a, 0x39,
  0x65, 0xa8, 0xc8, 0xfc, 0xba, 0x38, 0xe0, 0x1d,
  0xd0, 0x33, 0x0e, 0x20, 0x43, 0xe7, 0x1e, 0xc5,
  0x2f, 0xd3, 0xdd, 0x0e, 0x9e, 0xf0, 0x1f, 0x37,
  0x55, 0xfb, 0xe9, 0x15, 0xba, 0x44, 0x00, 0xf4,
  0x09, 0x0b, 0x1c, 0x31, 0x32, 0x28, 0x13, 0x81,
  0x0d, 0x06, 0xb8, 0xec, 0xf2, 0xf2, 0x07, 0xc1,
  0x8d, 0x19, 0x0b, 0x02, 0xa7, 0xa8, 0x05, 0xf6,
  0xe9, 0x01, 0x04, 0x2c, 0x2c, 0x25, 0xfd, 0xc4,
  0xf6, 0xed, 0xc8, 0xd6, 0x0d, 0xd1, 0x01, 0xbd,
  0xa3, 0x01, 0xfe, 0xf5, 0xe2, 0xa9, 0xfe, 0xea,
  0x0d, 0x0a, 0x06, 0x05, 0x38, 0x2f, 0x12, 0xab,
  0x20, 0x00, 0xb7, 0xbd, 0x1c, 0xc6, 0x00, 0x9c,
  0x88, 0xee, 0x04, 0x09, 0xeb, 0xc7, 0x1c, 0xea,
  0x01, 0x23, 0x00, 0x2b, 0x22, 0x25, 0x07, 0xd7,
  0xff, 0xea, 0xba, 0xcb, 0xfc, 0xdc, 0x0e, 0xbf,
  0x9c, 0x9a, 0x07, 0xff, 0xb9, 0xb9, 0x0c, 0xf5,
  0x0f, 0x19, 0x00, 0x1d, 0x21, 0x2d, 0x20, 0xed,
  0x2a, 0xe6, 0x9d, 0xb9, 0xfc, 0xe1, 0x27, 0xcd,
  0xb3, 0x88, 0x1c, 0x1c, 0xdf, 0xf8, 0x1a, 0xed,
  0x13, 0xbf, 0xe4, 0x10, 0xaf, 0x2e, 0x0a, 0x06,
  0xda, 0x02, 0xea, 0xce, 0x66, 0x2b, 0xee, 0xe8,
  0x2e, 0x39, 0x9f, 0x28, 0x00, 0x0e, 0xbd, 0xb8,
  0x13, 0xb3, 0xf8, 0x0d, 0x01, 0x1a, 0xf3, 0x0c,
  0xdd, 0xfb, 0x16, 0xc6, 0x7f, 0x18, 0xc9, 0x12,
  0xf7, 0x59, 0xc3, 0x39, 0x0f, 0x00, 0xb1, 0xbb,
  0xdf, 0xcf, 0x20, 0x13, 0xa0, 0x18, 0xf2, 0x14,
  0xee, 0xfd, 0x1d, 0xe3, 0x59, 0x1f, 0xc7, 0xde,
  0x16, 0x59, 0xb4, 0x34, 0x44, 0x39, 0xb3, 0xba,
  0xf7, 0xbd, 0x1e, 0x0f, 0xee, 0x2c, 0x10, 0x17,
  0x15, 0x09, 0x31, 0xed, 0x72, 0x5b, 0xe2, 0xf9,
  0x32, 0x54, 0xbe, 0x3d, 0x00, 0xfd, 0xc8, 0x12,
  0xf5, 0xb8, 0xf6, 0xc4, 0xb2, 0x48, 0x02, 0xe3,
  0x21, 0x14, 0x37, 0xe5, 0x59, 0x4c, 0xbc, 0xf7,
  0x20, 0x36, 0xec, 0x3e, 0x3c, 0x07, 0xd0, 0xde,
  0x0a, 0x08, 0x57, 0xbe, 0xc6, 0x1a, 0xc1, 0xe5,
  0x2c, 0xfe, 0x4f, 0xfd, 0xfb, 0xf5, 0xc3, 0x3f,
  0xf4, 0x00, 0x12, 0xd3, 0xb8, 0xf9, 0xa7, 0x9b,
  0x09, 0x0e, 0x54, 0xb1, 0x23, 0x00, 0xaf, 0xd3,
  0xee, 0x2e, 0x57, 0x30, 0x22, 0xd4, 0xcc, 0x2e,
  0xf9, 0x28, 0x22, 0x1a, 0x9f, 0x19, 0x9f, 0xc0,
  0x0b, 0x07, 0x55, 0xd5, 0xe5, 0xf0, 0xf5, 0x00,
  0xc6, 0xd8, 0x48, 0xdc, 0x0d, 0xbb, 0x84, 0x5a,
  0xff, 0x06, 0xfa, 0xc7, 0x02, 0xc0, 0xd2, 0xdc,
  0x24, 0xc1, 0x30, 0xec, 0xd5, 0x1c, 0x00, 0xdc,
  0xe6, 0x15, 0x35, 0xf2, 0xdc, 0x16, 0xc9, 0x33,
  0x1b, 0x3f, 0x0f, 0xe2, 0x0c, 0xc9, 0x01, 0xbb,
  0x0f, 0xc8, 0x59, 0x08, 0xf3, 0xfa, 0xb2, 0x23,
  0x81, 0xb8, 0x17, 0x26, 0xcf, 0x0a, 0xe8, 0x18,
  0x01, 0x15, 0x0f, 0x8c, 0xc8, 0xf7, 0xcf, 0xca,
  0xc6, 0x17, 0xe0, 0x40, 0xee, 0x24, 0x0c, 0xbf,
  0x04, 0xe3, 0xdf, 0xc7, 0xe0, 0xf9, 0x0a, 0xd4,
  0xb2, 0x2e, 0x00, 0xeb, 0x04, 0x81, 0x1e, 0x1f,
  0xbd, 0x08, 0xe1, 0x12, 0xfc, 0xf2, 0xee, 0xb7,
  0xea, 0xcf, 0xc5, 0xcf, 0xe1, 0xd7, 0x00, 0xe3,
  0xcb, 0x10, 0x01, 0xdc, 0xea, 0x8b, 0xfd, 0x29,
  0xa5, 0x0f, 0xe9, 0x3f, 0x00, 0xf4, 0xf7, 0xc4,
  0x1d, 0xc1, 0x92, 0xaf, 0x14, 0xc1, 0x01, 0xf0,
  0xd4, 0xee, 0x05, 0x06, 0xf4, 0xcc, 0x16, 0x0e,
  0x90, 0x14, 0xbe, 0x13, 0xe7, 0x27, 0x03, 0xd5,
  0x12, 0xb0, 0x92, 0xb2, 0xca, 0xb8, 0x18, 0xb9,
  0xce, 0xc6, 0x11, 0xff, 0xd9, 0xa4, 0x11, 0x16,
  0x92, 0xfe, 0xdf, 0x32, 0x06, 0x12, 0xee, 0xc0,
  0x17, 0xac, 0xbe, 0x96, 0x03, 0xbc, 0xfb, 0xb3,
  0xc4, 0xe8, 0x14, 0x19, 0xfe, 0x8b, 0xfc, 0xf7,
  0xee, 0x0c, 0x23, 0xff, 0x1a, 0x36, 0x1d, 0x14,
  0xe3, 0x1d, 0xf1, 0xfc, 0x68, 0x2e, 0xee, 0xf3,
  0x2f, 0x75, 0xdf, 0x01, 0x45, 0xfa, 0xc4, 0xd8,
  0xf9, 0xdf, 0x13, 0xef, 0x04, 0x3e, 0x2a, 0x2f,
  0x19, 0x13, 0x09, 0xfe, 0x52, 0x35, 0xff, 0x19,
  0x1f, 0x60, 0xea, 0x4c, 0x3c, 0x06, 0xe6, 0xf7,
  0xf4, 0xda, 0x39, 0x1f, 0x2d, 0x52, 0xfc, 0x08,
  0x35, 0xcf, 0x3a, 0xeb, 0x46, 0x42, 0xf6, 0xfe,
  0x00, 0x7f, 0xea, 0x55, 0xf4, 0xf5, 0xcd, 0xf7,
  0x02, 0xc2, 0x1a, 0xeb, 0xd9, 0x2d, 0xf3, 0xfc,
  0xf7, 0x07, 0x03, 0xf4, 0x66, 0x3f, 0x04, 0xee,
  0x0c, 0x47, 0xd9, 0x38, 0x2f, 0xca, 0xbb, 0xec,
  0xfa, 0xaf, 0xf6, 0xdb, 0xeb, 0x53, 0x00, 0x14,
  0xe7, 0xb1, 0xcf, 0x10, 0x70, 0x3f, 0xf4, 0xf0,
  0xfd, 0x6d, 0xe7, 0x20, 0x52, 0x14, 0x09, 0xb8,
  0xc1, 0xc6, 0xa2, 0xc9, 0xc0, 0x02, 0x13, 0xb6,
  0xb7, 0x81, 0x32, 0xf3, 0xde, 0x17, 0x20, 0x09,
  0x6e, 0xb8, 0xfd, 0x36, 0x3d, 0x19, 0x03, 0x1b,
  0xb2, 0xf9, 0x07, 0x27, 0xb9, 0xe7, 0xe2, 0xe7,
  0xf2, 0xb8, 0x02, 0x3b, 0xc8, 0xfe, 0x38, 0xfe,
  0x5c, 0xcc, 0x2d, 0xf1, 0x40, 0x0f, 0x09, 0x54,
  0xc1, 0x36, 0xe6, 0xfc, 0x14, 0xa2, 0xbd, 0xe9,
  0xb6, 0x89, 0x2d, 0x2b, 0xa5, 0xca, 0x31, 0x3a,
  0x24, 0xe0, 0x3f, 0xc9, 0x0d, 0xd2, 0x46, 0x3a,
  0xa1, 0xf3, 0xfe, 0xfa, 0x0a, 0xb8, 0xc9, 0xbd,
  0xb6, 0x9a, 0x10, 0xfb, 0xbf, 0x0f, 0x40, 0x36,
  0x4f, 0xc3, 0x24, 0x0b, 0x36, 0xd1, 0xf5, 0x03,
  0xb2, 0xf9, 0xcb, 0x4a, 0xe5, 0xb0, 0xcd, 0xe1,
  0xeb, 0xa0, 0x1d, 0xf8, 0xd9, 0x04, 0x13, 0xe2,
  0x57, 0x1b, 0x24, 0xc2, 0x18, 0xc4, 0x29, 0x3b,
  0x2a, 0xf7, 0xff, 0xff, 0x04, 0x00, 0x00, 0x00,
  0x80, 0x00, 0x00, 0x00, 0x49, 0xff, 0xff, 0xff,
  0x6f, 0xfd, 0xff, 0xff, 0x5d, 0xf9, 0xff, 0xff,
  0x02, 0xff, 0xff, 0xff, 0x52, 0x02, 0x00, 0x00,
  0x8e, 0xfe, 0xff, 0xff, 0xd1, 0x00, 0x00, 0x00,
  0x92, 0xf5, 0xff, 0xff, 0x74, 0xf1, 0xff, 0xff,
  0xf9, 0xf8, 0xff, 0xff, 0x32, 0x02, 0x00, 0x00,
  0x6c, 0x02, 0x00, 0x00, 0x1a, 0xfe, 0xff, 0xff,
  0x81, 0x01, 0x00, 0x00, 0x28, 0x00, 0x00, 0x00,
  0xaa, 0xf5, 0xff, 0xff, 0x70, 0x03, 0x00, 0x00,
  0x86, 0xfd, 0xff, 0xff, 0x18, 0x03, 0x00, 0x00,
  0xaa, 0x00, 0x00, 0x00, 0xe2, 0x05, 0x00, 0x00,
  0x72, 0xfc, 0xff, 0xff, 0xcf, 0x02, 0x00, 0x00,
  0x45, 0xf3, 0xff, 0xff, 0xd7, 0x09, 0x00, 0x00,
  0xc8, 0xfb, 0xff, 0xff, 0xf5, 0x01, 0x00, 0x00,
  0xe0, 0x03, 0x00, 0x00, 0xfa, 0xfc, 0xff, 0xff,
  0xad, 0x04, 0x00, 0x00, 0x39, 0xf7, 0xff, 0xff,
  0xe8, 0x04, 0x00, 0x00, 0xb6, 0xf7, 0xff, 0xff,
  0x04, 0x00, 0x00, 0x00, 0x00, 0x04, 0x00, 0x00,
  0xd2, 0xc7, 0xe8, 0xb9, 0xf9, 0x12, 0xb2, 0xae,
  0xa7, 0x21, 0xd6, 0x11, 0x0a, 0xc4, 0x19, 0x19,
  0xf9, 0xab, 0xd2, 0x04, 0x81, 0xc8, 0xeb, 0xe7,
  0xd4, 0x48, 0x44, 0xe2, 0xdf, 0x43, 0xc1, 0x23,
  0xec, 0xe0, 0xbe, 0xd4, 0x35, 0x47, 0x00, 0x24,
  0xcc, 0x12, 0xea, 0xfa, 0x74, 0x2a, 0x15, 0x2f,
  0x93, 0xa7, 0x17, 0xcc, 0xf3, 0xf1, 0x90, 0xde,
  0xb9, 0x47, 0x0d, 0xf8, 0x52, 0xa3, 0xdc, 0xac,
  0x31, 0x27, 0xcb, 0x1c, 0xe1, 0xd2, 0xf3, 0xd7,
  0xfe, 0xa7, 0x01, 0x3b, 0xc7, 0x20, 0xd4, 0x16,
  0xcc, 0x21, 0x1d, 0x23, 0x28, 0x03, 0x07, 0xe8,
  0x19, 0xfa, 0x3e, 0x1e, 0xda, 0x27, 0x13, 0x02,
  0x45, 0x3d, 0x48, 0x35, 0x13, 0xf7, 0x10, 0xe0,
  0x20, 0xc4, 0x18, 0x2b, 0xd7, 0xd1, 0xe9, 0x13,
  0xfa, 0xfa, 0xfb, 0x38, 0x0d, 0xb9, 0x03, 0x36,
  0x59, 0xff, 0x1d, 0x26, 0x06, 0x3a, 0x2d, 0xfd,
  0x5c, 0xf8, 0x1d, 0xda, 0x12, 0xec, 0xfd, 0x2b,
  0x56, 0xeb, 0x28, 0xf8, 0xee, 0xd5, 0xdd, 0x23,
  0x1c, 0x00, 0x2d, 0x32, 0x46, 0xb2, 0x11, 0x23,
  0x0e, 0xe6, 0x4a, 0x36, 0xe0, 0x43, 0x13, 0xdf,
  0xf4, 0xba, 0x09, 0xfe, 0x23, 0xee, 0xd3, 0xe6,
  0xc3, 0xd2, 0xc8, 0xe5, 0xf5, 0xfe, 0xc7, 0x07,
  0x35, 0xe4, 0xfc, 0x16, 0x22, 0xda, 0x0e, 0xf5,
  0x19, 0xe3, 0x34, 0x30, 0xb6, 0x38, 0x16, 0xcb,
  0xd1, 0xa5, 0xce, 0xe6, 0xff, 0x00, 0x00, 0x0c,
  0xb7, 0x21, 0x26, 0xca, 0xde, 0xc1, 0x46, 0x0f,
  0xff, 0x16, 0xdb, 0x03, 0xde, 0x2c, 0xed, 0xc8,
  0xb7, 0x49, 0xfd, 0xbc, 0xfb, 0xf6, 0x1e, 0x41,
  0x5a, 0x10, 0x01, 0x32, 0xdc, 0xd8, 0x1e, 0x18,
  0xf2, 0x0a, 0x0e, 0x11, 0xdf, 0x04, 0xee, 0x26,
  0x2c, 0x45, 0x05, 0xf5, 0x07, 0xbe, 0xde, 0x1c,
  0x21, 0x93, 0x25, 0x3f, 0xb5, 0x62, 0x30, 0x15,
  0xf3, 0x0d, 0xb3, 0x22, 0xba, 0x0d, 0xc7, 0x0b,
  0xcc, 0xb5, 0x9d, 0x13, 0xd8, 0xa9, 0xef, 0xf0,
  0x51, 0xa5, 0xa8, 0x16, 0xf8, 0x1c, 0x14, 0x1a,
  0xa8, 0x27, 0x1c, 0xf7, 0x02, 0x02, 0xb2, 0x28,
  0xce, 0xd6, 0xc3, 0x19, 0x22, 0x2e, 0xfd, 0x32,
  0xfe, 0x24, 0xfc, 0x04, 0x2e, 0xed, 0xf9, 0xe5,
  0x3e, 0x0b, 0x07, 0xd1, 0xf1, 0x0b, 0xe8, 0x18,
  0xbc, 0x20, 0xc5, 0xc2, 0x41, 0xf1, 0x02, 0xd5,
  0xb1, 0xe4, 0xdf, 0x00, 0x0f, 0x64, 0xf2, 0xe6,
  0xec, 0x11, 0xcd, 0x0f, 0x39, 0xe2, 0x26, 0x00,
  0x3f, 0x0d, 0xfe, 0x19, 0xb1, 0x20, 0xd1, 0x08,
  0xd1, 0x4a, 0x22, 0xd5, 0xde, 0xe7, 0xe5, 0xd8,
  0x09, 0xf7, 0x0b, 0x09, 0x31, 0x55, 0xd7, 0x0a,
  0xe1, 0x09, 0x04, 0xc6, 0x0f, 0x1d, 0x12, 0x1c,
  0x9a, 0xd9, 0xec, 0xea, 0x28, 0xcc, 0xd1, 0x28,
  0xb8, 0x4d, 0x1f, 0xcc, 0xfc, 0xf8, 0x13, 0xd5,
  0x00, 0x58, 0x19, 0xdc, 0x0a, 0xcf, 0x42, 0xfe,
  0x46, 0xfc, 0xd3, 0x29, 0x04, 0xfe, 0xe0, 0x06,
  0xf4, 0x3f, 0x3e, 0x3d, 0x18, 0xbd, 0xf7, 0xf3,
  0x4e, 0xf7, 0x25, 0x1f, 0xb5, 0x5d, 0x27, 0x13,
  0xe9, 0xe1, 0xf7, 0xe7, 0xdb, 0x01, 0xc2, 0xd2,
  0xf7, 0x36, 0xe7, 0xd1, 0xe3, 0xc8, 0x11, 0xf3,
  0x1a, 0x0c, 0xfb, 0x08, 0xf4, 0x35, 0x2f, 0xe1,
  0x00, 0x3f, 0xd3, 0x26, 0xca, 0x25, 0x0c, 0x28,
  0x60, 0x3a, 0xe3, 0x16, 0xea, 0x01, 0x01, 0xd9,
  0x1e, 0xb7, 0x00, 0x4a, 0xb2, 0x17, 0xdd, 0x1c,
  0xe7, 0x2d, 0x30, 0x4f, 0xfa, 0xcd, 0x29, 0x12,
  0x2d, 0xe6, 0x14, 0xf5, 0x06, 0x50, 0x38, 0xee,
  0x4f, 0x45, 0xf3, 0xf5, 0x15, 0xec, 0x00, 0xc9,
  0x26, 0xed, 0xe7, 0x1c, 0xb5, 0x0e, 0xea, 0x38,
  0x0e, 0x32, 0x3c, 0x19, 0x1c, 0xdb, 0x2a, 0xde,
  0x31, 0xc4, 0x2d, 0xef, 0x12, 0x3b, 0x43, 0x0b,
  0x0d, 0xf3, 0xd7, 0xd0, 0xca, 0x08, 0xe4, 0xe6,
  0xfd, 0x18, 0x16, 0xc0, 0x42, 0xc3, 0x36, 0xd3,
  0x43, 0x11, 0xd1, 0x02, 0xd6, 0x24, 0x33, 0xbd,
  0xc4, 0x2a, 0xd3, 0xe4, 0x24, 0x0c, 0xa5, 0x07,
  0xce, 0xb4, 0xba, 0xb0, 0x0f, 0x3c, 0xa5, 0xcf,
  0xd3, 0x24, 0xb6, 0x1c, 0x56, 0xd1, 0x11, 0x00,
  0x11, 0x02, 0xe6, 0x0d, 0xdf, 0xde, 0x17, 0xe3,
  0x04, 0x33, 0xe5, 0x1f, 0x46, 0xf7, 0xf8, 0x3a,
  0x2d, 0xff, 0x2a, 0x2f, 0x25, 0x15, 0x2b, 0x0b,
  0x38, 0x24, 0xc9, 0xd1, 0x0c, 0xc8, 0xcf, 0xf6,
  0xc4, 0xdd, 0xca, 0xe5, 0x03, 0xcf, 0x26, 0x19,
  0x30, 0x07, 0x13, 0x2e, 0x05, 0xfb, 0x29, 0xbd,
  0xef, 0x0f, 0xf2, 0xf3, 0xdf, 0x05, 0xcb, 0xcc,
  0x31, 0x1f, 0xd8, 0xf0, 0xfc, 0xc0, 0x59, 0xef,
  0x28, 0xab, 0xc3, 0xd7, 0xdc, 0x49, 0x19, 0x28,
  0xc5, 0x5d, 0xe0, 0xe0, 0xaf, 0x0a, 0x0e, 0x01,
  0x2d, 0x6f, 0x30, 0x17, 0x31, 0xbc, 0x09, 0xfb,
  0x15, 0xc3, 0xd8, 0x3f, 0xa8, 0x04, 0x0d, 0xe0,
  0x0b, 0x31, 0x3b, 0xdd, 0x25, 0xff, 0xec, 0x1f,
  0x25, 0xef, 0x34, 0xed, 0x30, 0x46, 0x1a, 0xc4,
  0x5e, 0x15, 0xf1, 0xe1, 0xfc, 0xb1, 0xf5, 0x08,
  0x4b, 0x0f, 0xe9, 0xe2, 0xcb, 0xf1, 0xbd, 0x48,
  0x1b, 0x47, 0x27, 0x50, 0x19, 0xd8, 0xf4, 0x2e,
  0x45, 0xb1, 0x35, 0x32, 0xef, 0xf1, 0xfc, 0x2f,
  0x71, 0x1a, 0x16, 0xe9, 0xfe, 0xe1, 0x02, 0xeb,
  0x32, 0xd1, 0x2a, 0x38, 0xc3, 0xda, 0xd6, 0xe1,
  0x15, 0x27, 0x34, 0x44, 0xde, 0xd3, 0x10, 0x35,
  0x33, 0xf3, 0x2e, 0x4e, 0x34, 0x11, 0x04, 0xe5,
  0x25, 0x45, 0x33, 0x1a, 0xf5, 0xc8, 0x10, 0x08,
  0x25, 0x0b, 0xf4, 0x17, 0xa5, 0x08, 0xfc, 0x21,
  0x08, 0xe5, 0x2f, 0x19, 0x40, 0xc2, 0xe6, 0xf0,
  0x19, 0xb8, 0x41, 0x47, 0xd5, 0x3a, 0x43, 0x02,
  0x5f, 0x36, 0xc1, 0x02, 0x0a, 0xc8, 0xf7, 0x0f,
  0x4c, 0xa7, 0x15, 0x3d, 0x01, 0xfb, 0x2f, 0xf8,
  0x1c, 0x28, 0x1b, 0xdb, 0x04, 0xda, 0x1d, 0x17,
  0x5b, 0xe3, 0x40, 0x2d, 0xde, 0x1f, 0x16, 0xbc,
  0x03, 0xc3, 0xc6, 0xf8, 0xba, 0x3e, 0xbf, 0xc5,
  0x12, 0x1b, 0xac, 0x00, 0xf9, 0xc4, 0x0c, 0xf2,
  0xfd, 0xec, 0xa8, 0xf8, 0xbc, 0x00, 0x14, 0xd6,
  0xe9, 0xe4, 0x18, 0x10, 0x0c, 0x26, 0xa3, 0x41,
  0xb3, 0x08, 0x10, 0x27, 0xd1, 0x26, 0xea, 0x0c,
  0xf9, 0xec, 0xca, 0xd3, 0x41, 0xaf, 0x48, 0xc2,
  0x58, 0xb6, 0xa9, 0xc1, 0xf3, 0xef, 0x1a, 0xc5,
  0xd6, 0x60, 0x15, 0x0b, 0x22, 0xd0, 0xac, 0x1a,
  0xb9, 0xca, 0xf7, 0x00, 0xae, 0xe8, 0xf4, 0x0c,
  0xf9, 0xe5, 0xeb, 0xd8, 0xf2, 0x1a, 0x33, 0xd2,
  0x25, 0xc0, 0xd4, 0xc6, 0xc7, 0x2f, 0x06, 0xd9,
  0x13, 0x22, 0xa8, 0x1b, 0xf4, 0x16, 0xb5, 0x45,
  0xc5, 0xd3, 0xfa, 0xca, 0xda, 0x39, 0xbe, 0x06,
  0xae, 0x05, 0xc7, 0xca, 0x30, 0xab, 0x41, 0xbf,
  0x47, 0xa9, 0x0e, 0xf8, 0xcf, 0x0b, 0x36, 0xaf,
  0xf9, 0x4d, 0xe4, 0xbb, 0x1a, 0x2a, 0xe4, 0x26,
  0x13, 0x08, 0xf7, 0xc0, 0x1f, 0x2e, 0xf1, 0x32,
  0x0e, 0x15, 0x31, 0x13, 0xdf, 0xf9, 0x12, 0xd7,
  0xb7, 0x04, 0xf8, 0x03, 0xb0, 0x0b, 0x8d, 0xbf,
  0xef, 0xf4, 0xe1, 0xaf, 0x6e, 0x9a, 0x18, 0xaa,
  0x1f, 0x0f, 0xbe, 0xd1, 0x05, 0x58, 0x2d, 0xdc,
  0xe5, 0x1b, 0x14, 0xd2, 0x6d, 0xf6, 0xfa, 0x49,
  0xb4, 0xf7, 0xb4, 0xaf, 0xcd, 0xe8, 0xc6, 0x11,
  0x0c, 0x66, 0x08, 0xea, 0x5c, 0xb6, 0xf7, 0xc1,
  0xa6, 0xcd, 0x34, 0xf5, 0xe2, 0xd2, 0x25, 0xed,
  0xac, 0x1a, 0xdc, 0xdf, 0x5a, 0xd5, 0x38, 0x10,
  0x03, 0xb5, 0x10, 0xea, 0x05, 0x49, 0xf0, 0xd5,
  0x03, 0x41, 0x36, 0x0c, 0x3b, 0x30, 0x17, 0xdf,
  0xc2, 0xfb, 0xff, 0xff, 0x04, 0x00, 0x00, 0x00,
  0x80, 0x00, 0x00, 0x00, 0x59, 0x02, 0x00, 0x00,
  0x6f, 0x01, 0x00, 0x00, 0xb1, 0x08, 0x00, 0x00,
  0x8a, 0x06, 0x00, 0x00, 0x1c, 0xff, 0xff, 0xff,
  0x0a, 0x03, 0x00, 0x00, 0x75, 0xff, 0xff, 0xff,
  0xfe, 0xfc, 0xff, 0xff, 0x85, 0x02, 0x00, 0x00,
  0x5d, 0x00, 0x00, 0x00, 0xcf, 0xff, 0xff, 0xff,
  0x45, 0xff, 0xff, 0xff, 0x4b, 0x00, 0x00, 0x00,
  0xa5, 0xfe, 0xff, 0xff, 0x07, 0x04, 0x00, 0x00,
  0xa8, 0xfc, 0xff, 0xff, 0x52, 0x01, 0x00, 0x00,
  0xe6, 0x08, 0x00, 0x00, 0x09, 0xfa, 0xff, 0xff,
  0x1b, 0x08, 0x00, 0x00, 0x1b, 0x05, 0x00, 0x00,
  0x01, 0xf8, 0xff, 0xff, 0xd5, 0x04, 0x00, 0x00,
  0x1c, 0x01, 0x00, 0x00, 0x67, 0x05, 0x00, 0x00,
  0xef, 0x01, 0x00, 0x00, 0x2e, 0x05, 0x00, 0x00,
  0xb8, 0x01, 0x00, 0x00, 0xe9, 0xfd, 0xff, 0xff,
  0x48, 0xff, 0xff, 0xff, 0x5a, 0x06, 0x00, 0x00,
  0x04, 0x00, 0x00, 0x00, 0x4e, 0xfc, 0xff, 0xff,
  0x04, 0x00, 0x00, 0x00, 0x00, 0x02, 0x00, 0x00,
  0x33, 0x58, 0xd0, 0xe4, 0xfc, 0x2a, 0x5d, 0xe4,
  0x60, 0x3c, 0x65, 0x3f, 0xf1, 0x23, 0xe8, 0xe2,
  0x1e, 0x49, 0x1f, 0x2e, 0xdd, 0xf8, 0xdc, 0xf4,
  0xda, 0x49, 0x6a, 0x35, 0x5a, 0x56, 0x49, 0x17,
  0xdb, 0xcc, 0x1d, 0x36, 0x0d, 0xb9, 0xf2, 0x2b,
  0xca, 0x08, 0xd8, 0xeb, 0x11, 0xf9, 0x18, 0x0c,
  0xdb, 0xcd, 0x2a, 0xe3, 0x2d, 0x27, 0x1a, 0x28,
  0xff, 0xd6, 0xda, 0xf1, 0xe9, 0xe5, 0xb9, 0xf4,
  0x20, 0x40, 0xda, 0xeb, 0xe2, 0x05, 0x19, 0x06,
  0x69, 0x04, 0x20, 0x2a, 0xfe, 0xf8, 0xe3, 0xe2,
  0x4c, 0x34, 0x1c, 0x2d, 0x12, 0xcd, 0xd4, 0xe3,
  0xdd, 0x24, 0x33, 0x17, 0x51, 0x33, 0x4e, 0x2b,
  0xac, 0xda, 0x08, 0x1d, 0x44, 0xea, 0xc0, 0x1b,
  0xe6, 0xed, 0xed, 0xd6, 0x3f, 0x0e, 0xf0, 0xf9,
  0xdf, 0xe9, 0x0e, 0xb2, 0x49, 0xec, 0x01, 0x41,
  0x3b, 0xd4, 0xb1, 0xb1, 0xcb, 0xb5, 0xd5, 0xa6,
  0xb7, 0xbc, 0x06, 0x3d, 0x31, 0x18, 0xc9, 0x2f,
  0xf0, 0x11, 0xce, 0xec, 0x0e, 0xdc, 0x10, 0xfa,
  0xd2, 0xb3, 0x10, 0xe1, 0x29, 0x14, 0x24, 0xfa,
  0x05, 0xa7, 0xaa, 0xc8, 0xbe, 0xc8, 0xcb, 0xb3,
  0x05, 0xca, 0x15, 0x23, 0x14, 0xe5, 0xf8, 0xec,
  0xb8, 0x10, 0xc6, 0xcf, 0x00, 0xfe, 0x08, 0x2c,
  0xc5, 0xbd, 0x21, 0xb0, 0x35, 0x39, 0x38, 0x06,
  0x36, 0xca, 0xee, 0xef, 0xc2, 0xad, 0xb3, 0x04,
  0xd5, 0xe1, 0x11, 0x3b, 0x0b, 0xc8, 0xcf, 0xfd,
  0xc1, 0xce, 0xde, 0xd9, 0x30, 0xc5, 0x1a, 0x13,
  0xc1, 0xbf, 0x03, 0xb2, 0xe1, 0xf5, 0x18, 0xe9,
  0x3e, 0xe3, 0xfc, 0xbf, 0xb8, 0xba, 0xb4, 0xd2,
  0xea, 0xbf, 0x0c, 0xff, 0xf8, 0x09, 0xd5, 0x2f,
  0xc6, 0x04, 0xc9, 0xf1, 0x11, 0xdb, 0x23, 0x13,
  0xce, 0xb5, 0xf1, 0xaf, 0x0c, 0xf0, 0x2d, 0x0a,
  0x06, 0xc7, 0xdd, 0xc4, 0xe2, 0xaf, 0xaf, 0xcd,
  0xf6, 0x53, 0x05, 0xcf, 0xe3, 0xda, 0x3e, 0xe1,
  0x36, 0x2f, 0x51, 0x37, 0xce, 0x08, 0xe0, 0xe4,
  0x2f, 0x3f, 0x0f, 0x1a, 0xeb, 0xe8, 0x02, 0xe4,
  0xe7, 0x39, 0x58, 0x3e, 0x1f, 0x5f, 0x33, 0x1c,
  0xe2, 0xd7, 0x00, 0x43, 0x21, 0xe5, 0xd2, 0xf8,
  0xa2, 0xcd, 0xe8, 0xd2, 0xe2, 0xf5, 0x46, 0x07,
  0xeb, 0xb5, 0x1d, 0xb6, 0x3e, 0x3f, 0x18, 0x24,
  0x29, 0xdc, 0xdc, 0xaa, 0xe2, 0xcd, 0xc4, 0xc6,
  0x3f, 0x28, 0xf7, 0xe9, 0xe9, 0xf3, 0x31, 0xe6,
  0x40, 0x36, 0x44, 0x44, 0xe7, 0x12, 0xeb, 0xe9,
  0x4e, 0x17, 0xf9, 0x3a, 0xe9, 0xe4, 0xc8, 0xed,
  0xec, 0x40, 0x38, 0x51, 0x26, 0x37, 0x59, 0x0e,
  0x28, 0x55, 0xe7, 0xfa, 0xf3, 0x30, 0x34, 0xcd,
  0x5e, 0x0e, 0x4b, 0x41, 0xc4, 0x34, 0xec, 0xe3,
  0x3c, 0x1b, 0x03, 0x38, 0xcf, 0xfe, 0xd6, 0xdc,
  0xd9, 0x3c, 0x7f, 0x59, 0x21, 0x54, 0x3c, 0x13,
  0x9f, 0xa4, 0x1d, 0x2e, 0xea, 0xc6, 0xe8, 0xfa,
  0xeb, 0xea, 0xdf, 0xd0, 0x1b, 0xd8, 0x22, 0x05,
  0xe2, 0xfe, 0x11, 0xe6, 0x12, 0x02, 0x20, 0x29,
  0x2d, 0xb0, 0xd8, 0xcd, 0xe6, 0xba, 0xa8, 0xc4,
  0x3b, 0x45, 0xeb, 0xff, 0xc9, 0xf4, 0x19, 0xf5,
  0x57, 0x35, 0x3a, 0x40, 0xd5, 0x32, 0xe7, 0xdd,
  0x4b, 0x53, 0xde, 0x64, 0xfb, 0xce, 0xfe, 0xf4,
  0x03, 0x55, 0x45, 0x17, 0x23, 0x3b, 0x67, 0x30,
  0x18, 0x2e, 0xf0, 0xf3, 0xe7, 0x29, 0x41, 0xe8,
  0x52, 0x35, 0x08, 0x4c, 0xea, 0x2e, 0xf0, 0xdc,
  0x27, 0x3f, 0xec, 0x34, 0xf8, 0xcc, 0xdc, 0xd1,
  0x0f, 0x33, 0x50, 0x2c, 0x3d, 0x27, 0x57, 0x42,
  0xa4, 0xdd, 0x1f, 0x12, 0x23, 0xcb, 0xf5, 0x2c,
  0xdd, 0x15, 0xee, 0xc7, 0x26, 0xf3, 0x22, 0x2d,
  0xc2, 0xc2, 0xf2, 0x8f, 0xfd, 0xf4, 0xf1, 0x26,
  0x25, 0xe3, 0xcf, 0xc4, 0xb9, 0xdf, 0xc1, 0xc3,
  0x5a, 0xfe, 0xff, 0xff, 0x04, 0x00, 0x00, 0x00,
  0x40, 0x00, 0x00, 0x00, 0xaa, 0x0e, 0x00, 0x00,
  0x8a, 0x04, 0x00, 0x00, 0xf6, 0x09, 0x00, 0x00,
  0xb1, 0x06, 0x00, 0x00, 0xc5, 0x08, 0x00, 0x00,
  0xb3, 0x08, 0x00, 0x00, 0x1e, 0x0b, 0x00, 0x00,
  0xa4, 0x08, 0x00, 0x00, 0x0c, 0x0a, 0x00, 0x00,
  0xc2, 0x0c, 0x00, 0x00, 0x03, 0x0a, 0x00, 0x00,
  0xae, 0x0d, 0x00, 0x00, 0xae, 0x06, 0x00, 0x00,
  0x95, 0x09, 0x00, 0x00, 0xd7, 0x07, 0x00, 0x00,
  0x85, 0x07, 0x00, 0x00, 0xa6, 0xfe, 0xff, 0xff,
  0x04, 0x00, 0x00, 0x00, 0x20, 0x00, 0x00, 0x00,
  0x94, 0x4e, 0xc7, 0x1d, 0x7f, 0x4b, 0x40, 0x5d,
  0xb0, 0xf6, 0x95, 0x07, 0x51, 0xe4, 0x98, 0x6b,
  0xfa, 0xed, 0x59, 0xc0, 0x0d, 0xd6, 0xa7, 0xb9,
  0x33, 0x9e, 0x11, 0x77, 0xba, 0x45, 0x1b, 0xf2,
  0xd2, 0xfe, 0xff, 0xff, 0x04, 0x00, 0x00, 0x00,
  0x08, 0x00, 0x00, 0x00, 0xa8, 0xfd, 0xff, 0xff,
  0x58, 0x02, 0x00, 0x00, 0xe6, 0xfe, 0xff, 0xff,
  0x04, 0x00, 0x00, 0x00, 0x04, 0x00, 0x00, 0x00,
  0x01, 0x00, 0x00, 0x00, 0xf6, 0xfe, 0xff, 0xff,
  0x04, 0x00, 0x00, 0x00, 0x0c, 0x00, 0x00, 0x00,
  0xff, 0xff, 0xff, 0xff, 0x41, 0x00, 0x00, 0x00,
  0x20, 0x00, 0x00, 0x00, 0x0e, 0xff, 0xff, 0xff,
  0x04, 0x00, 0x00, 0x00, 0x0c, 0x00, 0x00, 0x00,
  0xff, 0xff, 0xff, 0xff, 0x41, 0x00, 0x00, 0x00,
  0x18, 0x00, 0x00, 0x00, 0x26, 0xff, 0xff, 0xff,
  0x04, 0x00, 0x00, 0x00, 0x04, 0x00, 0x00, 0x00,
  0xfd, 0xff, 0xff, 0xff, 0x14, 0xe9, 0xff, 0xff,
  0x18, 0xe9, 0xff, 0xff, 0x0f, 0x00, 0x00, 0x00,
  0x4d, 0x4c, 0x49, 0x52, 0x20, 0x43, 0x6f, 0x6e,
  0x76, 0x65, 0x72, 0x74, 0x65, 0x64, 0x2e, 0x00,
  0x01, 0x00, 0x00, 0x00, 0x14, 0x00, 0x00, 0x00,
  0x00, 0x00, 0x0e, 0x00, 0x18, 0x00, 0x14, 0x00,
  0x10, 0x00, 0x0c, 0x00, 0x08, 0x00, 0x04, 0x00,
  0x0e, 0x00, 0x00, 0x00, 0x14, 0x00, 0x00, 0x00,
  0x1c, 0x00, 0x00, 0x00, 0xfc, 0x02, 0x00, 0x00,
  0x00, 0x03, 0x00, 0x00, 0x04, 0x03, 0x00, 0x00,
  0x04, 0x00, 0x00, 0x00, 0x6d, 0x61, 0x69, 0x6e,
  0x00, 0x00, 0x00, 0x00, 0x0d, 0x00, 0x00, 0x00,
  0xc4, 0x02, 0x00, 0x00, 0x84, 0x02, 0x00, 0x00,
  0x24, 0x02, 0x00, 0x00, 0xfc, 0x01, 0x00, 0x00,
  0xbc, 0x01, 0x00, 0x00, 0x78, 0x01, 0x00, 0x00,
  0x50, 0x01, 0x00, 0x00, 0x1c, 0x01, 0x00, 0x00,
  0xd8, 0x00, 0x00, 0x00, 0x9c, 0x00, 0x00, 0x00,
  0x64, 0x00, 0x00, 0x00, 0x28, 0x00, 0x00, 0x00,
  0x04, 0x00, 0x00, 0x00, 0x36, 0xfe, 0xff, 0xff,
  0x0c, 0x00, 0x00, 0x00, 0x10, 0x00, 0x00, 0x00,
  0x07, 0x00, 0x00, 0x00, 0x01, 0x00, 0x00, 0x00,
  0x1b, 0x00, 0x00, 0x00, 0x01, 0x00, 0x00, 0x00,
  0x1a, 0x00, 0x00, 0x00, 0xda, 0xfd, 0xff, 0xff,
  0x1c, 0x00, 0x00, 0x00, 0x00, 0x00, 0x00, 0x09,
  0x1c, 0x00, 0x00, 0x00, 0x20, 0x00, 0x00, 0x00,
  0x06, 0x00, 0x00, 0x00, 0x00, 0x00, 0x06, 0x00,
  0x08, 0x00, 0x04, 0x00, 0x06, 0x00, 0x00, 0x00,
  0x00, 0x00, 0x80, 0x3f, 0x01, 0x00, 0x00, 0x00,
  0x1a, 0x00, 0x00, 0x00, 0x01, 0x00, 0x00, 0x00,
  0x19, 0x00, 0x00, 0x00, 0x12, 0xfe, 0xff, 0xff,
  0x14, 0x00, 0x00, 0x00, 0x00, 0x00, 0x00, 0x08,
  0x10, 0x00, 0x00, 0x00, 0x14, 0x00, 0x00, 0x00,
  0x05, 0x00, 0x00, 0x00, 0x14, 0xea, 0xff, 0xff,
  0x01, 0x00, 0x00, 0x00, 0x19, 0x00, 0x00, 0x00,
  0x03, 0x00, 0x00, 0x00, 0x18, 0x00, 0x00, 0x00,
  0x06, 0x00, 0x00, 0x00, 0x05, 0x00, 0x00, 0x00,
  0x46, 0xfe, 0xff, 0xff, 0x14, 0x00, 0x00, 0x00,
  0x00, 0x00, 0x00, 0x08, 0x14, 0x00, 0x00, 0x00,
  0x18, 0x00, 0x00, 0x00, 0x05, 0x00, 0x00, 0x00,
  0xc6, 0xff, 0xff, 0xff, 0x00, 0x00, 0x00, 0x01,
  0x01, 0x00, 0x00, 0x00, 0x18, 0x00, 0x00, 0x00,
  0x03, 0x00, 0x00, 0x00, 0x17, 0x00, 0x00, 0x00,
  0x08, 0x00, 0x00, 0x00, 0x07, 0x00, 0x00, 0x00,
  0x7e, 0xfe, 0xff, 0xff, 0x1c, 0x00, 0x00, 0x00,
  0x00, 0x00, 0x00, 0x08, 0x1c, 0x00, 0x00, 0x00,
  0x20, 0x00, 0x00, 0x00, 0x05, 0x00, 0x00, 0x00,
  0x00, 0x00, 0x06, 0x00, 0x08, 0x00, 0x07, 0x00,
  0x06, 0x00, 0x00, 0x00, 0x00, 0x00, 0x00, 0x01,
  0x01, 0x00, 0x00, 0x00, 0x17, 0x00, 0x00, 0x00,
  0x03, 0x00, 0x00, 0x00, 0x16, 0x00, 0x00, 0x00,
  0x0a, 0x00, 0x00, 0x00, 0x09, 0x00, 0x00, 0x00,
  0xbe, 0xfe, 0xff, 0xff, 0x14, 0x00, 0x00, 0x00,
  0x00, 0x00, 0x00, 0x1b, 0x10, 0x00, 0x00, 0x00,
  0x14, 0x00, 0x00, 0x00, 0x04, 0x00, 0x00, 0x00,
  0xc0, 0xea, 0xff, 0xff, 0x01, 0x00, 0x00, 0x00,
  0x16, 0x00, 0x00, 0x00, 0x02, 0x00, 0x00, 0x00,
  0x15, 0x00, 0x00, 0x00, 0x04, 0x00, 0x00, 0x00,
  0x6a, 0xff, 0xff, 0xff, 0x0c, 0x00, 0x00, 0x00,
  0x10, 0x00, 0x00, 0x00, 0x03, 0x00, 0x00, 0x00,
  0x01, 0x00, 0x00, 0x00, 0x15, 0x00, 0x00, 0x00,
  0x02, 0x00, 0x00, 0x00, 0x14, 0x00, 0x00, 0x00,
  0x03, 0x00, 0x00, 0x00, 0x12, 0xff, 0xff, 0xff,
  0x14, 0x00, 0x00, 0x00, 0x00, 0x00, 0x00, 0x01,
  0x1c, 0x00, 0x00, 0x00, 0x20, 0x00, 0x00, 0x00,
  0x02, 0x00, 0x00, 0x00, 0x60, 0xff, 0xff, 0xff,
  0x00, 0x00, 0x00, 0x01, 0x01, 0x00, 0x00, 0x00,
  0x01, 0x00, 0x00, 0x00, 0x01, 0x00, 0x00, 0x00,
  0x14, 0x00, 0x00, 0x00, 0x03, 0x00, 0x00, 0x00,
  0x13, 0x00, 0x00, 0x00, 0x0c, 0x00, 0x00, 0x00,
  0x0b, 0x00, 0x00, 0x00, 0x52, 0xff, 0xff, 0xff,
  0x14, 0x00, 0x00, 0x00, 0x00, 0x00, 0x00, 0x34,
  0x10, 0x00, 0x00, 0x00, 0x14, 0x00, 0x00, 0x00,
  0x01, 0x00, 0x00, 0x00, 0x54, 0xeb, 0xff, 0xff,
  0x01, 0x00, 0x00, 0x00, 0x13, 0x00, 0x00, 0x00,
  0x02, 0x00, 0x00, 0x00, 0x12, 0x00, 0x00, 0x00,
  0x01, 0x00, 0x00, 0x00, 0x00, 0x00, 0x0a, 0x00,
  0x10, 0x00, 0x0c, 0x00, 0x08, 0x00, 0x04, 0x00,
  0x0a, 0x00, 0x00, 0x00, 0x0c, 0x00, 0x00, 0x00,
  0x10, 0x00, 0x00, 0x00, 0x03, 0x00, 0x00, 0x00,
  0x01, 0x00, 0x00, 0x00, 0x12, 0x00, 0x00, 0x00,
  0x02, 0x00, 0x00, 0x00, 0x11, 0x00, 0x00, 0x00,
  0x02, 0x00, 0x00, 0x00, 0xb2, 0xff, 0xff, 0xff,
  0x20, 0x00, 0x00, 0x00, 0x00, 0x00, 0x00, 0x01,
  0x28, 0x00, 0x00, 0x00, 0x2c, 0x00, 0x00, 0x00,
  0x02, 0x00, 0x00, 0x00, 0x0c, 0x00, 0x10, 0x00,
  0x00, 0x00, 0x0c, 0x00, 0x08, 0x00, 0x07, 0x00,
  0x0c, 0x00, 0x00, 0x00, 0x00, 0x00, 0x00, 0x01,
  0x01, 0x00, 0x00, 0x00, 0x01, 0x00, 0x00, 0x00,
  0x01, 0x00, 0x00, 0x00, 0x11, 0x00, 0x00, 0x00,
  0x03, 0x00, 0x00, 0x00, 0x10, 0x00, 0x00, 0x00,
  0x0e, 0x00, 0x00, 0x00, 0x0d, 0x00, 0x00, 0x00,
  0x00, 0x00, 0x0e, 0x00, 0x18, 0x00, 0x14, 0x00,
  0x10, 0x00, 0x0c, 0x00, 0x0b, 0x00, 0x04, 0x00,
  0x0e, 0x00, 0x00, 0x00, 0x14, 0x00, 0x00, 0x00,
  0x00, 0x00, 0x00, 0x34, 0x10, 0x00, 0x00, 0x00,
  0x14, 0x00, 0x00, 0x00, 0x01, 0x00, 0x00, 0x00,
  0x10, 0xec, 0xff, 0xff, 0x01, 0x00, 0x00, 0x00,
  0x10, 0x00, 0x00, 0x00, 0x02, 0x00, 0x00, 0x00,
  0x0f, 0x00, 0x00, 0x00, 0x01, 0x00, 0x00, 0x00,
  0x00, 0x00, 0x0a, 0x00, 0x0c, 0x00, 0x00, 0x00,
  0x08, 0x00, 0x04, 0x00, 0x0a, 0x00, 0x00, 0x00,
  0x08, 0x00, 0x00, 0x00, 0x0c, 0x00, 0x00, 0x00,
  0x01, 0x00, 0x00, 0x00, 0x0f, 0x00, 0x00, 0x00,
  0x01, 0x00, 0x00, 0x00, 0x00, 0x00, 0x00, 0x00,
  0x01, 0x00, 0x00, 0x00, 0x1b, 0x00, 0x00, 0x00,
  0x01, 0x00, 0x00, 0x00, 0x00, 0x00, 0x00, 0x00,
  0x1c, 0x00, 0x00, 0x00, 0x70, 0x13, 0x00, 0x00,
  0x08, 0x13, 0x00, 0x00, 0xa4, 0x12, 0x00, 0x00,
  0x54, 0x12, 0x00, 0x00, 0xf0, 0x11, 0x00, 0x00,
  0x70, 0x11, 0x00, 0x00, 0x08, 0x11, 0x00, 0x00,
  0x94, 0x10, 0x00, 0x00, 0x28, 0x10, 0x00, 0x00,
  0xb4, 0x0f, 0x00, 0x00, 0x50, 0x0f, 0x00, 0x00,
  0x64, 0x0d, 0x00, 0x00, 0x80, 0x0b, 0x00, 0x00,
  0xfc, 0x09, 0x00, 0x00, 0x78, 0x08, 0x00, 0x00,
  0x00, 0x08, 0x00, 0x00, 0x58, 0x07, 0x00, 0x00,
  0x6c, 0x06, 0x00, 0x00, 0x9c, 0x05, 0x00, 0x00,
  0x04, 0x05, 0x00, 0x00, 0x08, 0x04, 0x00, 0x00,
  0x30, 0x03, 0x00, 0x00, 0xa8, 0x02, 0x00, 0x00,
  0x0c, 0x02, 0x00, 0x00, 0x68, 0x01, 0x00, 0x00,
  0xdc, 0x00, 0x00, 0x00, 0x60, 0x00, 0x00, 0x00,
  0x04, 0x00, 0x00, 0x00, 0x16, 0xed, 0xff, 0xff,
  0x00, 0x00, 0x00, 0x01, 0x14, 0x00, 0x00, 0x00,
  0x1c, 0x00, 0x00, 0x00, 0x1c, 0x00, 0x00, 0x00,
  0x1c, 0x00, 0x00, 0x00, 0x34, 0x00, 0x00, 0x00,
  0x02, 0x00, 0x00, 0x00, 0xff, 0xff, 0xff, 0xff,
  0x02, 0x00, 0x00, 0x00, 0xfc, 0xec, 0xff, 0xff,
  0x19, 0x00, 0x00, 0x00, 0x53, 0x74, 0x61, 0x74,
  0x65, 0x66, 0x75, 0x6c, 0x50, 0x61, 0x72, 0x74,
  0x69, 0x74, 0x69, 0x6f, 0x6e, 0x65, 0x64, 0x43,
  0x61, 0x6c, 0x6c, 0x3a, 0x30, 0x00, 0x00, 0x00,
  0x02, 0x00, 0x00, 0x00, 0x01, 0x00, 0x00, 0x00,
  0x02, 0x00, 0x00, 0x00, 0xa2, 0xf8, 0xff, 0xff,
  0x00, 0x00, 0x00, 0x01, 0x18, 0x00, 0x00, 0x00,
  0x20, 0x00, 0x00, 0x00, 0x3c, 0x00, 0x00, 0x00,
  0x1b, 0x00, 0x00, 0x00, 0x00, 0x00, 0x00, 0x09,
  0x50, 0x00, 0x00, 0x00, 0x02, 0x00, 0x00, 0x00,
  0xff, 0xff, 0xff, 0xff, 0x02, 0x00, 0x00, 0x00,
  0x54, 0xef, 0xff, 0xff, 0x08, 0x00, 0x00, 0x00,
  0x10, 0x00, 0x00, 0x00, 0x01, 0x00, 0x00, 0x00,
  0x80, 0xff, 0xff, 0xff, 0xff, 0xff, 0xff, 0xff,
  0x01, 0x00, 0x00, 0x00, 0x00, 0x00, 0x80, 0x3b,
  0x1a, 0x00, 0x00, 0x00, 0x53, 0x74, 0x61, 0x74,
  0x65, 0x66, 0x75, 0x6c, 0x50, 0x61, 0x72, 0x74,
  0x69, 0x74, 0x69, 0x6f, 0x6e, 0x65, 0x64, 0x43,
  0x61, 0x6c, 0x6c, 0x3a, 0x30, 0x31, 0x00, 0x00,
  0x02, 0x00, 0x00, 0x00, 0x01, 0x00, 0x00, 0x00,
  0x02, 0x00, 0x00, 0x00, 0x1a, 0xf9, 0xff, 0xff,
  0x00, 0x00, 0x00, 0x01, 0x18, 0x00, 0x00, 0x00,
  0x20, 0x00, 0x00, 0x00, 0x3c, 0x00, 0x00, 0x00,
  0x1a, 0x00, 0x00, 0x00, 0x00, 0x00, 0x00, 0x09,
  0x60, 0x00, 0x00, 0x00, 0x02, 0x00, 0x00, 0x00,
  0xff, 0xff, 0xff, 0xff, 0x02, 0x00, 0x00, 0x00,
  0xcc, 0xef, 0xff, 0xff, 0x08, 0x00, 0x00, 0x00,
  0x10, 0x00, 0x00, 0x00, 0x01, 0x00, 0x00, 0x00,
  0x12, 0x00, 0x00, 0x00, 0x00, 0x00, 0x00, 0x00,
  0x01, 0x00, 0x00, 0x00, 0x17, 0x97, 0x49, 0x3e,
  0x2a, 0x00, 0x00, 0x00, 0x6d, 0x6f, 0x64, 0x65,
  0x6c, 0x2f, 0x64, 0x65, 0x6e, 0x73, 0x65, 0x5f,
  0x32, 0x2f, 0x4d, 0x61, 0x74, 0x4d, 0x75, 0x6c,
  0x3b, 0x6d, 0x6f, 0x64, 0x65, 0x6c, 0x2f, 0x64,
  0x65, 0x6e, 0x73, 0x65, 0x5f, 0x32, 0x2f, 0x42,
  0x69, 0x61, 0x73, 0x41, 0x64, 0x64, 0x00, 0x00,
  0x02, 0x00, 0x00, 0x00, 0x01, 0x00, 0x00, 0x00,
  0x02, 0x00, 0x00, 0x00, 0xa2, 0xf9, 0xff, 0xff,
  0x00, 0x00, 0x00, 0x01, 0x18, 0x00, 0x00, 0x00,
  0x20, 0x00, 0x00, 0x00, 0x40, 0x00, 0x00, 0x00,
  0x19, 0x00, 0x00, 0x00, 0x00, 0x00, 0x00, 0x09,
  0x78, 0x00, 0x00, 0x00, 0x02, 0x00, 0x00, 0x00,
  0xff, 0xff, 0xff, 0xff, 0x10, 0x00, 0x00, 0x00,
  0x54, 0xf0, 0xff, 0xff, 0x08, 0x00, 0x00, 0x00,
  0x14, 0x00, 0x00, 0x00, 0x01, 0x00, 0x00, 0x00,
  0x80, 0xff, 0xff, 0xff, 0xff, 0xff, 0xff, 0xff,
  0x00, 0x00, 0x00, 0x00, 0x01, 0x00, 0x00, 0x00,
  0xcb, 0x15, 0x33, 0x3d, 0x3d, 0x00, 0x00, 0x00,
  0x6d, 0x6f, 0x64, 0x65, 0x6c, 0x2f, 0x64, 0x65,
  0x6e, 0x73, 0x65, 0x5f, 0x31, 0x2f, 0x4d, 0x61,
  0x74, 0x4d, 0x75, 0x6c, 0x3b, 0x6d, 0x6f, 0x64,
  0x65, 0x6c, 0x2f, 0x64, 0x65, 0x6e, 0x73, 0x65,
  0x5f, 0x31, 0x2f, 0x52, 0x65, 0x6c, 0x75, 0x3b,
  0x6d, 0x6f, 0x64, 0x65, 0x6c, 0x2f, 0x64, 0x65,
  0x6e, 0x73, 0x65, 0x5f, 0x31, 0x2f, 0x42, 0x69,
  0x61, 0x73, 0x41, 0x64, 0x64, 0x00, 0x00, 0x00,
  0x02, 0x00, 0x00, 0x00, 0x01, 0x00, 0x00, 0x00,
  0x10, 0x00, 0x00, 0x00, 0x42, 0xfa, 0xff, 0xff,
  0x00, 0x00, 0x00, 0x01, 0x18, 0x00, 0x00, 0x00,
  0x20, 0x00, 0x00, 0x00, 0x40, 0x00, 0x00, 0x00,
  0x18, 0x00, 0x00, 0x00, 0x00, 0x00, 0x00, 0x09,
  0x70, 0x00, 0x00, 0x00, 0x02, 0x00, 0x00, 0x00,
  0xff, 0xff, 0xff, 0xff, 0x20, 0x00, 0x00, 0x00,
  0xf4, 0xf0, 0xff, 0xff, 0x08, 0x00, 0x00, 0x00,
  0x14, 0x00, 0x00, 0x00, 0x01, 0x00, 0x00, 0x00,
  0x80, 0xff, 0xff, 0xff, 0xff, 0xff, 0xff, 0xff,
  0x00, 0x00, 0x00, 0x00, 0x01, 0x00, 0x00, 0x00,
  0x8d, 0x54, 0x10, 0x3c, 0x37, 0x00, 0x00, 0x00,
  0x6d, 0x6f, 0x64, 0x65, 0x6c, 0x2f, 0x64, 0x65,
  0x6e, 0x73, 0x65, 0x2f, 0x4d, 0x61, 0x74, 0x4d,
  0x75, 0x6c, 0x3b, 0x6d, 0x6f, 0x64, 0x65, 0x6c,
  0x2f, 0x64, 0x65, 0x6e, 0x73, 0x65, 0x2f, 0x52,
  0x65, 0x6c, 0x75, 0x3b, 0x6d, 0x6f, 0x64, 0x65,
  0x6c, 0x2f, 0x64, 0x65, 0x6e, 0x73, 0x65, 0x2f,
  0x42, 0x69, 0x61, 0x73, 0x41, 0x64, 0x64, 0x00,
  0x02, 0x00, 0x00, 0x00, 0x01, 0x00, 0x00, 0x00,
  0x20, 0x00, 0x00, 0x00, 0xda, 0xfa, 0xff, 0xff,
  0x00, 0x00, 0x00, 0x01, 0x18, 0x00, 0x00, 0x00,
  0x20, 0x00, 0x00, 0x00, 0x40, 0x00, 0x00, 0x00,
  0x17, 0x00, 0x00, 0x00, 0x00, 0x00, 0x00, 0x09,
  0x5c, 0x00, 0x00, 0x00, 0x02, 0x00, 0x00, 0x00,
  0xff, 0xff, 0xff, 0xff, 0x20, 0x00, 0x00, 0x00,
  0x8c, 0xf1, 0xff, 0xff, 0x08, 0x00, 0x00, 0x00,
  0x14, 0x00, 0x00, 0x00, 0x01, 0x00, 0x00, 0x00,
  0x80, 0xff, 0xff, 0xff, 0xff, 0xff, 0xff, 0xff,
  0x00, 0x00, 0x00, 0x00, 0x01, 0x00, 0x00, 0x00,
  0x09, 0x40, 0x62, 0x3c, 0x23, 0x00, 0x00, 0x00,
  0x6d, 0x6f, 0x64, 0x65, 0x6c, 0x2f, 0x67, 0x6c,
  0x6f, 0x62, 0x61, 0x6c, 0x5f, 0x61, 0x76, 0x65,
  0x72, 0x61, 0x67, 0x65, 0x5f, 0x70, 0x6f, 0x6f,
  0x6c, 0x69, 0x6e, 0x67, 0x31, 0x64, 0x2f, 0x4d,
  0x65, 0x61, 0x6e, 0x00, 0x02, 0x00, 0x00, 0x00,
  0x01, 0x00, 0x00, 0x00, 0x20, 0x00, 0x00, 0x00,
  0x5e, 0xfb, 0xff, 0xff, 0x00, 0x00, 0x00, 0x01,
  0x18, 0x00, 0x00, 0x00, 0x24, 0x00, 0x00, 0x00,
  0x40, 0x00, 0x00, 0x00, 0x16, 0x00, 0x00, 0x00,
  0x00, 0x00, 0x00, 0x09, 0xa8, 0x00, 0x00, 0x00,
  0x03, 0x00, 0x00, 0x00, 0xff, 0xff, 0xff, 0xff,
  0x41, 0x00, 0x00, 0x00, 0x20, 0x00, 0x00, 0x00,
  0x14, 0xf2, 0xff, 0xff, 0x08, 0x00, 0x00, 0x00,
  0x10, 0x00, 0x00, 0x00, 0x01, 0x00, 0x00, 0x00,
  0x80, 0xff, 0xff, 0xff, 0xff, 0xff, 0xff, 0xff,
  0x01, 0x00, 0x00, 0x00, 0xc6, 0x22, 0x42, 0x3d,
  0x6e, 0x00, 0x00, 0x00, 0x6d, 0x6f, 0x64, 0x65,
  0x6c, 0x2f, 0x63, 0x6f, 0x6e, 0x76, 0x31, 0x64,
  0x5f, 0x31, 0x2f, 0x52, 0x65, 0x6c, 0x75, 0x3b,
  0x6d, 0x6f, 0x64, 0x65, 0x6c, 0x2f, 0x63, 0x6f,
  0x6e, 0x76, 0x31, 0x64, 0x5f, 0x31, 0x2f, 0x42,
  0x69, 0x61, 0x73, 0x41, 0x64, 0x64, 0x3b, 0x6d,
  0x6f, 0x64, 0x65, 0x6c, 0x2f, 0x63, 0x6f, 0x6e,
  0x76, 0x31, 0x64, 0x5f, 0x31, 0x2f, 0x43, 0x6f,
  0x6e, 0x76, 0x31, 0x44, 0x2f, 0x53, 0x71, 0x75,
  0x65, 0x65, 0x7a, 0x65, 0x3b, 0x6d, 0x6f, 0x64,
  0x65, 0x6c, 0x2f, 0x63, 0x6f, 0x6e, 0x76, 0x31,
  0x64, 0x5f, 0x31, 0x2f, 0x42, 0x69, 0x61, 0x73,
  0x41, 0x64, 0x64, 0x2f, 0x52, 0x65, 0x61, 0x64,
  0x56, 0x61, 0x72, 0x69, 0x61, 0x62, 0x6c, 0x65,
  0x4f, 0x70, 0x00, 0x00, 0x03, 0x00, 0x00, 0x00,
  0x01, 0x00, 0x00, 0x00, 0x41, 0x00, 0x00, 0x00,
  0x20, 0x00, 0x00, 0x00, 0x32, 0xfc, 0xff, 0xff,
  0x00, 0x00, 0x00, 0x01, 0x18, 0x00, 0x00, 0x00,
  0x28, 0x00, 0x00, 0x00, 0x48, 0x00, 0x00, 0x00,
  0x15, 0x00, 0x00, 0x00, 0x00, 0x00, 0x00, 0x09,
  0xc8, 0x00, 0x00, 0x00, 0x04, 0x00, 0x00, 0x00,
  0xff, 0xff, 0xff, 0xff, 0x01, 0x00, 0x00, 0x00,
  0x41, 0x00, 0x00, 0x00, 0x20, 0x00, 0x00, 0x00,
  0xec, 0xf2, 0xff, 0xff, 0x08, 0x00, 0x00, 0x00,
  0x14, 0x00, 0x00, 0x00, 0x01, 0x00, 0x00, 0x00,
  0x80, 0xff, 0xff, 0xff, 0xff, 0xff, 0xff, 0xff,
  0x00, 0x00, 0x00, 0x00, 0x01, 0x00, 0x00, 0x00,
  0xc6, 0x22, 0x42, 0x3d, 0x84, 0x00, 0x00, 0x00,
  0x6d, 0x6f, 0x64, 0x65, 0x6c, 0x2f, 0x63, 0x6f,
  0x6e, 0x76, 0x31, 0x64, 0x5f, 0x31, 0x2f, 0x52,
  0x65, 0x6c, 0x75, 0x3b, 0x6d, 0x6f, 0x64, 0x65,
  0x6c, 0x2f, 0x63, 0x6f, 0x6e, 0x76, 0x31, 0x64,
  0x5f, 0x31, 0x2f, 0x42, 0x69, 0x61, 0x73, 0x41,
  0x64, 0x64, 0x3b, 0x6d, 0x6f, 0x64, 0x65, 0x6c,
  0x2f, 0x63, 0x6f, 0x6e, 0x76, 0x31, 0x64, 0x5f,
  0x31, 0x2f, 0x43, 0x6f, 0x6e, 0x76, 0x31, 0x44,
  0x2f, 0x53, 0x71, 0x75, 0x65, 0x65, 0x7a, 0x65,
  0x3b, 0x6d, 0x6f, 0x64, 0x65, 0x6c, 0x2f, 0x63,
  0x6f, 0x6e, 0x76, 0x31, 0x64, 0x5f, 0x31, 0x2f,
  0x42, 0x69, 0x61, 0x73, 0x41, 0x64, 0x64, 0x2f,
  0x52, 0x65, 0x61, 0x64, 0x56, 0x61, 0x72, 0x69,
  0x61, 0x62, 0x6c, 0x65, 0x4f, 0x70, 0x3b, 0x6d,
  0x6f, 0x64, 0x65, 0x6c, 0x2f, 0x63, 0x6f, 0x6e,
  0x76, 0x31, 0x64, 0x5f, 0x31, 0x2f, 0x43, 0x6f,
  0x6e, 0x76, 0x31, 0x44, 0x00, 0x00, 0x00, 0x00,
  0x04, 0x00, 0x00, 0x00, 0x01, 0x00, 0x00, 0x00,
  0x01, 0x00, 0x00, 0x00, 0x41, 0x00, 0x00, 0x00,
  0x20, 0x00, 0x00, 0x00, 0x2a, 0xfd, 0xff, 0xff,
  0x00, 0x00, 0x00, 0x01, 0x18, 0x00, 0x00, 0x00,
  0x28, 0x00, 0x00, 0x00, 0x48, 0x00, 0x00, 0x00,
  0x14, 0x00, 0x00, 0x00, 0x00, 0x00, 0x00, 0x09,
  0x64, 0x00, 0x00, 0x00, 0x04, 0x00, 0x00, 0x00,
  0xff, 0xff, 0xff, 0xff, 0x01, 0x00, 0x00, 0x00,
  0x41, 0x00, 0x00, 0x00, 0x18, 0x00, 0x00, 0x00,
  0xe4, 0xf3, 0xff, 0xff, 0x08, 0x00, 0x00, 0x00,
  0x14, 0x00, 0x00, 0x00, 0x01, 0x00, 0x00, 0x00,
  0x80, 0xff, 0xff, 0xff, 0xff, 0xff, 0xff, 0xff,
  0x00, 0x00, 0x00, 0x00, 0x01, 0x00, 0x00, 0x00,
  0x09, 0x45, 0x05, 0x3d, 0x20, 0x00, 0x00, 0x00,
  0x6d, 0x6f, 0x64, 0x65, 0x6c, 0x2f, 0x63, 0x6f,
  0x6e, 0x76, 0x31, 0x64, 0x5f, 0x31, 0x2f, 0x43,
  0x6f, 0x6e, 0x76, 0x31, 0x44, 0x2f, 0x45, 0x78,
  0x70, 0x61, 0x6e, 0x64, 0x44, 0x69, 0x6d, 0x73,
  0x00, 0x00, 0x00, 0x00, 0x04, 0x00, 0x00, 0x00,
  0x01, 0x00, 0x00, 0x00, 0x01, 0x00, 0x00, 0x00,
  0x41, 0x00, 0x00, 0x00, 0x18, 0x00, 0x00, 0x00,
  0xbe, 0xfd, 0xff, 0xff, 0x00, 0x00, 0x00, 0x01,
  0x18, 0x00, 0x00, 0x00, 0x24, 0x00, 0x00, 0x00,
  0x40, 0x00, 0x00, 0x00, 0x13, 0x00, 0x00, 0x00,
  0x00, 0x00, 0x00, 0x09, 0xa0, 0x00, 0x00, 0x00,
  0x03, 0x00, 0x00, 0x00, 0xff, 0xff, 0xff, 0xff,
  0x41, 0x00, 0x00, 0x00, 0x18, 0x00, 0x00, 0x00,
  0x74, 0xf4, 0xff, 0xff, 0x08, 0x00, 0x00, 0x00,
  0x10, 0x00, 0x00, 0x00, 0x01, 0x00, 0x00, 0x00,
  0x80, 0xff, 0xff, 0xff, 0xff, 0xff, 0xff, 0xff,
  0x01, 0x00, 0x00, 0x00, 0x09, 0x45, 0x05, 0x3d,
  0x66, 0x00, 0x00, 0x00, 0x6d, 0x6f, 0x64, 0x65,
  0x6c, 0x2f, 0x63, 0x6f, 0x6e, 0x76, 0x31, 0x64,
  0x2f, 0x52, 0x65, 0x6c, 0x75, 0x3b, 0x6d, 0x6f,
  0x64, 0x65, 0x6c, 0x2f, 0x63, 0x6f, 0x6e, 0x76,
  0x31, 0x64, 0x2f, 0x42, 0x69, 0x61, 0x73, 0x41,
  0x64, 0x64, 0x3b, 0x6d, 0x6f, 0x64, 0x65, 0x6c,
  0x2f, 0x63, 0x6f, 0x6e, 0x76, 0x31, 0x64, 0x2f,
  0x43, 0x6f, 0x6e, 0x76, 0x31, 0x44, 0x2f, 0x53,
  0x71, 0x75, 0x65, 0x65, 0x7a, 0x65, 0x3b, 0x6d,
  0x6f, 0x64, 0x65, 0x6c, 0x2f, 0x63, 0x6f, 0x6e,
  0x76, 0x31, 0x64, 0x2f, 0x42, 0x69, 0x61, 0x73,
  0x41, 0x64, 0x64, 0x2f, 0x52, 0x65, 0x61, 0x64,
  0x56, 0x61, 0x72, 0x69, 0x61, 0x62, 0x6c, 0x65,
  0x4f, 0x70, 0x00, 0x00, 0x03, 0x00, 0x00, 0x00,
  0x01, 0x00, 0x00, 0x00, 0x41, 0x00, 0x00, 0x00,
  0x18, 0x00, 0x00, 0x00, 0x8a, 0xfe, 0xff, 0xff,
  0x00, 0x00, 0x00, 0x01, 0x18, 0x00, 0x00, 0x00,
  0x28, 0x00, 0x00, 0x00, 0x44, 0x00, 0x00, 0x00,
  0x12, 0x00, 0x00, 0x00, 0x00, 0x00, 0x00, 0x09,
  0xb8, 0x00, 0x00, 0x00, 0x04, 0x00, 0x00, 0x00,
  0xff, 0xff, 0xff, 0xff, 0x01, 0x00, 0x00, 0x00,
  0x41, 0x00, 0x00, 0x00, 0x18, 0x00, 0x00, 0x00,
  0x44, 0xf5, 0xff, 0xff, 0x08, 0x00, 0x00, 0x00,
  0x10, 0x00, 0x00, 0x00, 0x01, 0x00, 0x00, 0x00,
  0x80, 0xff, 0xff, 0xff, 0xff, 0xff, 0xff, 0xff,
  0x01, 0x00, 0x00, 0x00, 0x09, 0x45, 0x05, 0x3d,
  0x7a, 0x00, 0x00, 0x00, 0x6d, 0x6f, 0x64, 0x65,
  0x6c, 0x2f, 0x63, 0x6f, 0x6e, 0x76, 0x31, 0x64,
  0x2f, 0x52, 0x65, 0x6c, 0x75, 0x3b, 0x6d, 0x6f,
  0x64, 0x65, 0x6c, 0x2f, 0x63, 0x6f, 0x6e, 0x76,
  0x31, 0x64, 0x2f, 0x42, 0x69, 0x61, 0x73, 0x41,
  0x64, 0x64, 0x3b, 0x6d, 0x6f, 0x64, 0x65, 0x6c,
  0x2f, 0x63, 0x6f, 0x6e, 0x76, 0x31, 0x64, 0x2f,
  0x43, 0x6f, 0x6e, 0x76, 0x31, 0x44, 0x2f, 0x53,
  0x71, 0x75, 0x65, 0x65, 0x7a, 0x65, 0x3b, 0x6d,
  0x6f, 0x64, 0x65, 0x6c, 0x2f, 0x63, 0x6f, 0x6e,
  0x76, 0x31, 0x64, 0x2f, 0x42, 0x69, 0x61, 0x73,
  0x41, 0x64, 0x64, 0x2f, 0x52, 0x65, 0x61, 0x64,
  0x56, 0x61, 0x72, 0x69, 0x61, 0x62, 0x6c, 0x65,
  0x4f, 0x70, 0x3b, 0x6d, 0x6f, 0x64, 0x65, 0x6c,
  0x2f, 0x63, 0x6f, 0x6e, 0x76, 0x31, 0x64, 0x2f,
  0x43, 0x6f, 0x6e, 0x76, 0x31, 0x44, 0x00, 0x00,
  0x04, 0x00, 0x00, 0x00, 0x01, 0x00, 0x00, 0x00,
  0x01, 0x00, 0x00, 0x00, 0x41, 0x00, 0x00, 0x00,
  0x18, 0x00, 0x00, 0x00, 0x72, 0xff, 0xff, 0xff,
  0x00, 0x00, 0x00, 0x01, 0x18, 0x00, 0x00, 0x00,
  0x28, 0x00, 0x00, 0x00, 0x44, 0x00, 0x00, 0x00,
  0x11, 0x00, 0x00, 0x00, 0x00, 0x00, 0x00, 0x09,
  0x5c, 0x00, 0x00, 0x00, 0x04, 0x00, 0x00, 0x00,
  0xff, 0xff, 0xff, 0xff, 0x01, 0x00, 0x00, 0x00,
  0x41, 0x00, 0x00, 0x00, 0x06, 0x00, 0x00, 0x00,
  0x2c, 0xf6, 0xff, 0xff, 0x08, 0x00, 0x00, 0x00,
  0x10, 0x00, 0x00, 0x00, 0x01, 0x00, 0x00, 0x00,
  0xff, 0xff, 0xff, 0xff, 0xff, 0xff, 0xff, 0xff,
  0x01, 0x00, 0x00, 0x00, 0xcd, 0xfc, 0xa5, 0x3d,
  0x1e, 0x00, 0x00, 0x00, 0x6d, 0x6f, 0x64, 0x65,
  0x6c, 0x2f, 0x63, 0x6f, 0x6e, 0x76, 0x31, 0x64,
  0x2f, 0x43, 0x6f, 0x6e, 0x76, 0x31, 0x44, 0x2f,
  0x45, 0x78, 0x70, 0x61, 0x6e, 0x64, 0x44, 0x69,
  0x6d, 0x73, 0x00, 0x00, 0x04, 0x00, 0x00, 0x00,
  0x01, 0x00, 0x00, 0x00, 0x01, 0x00, 0x00, 0x00,
  0x41, 0x00, 0x00, 0x00, 0x06, 0x00, 0x00, 0x00,
  0x00, 0x00, 0x16, 0x00, 0x20, 0x00, 0x1c, 0x00,
  0x1b, 0x00, 0x14, 0x00, 0x10, 0x00, 0x0c, 0x00,
  0x00, 0x00, 0x00, 0x00, 0x08, 0x00, 0x07, 0x00,
  0x16, 0x00, 0x00, 0x00, 0x00, 0x00, 0x00, 0x01,
  0x18, 0x00, 0x00, 0x00, 0x24, 0x00, 0x00, 0x00,
  0x40, 0x00, 0x00, 0x00, 0x10, 0x00, 0x00, 0x00,
  0x00, 0x00, 0x00, 0x09, 0x48, 0x00, 0x00, 0x00,
  0x03, 0x00, 0x00, 0x00, 0xff, 0xff, 0xff, 0xff,
  0x41, 0x00, 0x00, 0x00, 0x06, 0x00, 0x00, 0x00,
  0xcc, 0xf6, 0xff, 0xff, 0x08, 0x00, 0x00, 0x00,
  0x10, 0x00, 0x00, 0x00, 0x01, 0x00, 0x00, 0x00,
  0xff, 0xff, 0xff, 0xff, 0xff, 0xff, 0xff, 0xff,
  0x01, 0x00, 0x00, 0x00, 0xcd, 0xfc, 0xa5, 0x3d,
  0x0c, 0x00, 0x00, 0x00, 0x74, 0x66, 0x6c, 0x2e,
  0x71, 0x75, 0x61, 0x6e, 0x74, 0x69, 0x7a, 0x65,
  0x00, 0x00, 0x00, 0x00, 0x03, 0x00, 0x00, 0x00,
  0x01, 0x00, 0x00, 0x00, 0x41, 0x00, 0x00, 0x00,
  0x06, 0x00, 0x00, 0x00, 0xba, 0xf5, 0xff, 0xff,
  0x00, 0x00, 0x00, 0x01, 0x14, 0x00, 0x00, 0x00,
  0x48, 0x01, 0x00, 0x00, 0x0f, 0x00, 0x00, 0x00,
  0x00, 0x00, 0x00, 0x09, 0x54, 0x01, 0x00, 0x00,
  0x2c, 0xf7, 0xff, 0xff, 0x08, 0x00, 0x00, 0x00,
  0xcc, 0x00, 0x00, 0x00, 0x18, 0x00, 0x00, 0x00,
  0x00, 0x00, 0x00, 0x00, 0x00, 0x00, 0x00, 0x00,
  0x00, 0x00, 0x00, 0x00, 0x00, 0x00, 0x00, 0x00,
  0x00, 0x00, 0x00, 0x00, 0x00, 0x00, 0x00, 0x00,
  0x00, 0x00, 0x00, 0x00, 0x00, 0x00, 0x00, 0x00,
  0x00, 0x00, 0x00, 0x00, 0x00, 0x00, 0x00, 0x00,
  0x00, 0x00, 0x00, 0x00, 0x00, 0x00, 0x00, 0x00,
  0x00, 0x00, 0x00, 0x00, 0x00, 0x00, 0x00, 0x00,
  0x00, 0x00, 0x00, 0x00, 0x00, 0x00, 0x00, 0x00,
  0x00, 0x00, 0x00, 0x00, 0x00, 0x00, 0x00, 0x00,
  0x00, 0x00, 0x00, 0x00, 0x00, 0x00, 0x00, 0x00,
  0x00, 0x00, 0x00, 0x00, 0x00, 0x00, 0x00, 0x00,
  0x00, 0x00, 0x00, 0x00, 0x00, 0x00, 0x00, 0x00,
  0x00, 0x00, 0x00, 0x00, 0x00, 0x00, 0x00, 0x00,
  0x00, 0x00, 0x00, 0x00, 0x00, 0x00, 0x00, 0x00,
  0x00, 0x00, 0x00, 0x00, 0x00, 0x00, 0x00, 0x00,
  0x00, 0x00, 0x00, 0x00, 0x00, 0x00, 0x00, 0x00,
  0x00, 0x00, 0x00, 0x00, 0x00, 0x00, 0x00, 0x00,
  0x00, 0x00, 0x00, 0x00, 0x00, 0x00, 0x00, 0x00,
  0x00, 0x00, 0x00, 0x00, 0x00, 0x00, 0x00, 0x00,
  0x00, 0x00, 0x00, 0x00, 0x00, 0x00, 0x00, 0x00,
  0x00, 0x00, 0x00, 0x00, 0x00, 0x00, 0x00, 0x00,
  0x00, 0x00, 0x00, 0x00, 0x00, 0x00, 0x00, 0x00,
  0x00, 0x00, 0x00, 0x00, 0x00, 0x00, 0x00, 0x00,
  0x00, 0x00, 0x00, 0x00, 0x00, 0x00, 0x00, 0x00,
  0x00, 0x00, 0x00, 0x00, 0x18, 0x00, 0x00, 0x00,
  0xab, 0xfa, 0x12, 0x3b, 0xd3, 0x56, 0xf6, 0x3a,
  0x67, 0xed, 0x04, 0x3b, 0xc4, 0x5e, 0x0b, 0x3b,
  0x24, 0xac, 0xfe, 0x3a, 0xf5, 0x8b, 0x7c, 0x3b,
  0xec, 0xe0, 0x19, 0x3b, 0x8f, 0x93, 0x1b, 0x3b,
  0xdd, 0xe1, 0x31, 0x3b, 0x75, 0x88, 0x48, 0x3b,
  0xbe, 0x03, 0x63, 0x3b, 0x6e, 0x7b, 0x53, 0x3b,
  0x9a, 0x4d, 0x2c, 0x3b, 0xb9, 0x9a, 0x9a, 0x3b,
  0x8a, 0x1c, 0x13, 0x3b, 0x09, 0xf7, 0x38, 0x3b,
  0xc1, 0x4d, 0x16, 0x3b, 0xde, 0xc3, 0x65, 0x3b,
  0xac, 0x2c, 0x24, 0x3b, 0xb2, 0xd2, 0x70, 0x3b,
  0x87, 0x15, 0x33, 0x3b, 0xac, 0x32, 0x2b, 0x3b,
  0x22, 0x4f, 0x1e, 0x3b, 0xf3, 0x34, 0x5d, 0x3b,
  0x13, 0x00, 0x00, 0x00, 0x6d, 0x6f, 0x64, 0x65,
  0x6c, 0x2f, 0x63, 0x6f, 0x6e, 0x76, 0x31, 0x64,
  0x2f, 0x43, 0x6f, 0x6e, 0x76, 0x31, 0x44, 0x00,
  0x04, 0x00, 0x00, 0x00, 0x18, 0x00, 0x00, 0x00,
  0x01, 0x00, 0x00, 0x00, 0x05, 0x00, 0x00, 0x00,
  0x06, 0x00, 0x00, 0x00, 0x3a, 0xf7, 0xff, 0xff,
  0x00, 0x00, 0x00, 0x01, 0x14, 0x00, 0x00, 0x00,
  0x44, 0x01, 0x00, 0x00, 0x0e, 0x00, 0x00, 0x00,
  0x00, 0x00, 0x00, 0x02, 0x60, 0x01, 0x00, 0x00,
  0xac, 0xf8, 0xff, 0xff, 0x08, 0x00, 0x00, 0x00,
  0xc8, 0x00, 0x00, 0x00, 0x18, 0x00, 0x00, 0x00,
  0x00, 0x00, 0x00, 0x00, 0x00, 0x00, 0x00, 0x00,
  0x00, 0x00, 0x00, 0x00, 0x00, 0x00, 0x00, 0x00,
  0x00, 0x00, 0x00, 0x00, 0x00, 0x00, 0x00, 0x00,
  0x00, 0x00, 0x00, 0x00, 0x00, 0x00, 0x00, 0x00,
  0x00, 0x00, 0x00, 0x00, 0x00, 0x00, 0x00, 0x00,
  0x00, 0x00, 0x00, 0x00, 0x00, 0x00, 0x00, 0x00,
  0x00, 0x00, 0x00, 0x00, 0x00, 0x00, 0x00, 0x00,
  0x00, 0x00, 0x00, 0x00, 0x00, 0x00, 0x00, 0x00,
  0x00, 0x00, 0x00, 0x00, 0x00, 0x00, 0x00, 0x00,
  0x00, 0x00, 0x00, 0x00, 0x00, 0x00, 0x00, 0x00,
  0x00, 0x00, 0x00, 0x00, 0x00, 0x00, 0x00, 0x00,
  0x00, 0x00, 0x00, 0x00, 0x00, 0x00, 0x00, 0x00,
  0x00, 0x00, 0x00, 0x00, 0x00, 0x00, 0x00, 0x00,
  0x00, 0x00, 0x00, 0x00, 0x00, 0x00, 0x00, 0x00,
  0x00, 0x00, 0x00, 0x00, 0x00, 0x00, 0x00, 0x00,
  0x00, 0x00, 0x00, 0x00, 0x00, 0x00, 0x00, 0x00,
  0x00, 0x00, 0x00, 0x00, 0x00, 0x00, 0x00, 0x00,
  0x00, 0x00, 0x00, 0x00, 0x00, 0x00, 0x00, 0x00,
  0x00, 0x00, 0x00, 0x00, 0x00, 0x00, 0x00, 0x00,
  0x00, 0x00, 0x00, 0x00, 0x00, 0x00, 0x00, 0x00,
  0x00, 0x00, 0x00, 0x00, 0x00, 0x00, 0x00, 0x00,
  0x00, 0x00, 0x00, 0x00, 0x00, 0x00, 0x00, 0x00,
  0x00, 0x00, 0x00, 0x00, 0x00, 0x00, 0x00, 0x00,
  0x00, 0x00, 0x00, 0x00, 0x00, 0x00, 0x00, 0x00,
  0x18, 0x00, 0x00, 0x00, 0x69, 0x99, 0x3e, 0x39,
  0x39, 0xb9, 0x1f, 0x39, 0x8f, 0x60, 0x2c, 0x39,
  0x6a, 0xbb, 0x34, 0x39, 0x71, 0x20, 0x25, 0x39,
  0x99, 0xbf, 0xa3, 0x39, 0xd9, 0x8b, 0x47, 0x39,
  0x7a, 0xbf, 0x49, 0x39, 0x78, 0xac, 0x66, 0x39,
  0xfa, 0x05, 0x82, 0x39, 0x97, 0x31, 0x93, 0x39,
  0x65, 0x1f, 0x89, 0x39, 0x55, 0x70, 0x5f, 0x39,
  0xcb, 0x7c, 0xc8, 0x39, 0x56, 0xc5, 0x3e, 0x39,
  0xc0, 0xdb, 0x6f, 0x39, 0x15, 0xe9, 0x42, 0x39,
  0x23, 0xfa, 0x94, 0x39, 0xd5, 0xe5, 0x54, 0x39,
  0x9d, 0x25, 0x9c, 0x39, 0x71, 0x3b, 0x68, 0x39,
  0x70, 0x01, 0x5e, 0x39, 0xab, 0x4a, 0x4d, 0x39,
  0x92, 0x6d, 0x8f, 0x39, 0x23, 0x00, 0x00, 0x00,
  0x6d, 0x6f, 0x64, 0x65, 0x6c, 0x2f, 0x63, 0x6f,
  0x6e, 0x76, 0x31, 0x64, 0x2f, 0x42, 0x69, 0x61,
  0x73, 0x41, 0x64, 0x64, 0x2f, 0x52, 0x65, 0x61,
  0x64, 0x56, 0x61, 0x72, 0x69, 0x61, 0x62, 0x6c,
  0x65, 0x4f, 0x70, 0x00, 0x01, 0x00, 0x00, 0x00,
  0x18, 0x00, 0x00, 0x00, 0xba, 0xf8, 0xff, 0xff,
  0x00, 0x00, 0x00, 0x01, 0x14, 0x00, 0x00, 0x00,
  0xa4, 0x01, 0x00, 0x00, 0x0d, 0x00, 0x00, 0x00,
  0x00, 0x00, 0x00, 0x09, 0xb4, 0x01, 0x00, 0x00,
  0x2c, 0xfa, 0xff, 0xff, 0x08, 0x00, 0x00, 0x00,
  0x08, 0x01, 0x00, 0x00, 0x20, 0x00, 0x00, 0x00,
  0x00, 0x00, 0x00, 0x00, 0x00, 0x00, 0x00, 0x00,
  0x00, 0x00, 0x00, 0x00, 0x00, 0x00, 0x00, 0x00,
  0x00, 0x00, 0x00, 0x00, 0x00, 0x00, 0x00, 0x00,
  0x00, 0x00, 0x00, 0x00, 0x00, 0x00, 0x00, 0x00,
  0x00, 0x00, 0x00, 0x00, 0x00, 0x00, 0x00, 0x00,
  0x00, 0x00, 0x00, 0x00, 0x00, 0x00, 0x00, 0x00,
  0x00, 0x00, 0x00, 0x00, 0x00, 0x00, 0x00, 0x00,
  0x00, 0x00, 0x00, 0x00, 0x00, 0x00, 0x00, 0x00,
  0x00, 0x00, 0x00, 0x00, 0x00, 0x00, 0x00, 0x00,
  0x00, 0x00, 0x00, 0x00, 0x00, 0x00, 0x00, 0x00,
  0x00, 0x00, 0x00, 0x00, 0x00, 0x00, 0x00, 0x00,
  0x00, 0x00, 0x00, 0x00, 0x00, 0x00, 0x00, 0x00,
  0x00, 0x00, 0x00, 0x00, 0x00, 0x00, 0x00, 0x00,
  0x00, 0x00, 0x00, 0x00, 0x00, 0x00, 0x00, 0x00,
  0x00, 0x00, 0x00, 0x00, 0x00, 0x00, 0x00, 0x00,
  0x00, 0x00, 0x00, 0x00, 0x00, 0x00, 0x00, 0x00,
  0x00, 0x00, 0x00, 0x00, 0x00, 0x00, 0x00, 0x00,
  0x00, 0x00, 0x00, 0x00, 0x00, 0x00, 0x00, 0x00,
  0x00, 0x00, 0x00, 0x00, 0x00, 0x00, 0x00, 0x00,
  0x00, 0x00, 0x00, 0x00, 0x00, 0x00, 0x00, 0x00,
  0x00, 0x00, 0x00, 0x00, 0x00, 0x00, 0x00, 0x00,
  0x00, 0x00, 0x00, 0x00, 0x00, 0x00, 0x00, 0x00,
  0x00, 0x00, 0x00, 0x00, 0x00, 0x00, 0x00, 0x00,
  0x00, 0x00, 0x00, 0x00, 0x00, 0x00, 0x00, 0x00,
  0x00, 0x00, 0x00, 0x00, 0x00, 0x00, 0x00, 0x00,
  0x00, 0x00, 0x00, 0x00, 0x00, 0x00, 0x00, 0x00,
  0x00, 0x00, 0x00, 0x00, 0x00, 0x00, 0x00, 0x00,
  0x00, 0x00, 0x00, 0x00, 0x00, 0x00, 0x00, 0x00,
  0x00, 0x00, 0x00, 0x00, 0x00, 0x00, 0x00, 0x00,
  0x00, 0x00, 0x00, 0x00, 0x00, 0x00, 0x00, 0x00,
  0x00, 0x00, 0x00, 0x00, 0x00, 0x00, 0x00, 0x00,
  0x00, 0x00, 0x00, 0x00, 0x00, 0x00, 0x00, 0x00,
  0x20, 0x00, 0x00, 0x00, 0x83, 0xba, 0xc6, 0x3b,
  0x97, 0x07, 0x82, 0x3b, 0xb1, 0xbc, 0x57, 0x3b,
  0xc3, 0xd0, 0x66, 0x3b, 0xc2, 0xb1, 0x9d, 0x3b,
  0xf8, 0xc1, 0x57, 0x3b, 0x30, 0xcb, 0x55, 0x3b,
  0xdc, 0xf5, 0x0e, 0x3b, 0xf0, 0x5d, 0x8b, 0x3b,
  0x90, 0x69, 0x3a, 0x3b, 0x1a, 0x69, 0x1f, 0x3b,
  0xcd, 0x2b, 0xe0, 0x3b, 0x89, 0x67, 0x48, 0x3b,
  0x4d, 0x3c, 0x48, 0x3b, 0x07, 0x70, 0x85, 0x3b,
  0x2c, 0xd7, 0x46, 0x3b, 0xeb, 0x83, 0x7f, 0x3b,
  0xf7, 0xdd, 0x73, 0x3b, 0x26, 0x46, 0x8e, 0x3b,
  0xea, 0xfe, 0x5b, 0x3b, 0xad, 0x73, 0x68, 0x3b,
  0xf2, 0xdb, 0x4d, 0x3b, 0xb3, 0x47, 0x82, 0x3b,
  0x3d, 0x1d, 0x52, 0x3b, 0x30, 0x08, 0x9c, 0x3b,
  0xac, 0x9e, 0x39, 0x3b, 0xc9, 0x3b, 0xb4, 0x3b,
  0xd6, 0xca, 0x82, 0x3b, 0x73, 0xc4, 0x19, 0x3b,
  0xb3, 0x46, 0xaf, 0x3b, 0x98, 0x20, 0x65, 0x3b,
  0xae, 0xa6, 0x23, 0x3b, 0x15, 0x00, 0x00, 0x00,
  0x6d, 0x6f, 0x64, 0x65, 0x6c, 0x2f, 0x63, 0x6f,
  0x6e, 0x76, 0x31, 0x64, 0x5f, 0x31, 0x2f, 0x43,
  0x6f, 0x6e, 0x76, 0x31, 0x44, 0x00, 0x00, 0x00,
  0x04, 0x00, 0x00, 0x00, 0x20, 0x00, 0x00, 0x00,
  0x01, 0x00, 0x00, 0x00, 0x05, 0x00, 0x00, 0x00,
  0x18, 0x00, 0x00, 0x00, 0x9a, 0xfa, 0xff, 0xff,
  0x00, 0x00, 0x00, 0x01, 0x14, 0x00, 0x00, 0x00,
  0xa8, 0x01, 0x00, 0x00, 0x0c, 0x00, 0x00, 0x00,
  0x00, 0x00, 0x00, 0x02, 0xc8, 0x01, 0x00, 0x00,
  0x0c, 0xfc, 0xff, 0xff, 0x08, 0x00, 0x00, 0x00,
  0x0c, 0x01, 0x00, 0x00, 0x20, 0x00, 0x00, 0x00,
  0x00, 0x00, 0x00, 0x00, 0x00, 0x00, 0x00, 0x00,
  0x00, 0x00, 0x00, 0x00, 0x00, 0x00, 0x00, 0x00,
  0x00, 0x00, 0x00, 0x00, 0x00, 0x00, 0x00, 0x00,
  0x00, 0x00, 0x00, 0x00, 0x00, 0x00, 0x00, 0x00,
  0x00, 0x00, 0x00, 0x00, 0x00, 0x00, 0x00, 0x00,
  0x00, 0x00, 0x00, 0x00, 0x00, 0x00, 0x00, 0x00,
  0x00, 0x00, 0x00, 0x00, 0x00, 0x00, 0x00, 0x00,
  0x00, 0x00, 0x00, 0x00, 0x00, 0x00, 0x00, 0x00,
  0x00, 0x00, 0x00, 0x00, 0x00, 0x00, 0x00, 0x00,
  0x00, 0x00, 0x00, 0x00, 0x00, 0x00, 0x00, 0x00,
  0x00, 0x00, 0x00, 0x00, 0x00, 0x00, 0x00, 0x00,
  0x00, 0x00, 0x00, 0x00, 0x00, 0x00, 0x00, 0x00,
  0x00, 0x00, 0x00, 0x00, 0x00, 0x00, 0x00, 0x00,
  0x00, 0x00, 0x00, 0x00, 0x00, 0x00, 0x00, 0x00,
  0x00, 0x00, 0x00, 0x00, 0x00, 0x00, 0x00, 0x00,
  0x00, 0x00, 0x00, 0x00, 0x00, 0x00, 0x00, 0x00,
  0x00, 0x00, 0x00, 0x00, 0x00, 0x00, 0x00, 0x00,
  0x00, 0x00, 0x00, 0x00, 0x00, 0x00, 0x00, 0x00,
  0x00, 0x00, 0x00, 0x00, 0x00, 0x00, 0x00, 0x00,
  0x00, 0x00, 0x00, 0x00, 0x00, 0x00, 0x00, 0x00,
  0x00, 0x00, 0x00, 0x00, 0x00, 0x00, 0x00, 0x00,
  0x00, 0x00, 0x00, 0x00, 0x00, 0x00, 0x00, 0x00,
  0x00, 0x00, 0x00, 0x00, 0x00, 0x00, 0x00, 0x00,
  0x00, 0x00, 0x00, 0x00, 0x00, 0x00, 0x00, 0x00,
  0x00, 0x00, 0x00, 0x00, 0x00, 0x00, 0x00, 0x00,
  0x00, 0x00, 0x00, 0x00, 0x00, 0x00, 0x00, 0x00,
  0x00, 0x00, 0x00, 0x00, 0x00, 0x00, 0x00, 0x00,
  0x00, 0x00, 0x00, 0x00, 0x00, 0x00, 0x00, 0x00,
  0x00, 0x00, 0x00, 0x00, 0x00, 0x00, 0x00, 0x00,
  0x00, 0x00, 0x00, 0x00, 0x00, 0x00, 0x00, 0x00,
  0x00, 0x00, 0x00, 0x00, 0x00, 0x00, 0x00, 0x00,
  0x00, 0x00, 0x00, 0x00, 0x00, 0x00, 0x00, 0x00,
  0x00, 0x00, 0x00, 0x00, 0x20, 0x00, 0x00, 0x00,
  0xfb, 0xe8, 0x4e, 0x39, 0x04, 0x62, 0x07, 0x39,
  0x6b, 0x9e, 0xe0, 0x38, 0x67, 0x51, 0xf0, 0x38,
  0xc0, 0x2f, 0x24, 0x39, 0xe9, 0xa3, 0xe0, 0x38,
  0x6e, 0x98, 0xde, 0x38, 0x91, 0xd8, 0x94, 0x38,
  0xc6, 0x1a, 0x11, 0x39, 0x3a, 0x16, 0xc2, 0x38,
  0x2f, 0xf9, 0xa5, 0x38, 0x6a, 0x66, 0x69, 0x39,
  0xaa, 0xa7, 0xd0, 0x38, 0xa7, 0x7a, 0xd0, 0x38,
  0x5f, 0xee, 0x0a, 0x39, 0xd2, 0x06, 0xcf, 0x38,
  0x71, 0x04, 0x05, 0x39, 0x29, 0xe8, 0xfd, 0x38,
  0x9f, 0x21, 0x14, 0x39, 0x86, 0x0d, 0xe5, 0x38,
  0x90, 0x05, 0xf2, 0x38, 0x90, 0x55, 0xd6, 0x38,
  0xc4, 0xa4, 0x07, 0x39, 0xb4, 0xc3, 0xda, 0x38,
  0xa9, 0x74, 0x22, 0x39, 0xfb, 0x42, 0xc1, 0x38,
  0x54, 0xa7, 0x3b, 0x39, 0x4d, 0x2d, 0x08, 0x39,
  0x0e, 0x19, 0xa0, 0x38, 0xfe, 0x7d, 0x36, 0x39,
  0x72, 0x8f, 0xee, 0x38, 0x74, 0x63, 0xaa, 0x38,
  0x25, 0x00, 0x00, 0x00, 0x6d, 0x6f, 0x64, 0x65,
  0x6c, 0x2f, 0x63, 0x6f, 0x6e, 0x76, 0x31, 0x64,
  0x5f, 0x31, 0x2f, 0x42, 0x69, 0x61, 0x73, 0x41,
  0x64, 0x64, 0x2f, 0x52, 0x65, 0x61, 0x64, 0x56,
  0x61, 0x72, 0x69, 0x61, 0x62, 0x6c, 0x65, 0x4f,
  0x70, 0x00, 0x00, 0x00, 0x01, 0x00, 0x00, 0x00,
  0x20, 0x00, 0x00, 0x00, 0x82, 0xfc, 0xff, 0xff,
  0x00, 0x00, 0x00, 0x01, 0x14, 0x00, 0x00, 0x00,
  0x30, 0x00, 0x00, 0x00, 0x0b, 0x00, 0x00, 0x00,
  0x00, 0x00, 0x00, 0x09, 0x3c, 0x00, 0x00, 0x00,
  0xf4, 0xfd, 0xff, 0xff, 0x08, 0x00, 0x00, 0x00,
  0x10, 0x00, 0x00, 0x00, 0x01, 0x00, 0x00, 0x00,
  0x00, 0x00, 0x00, 0x00, 0x00, 0x00, 0x00, 0x00,
  0x01, 0x00, 0x00, 0x00, 0xcc, 0xd0, 0xa7, 0x3b,
  0x12, 0x00, 0x00, 0x00, 0x6d, 0x6f, 0x64, 0x65,
  0x6c, 0x2f, 0x64, 0x65, 0x6e, 0x73, 0x65, 0x2f,
  0x4d, 0x61, 0x74, 0x4d, 0x75, 0x6c, 0x00, 0x00,
  0x02, 0x00, 0x00, 0x00, 0x20, 0x00, 0x00, 0x00,
  0x20, 0x00, 0x00, 0x00, 0xe2, 0xfc, 0xff, 0xff,
  0x00, 0x00, 0x00, 0x01, 0x14, 0x00, 0x00, 0x00,
  0x34, 0x00, 0x00, 0x00, 0x0a, 0x00, 0x00, 0x00,
  0x00, 0x00, 0x00, 0x02, 0x50, 0x00, 0x00, 0x00,
  0x54, 0xfe, 0xff, 0xff, 0x08, 0x00, 0x00, 0x00,
  0x14, 0x00, 0x00, 0x00, 0x01, 0x00, 0x00, 0x00,
  0x00, 0x00, 0x00, 0x00, 0x00, 0x00, 0x00, 0x00,
  0x00, 0x00, 0x00, 0x00, 0x01, 0x00, 0x00, 0x00,
  0x4e, 0x50, 0x94, 0x38, 0x22, 0x00, 0x00, 0x00,
  0x6d, 0x6f, 0x64, 0x65, 0x6c, 0x2f, 0x64, 0x65,
  0x6e, 0x73, 0x65, 0x2f, 0x42, 0x69, 0x61, 0x73,
  0x41, 0x64, 0x64, 0x2f, 0x52, 0x65, 0x61, 0x64,
  0x56, 0x61, 0x72, 0x69, 0x61, 0x62, 0x6c, 0x65,
  0x4f, 0x70, 0x00, 0x00, 0x01, 0x00, 0x00, 0x00,
  0x20, 0x00, 0x00, 0x00, 0x52, 0xfd, 0xff, 0xff,
  0x00, 0x00, 0x00, 0x01, 0x14, 0x00, 0x00, 0x00,
  0x34, 0x00, 0x00, 0x00, 0x09, 0x00, 0x00, 0x00,
  0x00, 0x00, 0x00, 0x09, 0x44, 0x00, 0x00, 0x00,
  0xc4, 0xfe, 0xff, 0xff, 0x08, 0x00, 0x00, 0x00,
  0x14, 0x00, 0x00, 0x00, 0x01, 0x00, 0x00, 0x00,
  0x00, 0x00, 0x00, 0x00, 0x00, 0x00, 0x00, 0x00,
  0x00, 0x00, 0x00, 0x00, 0x01, 0x00, 0x00, 0x00,
  0xd6, 0x66, 0xfa, 0x3b, 0x14, 0x00, 0x00, 0x00,
  0x6d, 0x6f, 0x64, 0x65, 0x6c, 0x2f, 0x64, 0x65,
  0x6e, 0x73, 0x65, 0x5f, 0x31, 0x2f, 0x4d, 0x61,
  0x74, 0x4d, 0x75, 0x6c, 0x00, 0x00, 0x00, 0x00,
  0x02, 0x00, 0x00, 0x00, 0x10, 0x00, 0x00, 0x00,
  0x20, 0x00, 0x00, 0x00, 0xba, 0xfd, 0xff, 0xff,
  0x00, 0x00, 0x00, 0x01, 0x14, 0x00, 0x00, 0x00,
  0x30, 0x00, 0x00, 0x00, 0x08, 0x00, 0x00, 0x00,
  0x00, 0x00, 0x00, 0x02, 0x50, 0x00, 0x00, 0x00,
  0x2c, 0xff, 0xff, 0xff, 0x08, 0x00, 0x00, 0x00,
  0x10, 0x00, 0x00, 0x00, 0x01, 0x00, 0x00, 0x00,
  0x00, 0x00, 0x00, 0x00, 0x00, 0x00, 0x00, 0x00,
  0x01, 0x00, 0x00, 0x00, 0x8c, 0x2c, 0x8d, 0x38,
  0x24, 0x00, 0x00, 0x00, 0x6d, 0x6f, 0x64, 0x65,
  0x6c, 0x2f, 0x64, 0x65, 0x6e, 0x73, 0x65, 0x5f,
  0x31, 0x2f, 0x42, 0x69, 0x61, 0x73, 0x41, 0x64,
  0x64, 0x2f, 0x52, 0x65, 0x61, 0x64, 0x56, 0x61,
  0x72, 0x69, 0x61, 0x62, 0x6c, 0x65, 0x4f, 0x70,
  0x00, 0x00, 0x00, 0x00, 0x01, 0x00, 0x00, 0x00,
  0x10, 0x00, 0x00, 0x00, 0x2a, 0xfe, 0xff, 0xff,
  0x00, 0x00, 0x00, 0x01, 0x14, 0x00, 0x00, 0x00,
  0x30, 0x00, 0x00, 0x00, 0x07, 0x00, 0x00, 0x00,
  0x00, 0x00, 0x00, 0x09, 0x40, 0x00, 0x00, 0x00,
  0x9c, 0xff, 0xff, 0xff, 0x08, 0x00, 0x00, 0x00,
  0x10, 0x00, 0x00, 0x00, 0x01, 0x00, 0x00, 0x00,
  0x00, 0x00, 0x00, 0x00, 0x00, 0x00, 0x00, 0x00,
  0x01, 0x00, 0x00, 0x00, 0x24, 0xee, 0xdb, 0x3b,
  0x14, 0x00, 0x00, 0x00, 0x6d, 0x6f, 0x64, 0x65,
  0x6c, 0x2f, 0x64, 0x65, 0x6e, 0x73, 0x65, 0x5f,
  0x32, 0x2f, 0x4d, 0x61, 0x74, 0x4d, 0x75, 0x6c,
  0x00, 0x00, 0x00, 0x00, 0x02, 0x00, 0x00, 0x00,
  0x02, 0x00, 0x00, 0x00, 0x10, 0x00, 0x00, 0x00,
  0x8e, 0xfe, 0xff, 0xff, 0x00, 0x00, 0x00, 0x01,
  0x20, 0x00, 0x00, 0x00, 0x3c, 0x00, 0x00, 0x00,
  0x06, 0x00, 0x00, 0x00, 0x00, 0x00, 0x00, 0x02,
  0x5c, 0x00, 0x00, 0x00, 0x0c, 0x00, 0x0c, 0x00,
  0x00, 0x00, 0x00, 0x00, 0x08, 0x00, 0x04, 0x00,
  0x0c, 0x00, 0x00, 0x00, 0x08, 0x00, 0x00, 0x00,
  0x10, 0x00, 0x00, 0x00, 0x01, 0x00, 0x00, 0x00,
  0x00, 0x00, 0x00, 0x00, 0x00, 0x00, 0x00, 0x00,
  0x01, 0x00, 0x00, 0x00, 0x3c, 0xda, 0x99, 0x39,
  0x24, 0x00, 0x00, 0x00, 0x6d, 0x6f, 0x64, 0x65,
  0x6c, 0x2f, 0x64, 0x65, 0x6e, 0x73, 0x65, 0x5f,
  0x32, 0x2f, 0x42, 0x69, 0x61, 0x73, 0x41, 0x64,
  0x64, 0x2f, 0x52, 0x65, 0x61, 0x64, 0x56, 0x61,
  0x72, 0x69, 0x61, 0x62, 0x6c, 0x65, 0x4f, 0x70,
  0x00, 0x00, 0x00, 0x00, 0x01, 0x00, 0x00, 0x00,
  0x02, 0x00, 0x00, 0x00, 0x0a, 0xff, 0xff, 0xff,
  0x00, 0x00, 0x00, 0x01, 0x14, 0x00, 0x00, 0x00,
  0x14, 0x00, 0x00, 0x00, 0x05, 0x00, 0x00, 0x00,
  0x00, 0x00, 0x00, 0x02, 0x44, 0x00, 0x00, 0x00,
  0x80, 0xfe, 0xff, 0xff, 0x35, 0x00, 0x00, 0x00,
  0x6d, 0x6f, 0x64, 0x65, 0x6c, 0x2f, 0x67, 0x6c,
  0x6f, 0x62, 0x61, 0x6c, 0x5f, 0x61, 0x76, 0x65,
  0x72, 0x61, 0x67, 0x65, 0x5f, 0x70, 0x6f, 0x6f,
  0x6c, 0x69, 0x6e, 0x67, 0x31, 0x64, 0x2f, 0x4d,
  0x65, 0x61, 0x6e, 0x2f, 0x72, 0x65, 0x64, 0x75,
  0x63, 0x74, 0x69, 0x6f, 0x6e, 0x5f, 0x69, 0x6e,
  0x64, 0x69, 0x63, 0x65, 0x73, 0x00, 0x00, 0x00,
  0x00, 0x00, 0x00, 0x00, 0x6a, 0xff, 0xff, 0xff,
  0x00, 0x00, 0x00, 0x01, 0x14, 0x00, 0x00, 0x00,
  0x14, 0x00, 0x00, 0x00, 0x04, 0x00, 0x00, 0x00,
  0x00, 0x00, 0x00, 0x02, 0x2c, 0x00, 0x00, 0x00,
  0xe0, 0xfe, 0xff, 0xff, 0x1d, 0x00, 0x00, 0x00,
  0x6d, 0x6f, 0x64, 0x65, 0x6c, 0x2f, 0x63, 0x6f,
  0x6e, 0x76, 0x31, 0x64, 0x5f, 0x31, 0x2f, 0x43,
  0x6f, 0x6e, 0x76, 0x31, 0x44, 0x2f, 0x53, 0x71,
  0x75, 0x65, 0x65, 0x7a, 0x65, 0x00, 0x00, 0x00,
  0x01, 0x00, 0x00, 0x00, 0x03, 0x00, 0x00, 0x00,
  0xb6, 0xff, 0xff, 0xff, 0x00, 0x00, 0x00, 0x01,
  0x14, 0x00, 0x00, 0x00, 0x14, 0x00, 0x00, 0x00,
  0x03, 0x00, 0x00, 0x00, 0x00, 0x00, 0x00, 0x02,
  0x28, 0x00, 0x00, 0x00, 0x2c, 0xff, 0xff, 0xff,
  0x1b, 0x00, 0x00, 0x00, 0x6d, 0x6f, 0x64, 0x65,
  0x6c, 0x2f, 0x63, 0x6f, 0x6e, 0x76, 0x31, 0x64,
  0x2f, 0x43, 0x6f, 0x6e, 0x76, 0x31, 0x44, 0x2f,
  0x53, 0x71, 0x75, 0x65, 0x65, 0x7a, 0x65, 0x00,
  0x01, 0x00, 0x00, 0x00, 0x03, 0x00, 0x00, 0x00,
  0x00, 0x00, 0x16, 0x00, 0x1c, 0x00, 0x18, 0x00,
  0x17, 0x00, 0x10, 0x00, 0x0c, 0x00, 0x08, 0x00,
  0x00, 0x00, 0x00, 0x00, 0x00, 0x00, 0x07, 0x00,
  0x16, 0x00, 0x00, 0x00, 0x00, 0x00, 0x00, 0x01,
  0x14, 0x00, 0x00, 0x00, 0x14, 0x00, 0x00, 0x00,
  0x02, 0x00, 0x00, 0x00, 0x00, 0x00, 0x00, 0x02,
  0x30, 0x00, 0x00, 0x00, 0x8c, 0xff, 0xff, 0xff,
  0x22, 0x00, 0x00, 0x00, 0x6d, 0x6f, 0x64, 0x65,
  0x6c, 0x2f, 0x63, 0x6f, 0x6e, 0x76, 0x31, 0x64,
  0x2f, 0x43, 0x6f, 0x6e, 0x76, 0x31, 0x44, 0x2f,
  0x45, 0x78, 0x70, 0x61, 0x6e, 0x64, 0x44, 0x69,
  0x6d, 0x73, 0x2f, 0x64, 0x69, 0x6d, 0x00, 0x00,
  0x00, 0x00, 0x00, 0x00, 0x00, 0x00, 0x16, 0x00,
  0x1c, 0x00, 0x18, 0x00, 0x00, 0x00, 0x14, 0x00,
  0x10, 0x00, 0x0c, 0x00, 0x00, 0x00, 0x00, 0x00,
  0x08, 0x00, 0x07, 0x00, 0x16, 0x00, 0x00, 0x00,
  0x00, 0x00, 0x00, 0x01, 0x14, 0x00, 0x00, 0x00,
  0x24, 0x00, 0x00, 0x00, 0x24, 0x00, 0x00, 0x00,
  0x01, 0x00, 0x00, 0x00, 0x3c, 0x00, 0x00, 0x00,
  0x03, 0x00, 0x00, 0x00, 0xff, 0xff, 0xff, 0xff,
  0x41, 0x00, 0x00, 0x00, 0x06, 0x00, 0x00, 0x00,
  0x04, 0x00, 0x04, 0x00, 0x04, 0x00, 0x00, 0x00,
  0x19, 0x00, 0x00, 0x00, 0x73, 0x65, 0x72, 0x76,
  0x69, 0x6e, 0x67, 0x5f, 0x64, 0x65, 0x66, 0x61,
  0x75, 0x6c, 0x74, 0x5f, 0x69, 0x6e, 0x70, 0x75,
  0x74, 0x5f, 0x31, 0x3a, 0x30, 0x00, 0x00, 0x00,
  0x03, 0x00, 0x00, 0x00, 0x01, 0x00, 0x00, 0x00,
  0x41, 0x00, 0x00, 0x00, 0x06, 0x00, 0x00, 0x00,
  0x08, 0x00, 0x00, 0x00, 0xa0, 0x00, 0x00, 0x00,
  0x84, 0x00, 0x00, 0x00, 0x70, 0x00, 0x00, 0x00,
  0x54, 0x00, 0x00, 0x00, 0x40, 0x00, 0x00, 0x00,
  0x2c, 0x00, 0x00, 0x00, 0x18, 0x00, 0x00, 0x00,
  0x04, 0x00, 0x00, 0x00, 0xb4, 0xff, 0xff, 0xff,
  0x06, 0x00, 0x00, 0x00, 0x02, 0x00, 0x00, 0x00,
  0x00, 0x00, 0x00, 0x06, 0xc4, 0xff, 0xff, 0xff,
  0x19, 0x00, 0x00, 0x00, 0x02, 0x00, 0x00, 0x00,
  0x00, 0x00, 0x00, 0x19, 0xd4, 0xff, 0xff, 0xff,
  0x09, 0x00, 0x00, 0x00, 0x04, 0x00, 0x00, 0x00,
  0x00, 0x00, 0x00, 0x09, 0xe4, 0xff, 0xff, 0xff,
  0x28, 0x00, 0x00, 0x00, 0x02, 0x00, 0x00, 0x00,
  0x00, 0x00, 0x00, 0x28, 0xcc, 0xff, 0xff, 0xff,
  0x16, 0x00, 0x00, 0x00, 0x00, 0x00, 0x00, 0x16,
  0x0c, 0x00, 0x10, 0x00, 0x0f, 0x00, 0x00, 0x00,
  0x08, 0x00, 0x04, 0x00, 0x0c, 0x00, 0x00, 0x00,
  0x03, 0x00, 0x00, 0x00, 0x03, 0x00, 0x00, 0x00,
  0x00, 0x00, 0x00, 0x03, 0xf4, 0xff, 0xff, 0xff,
  0x46, 0x00, 0x00, 0x00, 0x00, 0x00, 0x00, 0x46,
  0x0c, 0x00, 0x0c, 0x00, 0x0b, 0x00, 0x00, 0x00,
  0x00, 0x00, 0x04, 0x00, 0x0c, 0x00, 0x00, 0x00,
  0x72, 0x00, 0x00, 0x00, 0x00, 0x00, 0x00, 0x72
};
const unsigned int model_25hz_tflite_len = 13416;

#endif
