#ifndef MODEL_25HZ_H
#define MODEL_25HZ_H

const unsigned char model_25hz_tflite[] = {
  0x1c, 0x00, 0x00, 0x00, 0x54, 0x46, 0x4c, 0x33,
  0x14, 0x00, 0x20, 0x00, 0x1c, 0x00, 0x18, 0x00,
  0x14, 0x00, 0x10, 0x00, 0x0c, 0x00, 0x00, 0x00,
  0x08, 0x00, 0x04, 0x00, 0x14, 0x00, 0x00, 0x00,
  0x1c, 0x00, 0x00, 0x00, 0x80, 0x00, 0x00, 0x00,
  0xd8, 0x00, 0x00, 0x00, 0x70, 0x1c, 0x00, 0x00,
  0x80, 0x1c, 0x00, 0x00, 0x84, 0x33, 0x00, 0x00,
  0x03, 0x00, 0x00, 0x00, 0x01, 0x00, 0x00, 0x00,
  0x04, 0x00, 0x00, 0x00, 0x56, 0xe1, 0xff, 0xff,
  0x0c, 0x00, 0x00, 0x00, 0x1c, 0x00, 0x00, 0x00,
  0x38, 0x00, 0x00, 0x00, 0x0f, 0x00, 0x00, 0x00,
  0x73, 0x65, 0x72, 0x76, 0x69, 0x6e, 0x67, 0x5f,
  0x64, 0x65, 0x66, 0x61, 0x75, 0x6c, 0x74, 0x00,
  0x01, 0x00, 0x00, 0x00, 0x04, 0x00, 0x00, 0x00,
  0x9c, 0xff, 0xff, 0xff, 0x1b, 0x00, 0x00, 0x00,
  0x04, 0x00, 0x00, 0x00, 0x07, 0x00, 0x00, 0x00,
  0x64, 0x65, 0x6e, 0x73, 0x65, 0x5f, 0x32, 0x00,
  0x01, 0x00, 0x00, 0x00, 0x04, 0x00, 0x00, 0x00,
  0x32, 0xe3, 0xff, 0xff, 0x04, 0x00, 0x00, 0x00,
  0x07, 0x00, 0x00, 0x00, 0x69, 0x6e, 0x70, 0x75,
  0x74, 0x5f, 0x31, 0x00, 0x02, 0x00, 0x00, 0x00,
  0x34, 0x00, 0x00, 0x00, 0x04, 0x00, 0x00, 0x00,
  0xdc, 0xff, 0xff, 0xff, 0x1e, 0x00, 0x00, 0x00,
  0x04, 0x00, 0x00, 0x00, 0x13, 0x00, 0x00, 0x00,
  0x43, 0x4f, 0x4e, 0x56, 0x45, 0x52, 0x53, 0x49,
  0x4f, 0x4e, 0x5f, 0x4d, 0x45, 0x54, 0x41, 0x44,
  0x41, 0x54, 0x41, 0x00, 0x08, 0x00, 0x0c, 0x00,
  0x08, 0x00, 0x04, 0x00, 0x08, 0x00, 0x00, 0x00,
  0x1d, 0x00, 0x00, 0x00, 0x04, 0x00, 0x00, 0x00,
  0x13, 0x00, 0x00, 0x00, 0x6d, 0x69, 0x6e, 0x5f,
  0x72, 0x75, 0x6e, 0x74, 0x69, 0x6d, 0x65, 0x5f,
  0x76, 0x65, 0x72, 0x73, 0x69, 0x6f, 0x6e, 0x00,
  0x1f, 0x00, 0x00, 0x00, 0x94, 0x1b, 0x00, 0x00,
  0x8c, 0x1b, 0x00, 0x00, 0x78, 0x1b, 0x00, 0x00,
  0x5c, 0x1b, 0x00, 0x00, 0x40, 0x1b, 0x00, 0x00,
  0x2c, 0x1b, 0x00, 0x00, 0x14, 0x1b, 0x00, 0x00,
  0xe4, 0x1a, 0x00, 0x00, 0x94, 0x1a, 0x00, 0x00,
  0x84, 0x18, 0x00, 0x00, 0xf4, 0x17, 0x00, 0x00,
  0xe4, 0x13, 0x00, 0x00, 0x54, 0x13, 0x00, 0x00,
  0x44, 0x04, 0x00, 0x00, 0xd4, 0x03, 0x00, 0x00,
  0xf4, 0x00, 0x00, 0x00, 0xec, 0x00, 0x00, 0x00,
  0xe4, 0x00, 0x00, 0x00, 0xdc, 0x00, 0x00, 0x00,
  0xd4, 0x00, 0x00, 0x00, 0xcc, 0x00, 0x00, 0x00,
  0xc4, 0x00, 0x00, 0x00, 0xbc, 0x00, 0x00, 0x00,
  0xb4, 0x00, 0x00, 0x00, 0xac, 0x00, 0x00, 0x00,
  0xa4, 0x00, 0x00, 0x00, 0x9c, 0x00, 0x00, 0x00,
  0x94, 0x00, 0x00, 0x00, 0x8c, 0x00, 0x00, 0x00,
  0x6c, 0x00, 0x00, 0x00, 0x04, 0x00, 0x00, 0x00,
  0x22, 0xe4, 0xff, 0xff, 0x04, 0x00, 0x00, 0x00,
  0x58, 0x00, 0x00, 0x00, 0x0c, 0x00, 0x00, 0x00,
  0x08, 0x00, 0x0e, 0x00, 0x08, 0x00, 0x04, 0x00,
  0x08, 0x00, 0x00, 0x00, 0x10, 0x00, 0x00, 0x00,
  0x28, 0x00, 0x00, 0x00, 0x00, 0x00, 0x06, 0x00,
  0x08, 0x00, 0x04, 0x00, 0x06, 0x00, 0x00, 0x00,
  0x04, 0x00, 0x00, 0x00, 0x01, 0x00, 0x00, 0x00,
  0xeb, 0x03, 0x00, 0x00, 0x00, 0x00, 0x0a, 0x00,
  0x10, 0x00, 0x0c, 0x00, 0x08, 0x00, 0x04, 0x00,
  0x0a, 0x00, 0x00, 0x00, 0x02, 0x00, 0x00, 0x00,
  0x02, 0x00, 0x00, 0x00, 0x04, 0x00, 0x00, 0x00,
  0x06, 0x00, 0x00, 0x00, 0x32, 0x2e, 0x31, 0x30,
  0x2e, 0x30, 0x00, 0x00, 0x86, 0xe4, 0xff, 0xff,
  0x04, 0x00, 0x00, 0x00, 0x10, 0x00, 0x00, 0x00,
  0x31, 0x2e, 0x31, 0x34, 0x2e, 0x30, 0x00, 0x00,
  0x00, 0x00, 0x00, 0x00, 0x00, 0x00, 0x00, 0x00,
  0x80, 0xce, 0xff, 0xff, 0x84, 0xce, 0xff, 0xff,
  0x88, 0xce, 0xff, 0xff, 0x8c, 0xce, 0xff, 0xff,
  0x90, 0xce, 0xff, 0xff, 0x94, 0xce, 0xff, 0xff,
  0x98, 0xce, 0xff, 0xff, 0x9c, 0xce, 0xff, 0xff,
  0xa0, 0xce, 0xff, 0xff, 0xa4, 0xce, 0xff, 0xff,
  0xa8, 0xce, 0xff, 0xff, 0xac, 0xce, 0xff, 0xff,
  0xb0, 0xce, 0xff, 0xff, 0xd6, 0xe4, 0xff, 0xff,
  0x04, 0x00, 0x00, 0x00, 0xd0, 0x02, 0x00, 0x00,
  0xc9, 0x3d, 0x7f, 0x17, 0x34, 0x05, 0x9a, 0xee,
  0x9e, 0x04, 0x53, 0x09, 0xec, 0xd8, 0xf7, 0xea,
  0x3a, 0xf4, 0xc0, 0x22, 0x5b, 0x01, 0xde, 0xfd,
  0x67, 0xd6, 0x6d, 0x21, 0xc5, 0x02, 0x04, 0x81,
  0x04, 0x1f, 0xfb, 0xb6, 0x07, 0x8d, 0x26, 0xcc,
  0x0d, 0xe2, 0x33, 0xef, 0xe1, 0x61, 0x0e, 0xc4,
  0xf7, 0xb0, 0x4e, 0x30, 0x2b, 0xed, 0xf6, 0x9e,
  0x6e, 0xfb, 0x19, 0x13, 0x4f, 0x46, 0x03, 0x7e,
  0x9d, 0xb5, 0x21, 0x53, 0xd2, 0x2a, 0xc0, 0xe1,
  0x2a, 0xeb, 0x36, 0x75, 0xba, 0xa7, 0xda, 0x48,
  0x62, 0xf1, 0xc2, 0x0d, 0xdf, 0x09, 0x57, 0x7f,
  0xc5, 0x93, 0x1e, 0x15, 0x2c, 0x01, 0x25, 0xac,
  0x5e, 0x1f, 0x76, 0x3b, 0xfb, 0x51, 0x26, 0x0f,
  0x58, 0xfe, 0x1d, 0x5e, 0x30, 0x7f, 0xf4, 0xc8,
  0x3e, 0x5d, 0x57, 0x3b, 0x46, 0x26, 0xfe, 0xe3,
  0xdc, 0x10, 0x16, 0x11, 0x7f, 0x17, 0x15, 0xd1,
  0xca, 0x12, 0x60, 0xe2, 0xfe, 0xe3, 0xdb, 0xf3,
  0x3f, 0xe0, 0x28, 0x16, 0x18, 0xe7, 0x75, 0xc8,
  0x13, 0x3f, 0x0c, 0x0c, 0x5a, 0x37, 0xba, 0x30,
  0xb4, 0xd8, 0xcb, 0x02, 0xe2, 0x0d, 0x6f, 0x3d,
  0x9f, 0x17, 0xb8, 0x81, 0x05, 0x37, 0x28, 0xe5,
  0xf1, 0x97, 0xd8, 0xf9, 0x57, 0x08, 0xb2, 0x4d,
  0xe2, 0xad, 0xb4, 0x10, 0x37, 0xf9, 0xc5, 0x38,
  0x99, 0xf4, 0x7a, 0x07, 0x23, 0x01, 0x42, 0x0c,
  0xad, 0x1f, 0x30, 0xda, 0xfe, 0xff, 0xa6, 0xa7,
  0x81, 0xd8, 0x02, 0x0a, 0xb7, 0x20, 0x43, 0xef,
  0x36, 0x02, 0x37, 0x23, 0xf3, 0x05, 0x19, 0x05,
  0xfc, 0xfd, 0xb9, 0x12, 0xd9, 0x05, 0xe5, 0xce,
  0x0a, 0x3b, 0xcd, 0x02, 0xfd, 0x04, 0x06, 0x18,
  0x34, 0xfa, 0x3a, 0xfe, 0x9c, 0xd1, 0x7f, 0x0a,
  0x4b, 0xef, 0xd1, 0x40, 0x2f, 0x03, 0xcc, 0x4e,
  0x1b, 0x06, 0x7f, 0xef, 0xc8, 0xda, 0x97, 0x06,
  0x16, 0xf7, 0xf9, 0xd5, 0x1a, 0x18, 0xec, 0x07,
  0x58, 0xfa, 0xc1, 0xf7, 0xfb, 0x06, 0xd2, 0x7e,
  0x2a, 0xe0, 0xdf, 0x90, 0xc0, 0x7f, 0x15, 0xe6,
  0xdd, 0xa3, 0xe0, 0x5a, 0x65, 0x2e, 0xe8, 0xc5,
  0xe4, 0x0a, 0x6c, 0xff, 0x05, 0x9f, 0xa5, 0x70,
  0x14, 0x26, 0x2b, 0x91, 0x15, 0xb2, 0x79, 0xc3,
  0xf4, 0x0f, 0xfd, 0xd3, 0x2e, 0xfc, 0x0e, 0x05,
  0x0a, 0x3d, 0xf0, 0x29, 0xd2, 0x39, 0xfc, 0x04,
  0x81, 0x4b, 0xf3, 0x45, 0xe3, 0x55, 0x16, 0xc1,
  0x29, 0x07, 0xe1, 0xe3, 0x7f, 0x19, 0x11, 0xed,
  0x01, 0x03, 0x76, 0xf1, 0x20, 0xe6, 0x00, 0x20,
  0x66, 0x03, 0xe3, 0xd1, 0x07, 0x4c, 0x36, 0xd3,
  0xfc, 0xc1, 0xf0, 0xf9, 0x25, 0xe0, 0x20, 0xda,
  0xdd, 0x2a, 0x25, 0x0a, 0x5d, 0x03, 0x26, 0xbe,
  0xbc, 0x05, 0xe1, 0xfd, 0xc5, 0x14, 0xd1, 0x27,
  0xa7, 0x08, 0x1d, 0xd5, 0x7f, 0xbc, 0x23, 0x02,
  0x1c, 0x27, 0xca, 0x03, 0x1b, 0x09, 0x31, 0x10,
  0xfe, 0x03, 0x0f, 0xdc, 0x57, 0x1e, 0x2f, 0x0a,
  0x44, 0xe4, 0xea, 0xef, 0x47, 0xf4, 0x2b, 0xff,
  0xee, 0x13, 0x1d, 0x0e, 0xfd, 0xf7, 0x7f, 0xbe,
  0x3d, 0xfc, 0x13, 0xdc, 0xe2, 0x81, 0xf7, 0xff,
  0x2f, 0xcd, 0x35, 0x06, 0xdc, 0x2d, 0xe7, 0xc3,
  0xdd, 0xa2, 0x3b, 0x0e, 0x13, 0xdd, 0x18, 0x91,
  0x32, 0xf8, 0x2c, 0x86, 0x24, 0xa1, 0x1c, 0xd5,
  0x22, 0xe0, 0xf8, 0x10, 0xd9, 0x7f, 0x2c, 0xe7,
  0xee, 0x4b, 0xf9, 0x52, 0x02, 0x06, 0x13, 0x1e,
  0x60, 0xb4, 0xfb, 0xe7, 0x5a, 0x9d, 0x0d, 0xe7,
  0x00, 0xff, 0xd0, 0xfa, 0xd9, 0xb1, 0xc4, 0xf1,
  0xe1, 0xd7, 0x55, 0xe7, 0xa9, 0xf5, 0xd6, 0x42,
  0x6b, 0xed, 0xe5, 0xf9, 0x23, 0xd1, 0x53, 0xc9,
  0xf6, 0xf9, 0xed, 0x31, 0x7f, 0xdd, 0xe4, 0xf3,
  0x34, 0xd6, 0x37, 0xc3, 0x29, 0xef, 0xbe, 0x19,
  0x28, 0x14, 0x5e, 0xf5, 0x1a, 0x2a, 0xe1, 0xe4,
  0x75, 0xfb, 0x0b, 0x23, 0xc5, 0x34, 0x19, 0xc8,
  0x5c, 0xc8, 0xb3, 0xf2, 0xf6, 0xeb, 0x4a, 0x23,
  0xfe, 0x29, 0x81, 0xea, 0x69, 0x10, 0x60, 0xe6,
  0x18, 0xdb, 0x7f, 0xa3, 0x63, 0xf5, 0x37, 0x2b,
  0x5f, 0x1d, 0x6c, 0xd7, 0xdc, 0x28, 0x13, 0xe9,
  0x00, 0x0a, 0x0e, 0xbc, 0x20, 0x07, 0x58, 0x34,
  0xdf, 0x29, 0x37, 0xbe, 0xc9, 0x0f, 0xf8, 0xc7,
  0xde, 0x1c, 0x31, 0x47, 0xca, 0xda, 0x21, 0x05,
  0x81, 0x62, 0x89, 0xd9, 0x64, 0xdf, 0x84, 0xda,
  0xaf, 0xeb, 0x1f, 0xbd, 0x1a, 0x17, 0xda, 0x0a,
  0x18, 0x4e, 0x2a, 0x81, 0x2f, 0x16, 0xc4, 0x3f,
  0x13, 0xed, 0x26, 0x05, 0x23, 0xdc, 0x68, 0xe1,
  0x26, 0x9a, 0xef, 0x3a, 0x48, 0xed, 0x45, 0x20,
  0xf5, 0xf1, 0x37, 0xc4, 0x0d, 0xcc, 0x2b, 0xcf,
  0x77, 0xf6, 0xd2, 0xe1, 0xbc, 0xd9, 0x26, 0xc6,
  0x2f, 0xe8, 0x60, 0xb3, 0x45, 0xe5, 0xdd, 0xfe,
  0xc1, 0x41, 0x8b, 0x1f, 0x0c, 0xe7, 0x02, 0x7f,
  0x99, 0x19, 0x20, 0xeb, 0xf6, 0xd4, 0x03, 0x45,
  0x3f, 0xf2, 0xee, 0x25, 0xa2, 0x42, 0xc5, 0xfe,
  0x56, 0x9a, 0xe3, 0xdc, 0xa0, 0xf9, 0x55, 0x34,
  0x47, 0xd0, 0x7f, 0xfe, 0x93, 0xd3, 0xec, 0xa9,
  0xdf, 0xda, 0x00, 0xd9, 0x3c, 0xf6, 0xf0, 0x20,
  0x6f, 0xa9, 0x33, 0xf6, 0xd0, 0x2a, 0xf0, 0xea,
  0x14, 0xb5, 0x31, 0xb8, 0x23, 0xd1, 0x35, 0xd9,
  0xe5, 0x9b, 0x2c, 0xa0, 0xb0, 0x81, 0xfe, 0x34,
  0xb2, 0xe7, 0xff, 0xff, 0x04, 0x00, 0x00, 0x00,
  0x60, 0x00, 0x00, 0x00, 0x9e, 0xf3, 0xff, 0xff,
  0xfe, 0xfb, 0xff, 0xff, 0x26, 0xfd, 0xff, 0xff,
  0x09, 0x01, 0x00, 0x00, 0xca, 0x00, 0x00, 0x00,
  0xff, 0xfd, 0xff, 0xff, 0x2a, 0xf1, 0xff, 0xff,
  0xbe, 0xfc, 0xff, 0xff, 0xe0, 0xfa, 0xff, 0xff,
  0x9d, 0xff, 0xff, 0xff, 0xc7, 0x00, 0x00, 0x00,
  0x7c, 0xfb, 0xff, 0xff, 0x69, 0xf9, 0xff, 0xff,
  0xce, 0xfa, 0xff, 0xff, 0x11, 0xfb, 0xff, 0xff,
  0xb9, 0xf9, 0xff, 0xff, 0xc3, 0xf8, 0xff, 0xff,
  0xd5, 0xfa, 0xff, 0xff, 0xa4, 0xfe, 0xff, 0xff,
  0xb6, 0xf9, 0xff, 0xff, 0x37, 0xfd, 0xff, 0xff,
  0xad, 0xfa, 0xff, 0xff, 0xb4, 0xf6, 0xff, 0xff,
  0x37, 0xff, 0xff, 0xff, 0x1e, 0xe8, 0xff, 0xff,
  0x04, 0x00, 0x00, 0x00, 0x00, 0x0f, 0x00, 0x00,
  0x17, 0x01, 0x21, 0x06, 0x96, 0x35, 0x40, 0xca,
  0x2a, 0xf9, 0x01, 0xd2, 0x49, 0xd1, 0xb4, 0xaa,
  0xdb, 0xd7, 0x0c, 0xca, 0xb0, 0xfb, 0x1f, 0xf8,
  0x2c, 0xcb, 0xce, 0x05, 0xd8, 0x1f, 0x42, 0x20,
  0x3c, 0xca, 0x50, 0xea, 0x5c, 0xd4, 0xcb, 0xff,
  0xb0, 0xb6, 0x2e, 0xf3, 0xb1, 0xf4, 0x40, 0xc8,
  0x19, 0xca, 0x08, 0x0a, 0xc4, 0x16, 0x6f, 0x1f,
  0x14, 0xff, 0x18, 0x06, 0x56, 0xdb, 0x0b, 0xfd,
  0xbf, 0xe4, 0xfc, 0xfd, 0x11, 0x53, 0x5c, 0xad,
  0x37, 0xfc, 0xf6, 0x08, 0xb8, 0x35, 0x2b, 0x3d,
  0x58, 0x03, 0x3d, 0xf0, 0x23, 0x30, 0x13, 0xbf,
  0xec, 0xb3, 0x37, 0x1c, 0x0c, 0x2d, 0x3c, 0xa8,
  0x2a, 0x81, 0xd2, 0xd9, 0xdc, 0x2a, 0x1f, 0xda,
  0xf4, 0xd9, 0x19, 0xcb, 0x58, 0xe3, 0x12, 0xc4,
  0xc0, 0x0a, 0x23, 0x24, 0x17, 0x40, 0xf8, 0x8f,
  0xd1, 0xad, 0xdc, 0x21, 0x16, 0xd5, 0xc8, 0xdc,
  0x0d, 0x16, 0xb0, 0xf6, 0x0c, 0x81, 0x03, 0x22,
  0xe3, 0x0f, 0xa3, 0xe9, 0xee, 0x0b, 0xdb, 0xd8,
  0xc6, 0xe4, 0x10, 0xe7, 0xf2, 0xcb, 0xdc, 0x24,
  0xf3, 0x2e, 0xb6, 0xe9, 0xde, 0xa1, 0xda, 0x05,
  0xe1, 0x12, 0x02, 0x17, 0xff, 0xeb, 0xe6, 0xbe,
  0xfb, 0xf5, 0x03, 0xef, 0xf7, 0xf1, 0xc9, 0x02,
  0xf8, 0x12, 0xd3, 0xfb, 0xf5, 0xd0, 0xef, 0xd2,
  0x0d, 0xfd, 0xc5, 0x00, 0xec, 0xf9, 0xb5, 0xc3,
  0xd6, 0x0c, 0x1f, 0x3c, 0x0f, 0xd9, 0xdf, 0xe9,
  0xac, 0x09, 0x07, 0x13, 0x0e, 0xe4, 0x04, 0x44,
  0x0b, 0xca, 0x14, 0xfa, 0x1f, 0xef, 0xd1, 0xc5,
  0x1f, 0xe1, 0x02, 0x35, 0x0f, 0xf3, 0xab, 0xc6,
  0xc7, 0x21, 0x02, 0x40, 0xda, 0x36, 0x16, 0x32,
  0x36, 0xe9, 0x1a, 0xf2, 0x25, 0xf9, 0xac, 0xfd,
  0x1e, 0xd2, 0xf2, 0x90, 0xd6, 0x0a, 0x56, 0x10,
  0x11, 0xdf, 0x15, 0xc0, 0x29, 0x0d, 0xdd, 0x06,
  0xe1, 0x17, 0xad, 0x2c, 0x12, 0x24, 0x06, 0x04,
  0x25, 0xc7, 0xe3, 0xab, 0x13, 0xfb, 0x6a, 0x02,
  0xff, 0xf1, 0x2d, 0xf8, 0x66, 0x21, 0xf8, 0x35,
  0xe2, 0x36, 0xc7, 0x10, 0xde, 0x50, 0x18, 0xfc,
  0x17, 0xdc, 0xd5, 0xaa, 0x0f, 0x2c, 0x51, 0x29,
  0x07, 0xd3, 0x29, 0xff, 0x65, 0x07, 0xe2, 0x15,
  0xf0, 0x07, 0xbe, 0x16, 0xe1, 0x24, 0x40, 0x08,
  0x1b, 0xc2, 0xf6, 0xbf, 0x16, 0x13, 0x28, 0x3d,
  0x02, 0xde, 0x21, 0xfe, 0x7f, 0xdf, 0xf2, 0x3b,
  0x09, 0x36, 0xd5, 0x00, 0xf1, 0x50, 0x0c, 0x0e,
  0x27, 0xab, 0xe5, 0xef, 0xe3, 0x02, 0x1e, 0x25,
  0x40, 0xeb, 0x42, 0xd2, 0x36, 0xe5, 0xf2, 0x4c,
  0x10, 0x12, 0xbb, 0x39, 0x09, 0x39, 0x40, 0x15,
  0x32, 0xe8, 0xda, 0xce, 0xe5, 0x0a, 0x30, 0x14,
  0xcc, 0x2d, 0xd5, 0x09, 0x55, 0xde, 0xc2, 0xdc,
  0xfd, 0xf0, 0x9d, 0xc0, 0x03, 0x05, 0x1e, 0xcf,
  0x26, 0x19, 0xd7, 0xb2, 0xd1, 0xed, 0x3f, 0xf0,
  0xcd, 0x08, 0x2d, 0x18, 0x4d, 0x1f, 0xe2, 0xe3,
  0xe7, 0x04, 0xb3, 0x0d, 0xe0, 0xea, 0x20, 0xf2,
  0x3b, 0xfc, 0xbb, 0xc4, 0xe0, 0x1f, 0x46, 0xe7,
  0x2b, 0x0c, 0xe0, 0xeb, 0x2f, 0x04, 0x00, 0xe8,
  0x0e, 0x28, 0xbf, 0x1b, 0xdf, 0x40, 0x04, 0xe0,
  0x13, 0xed, 0xd1, 0xd1, 0x10, 0x01, 0x1b, 0xda,
  0xef, 0x28, 0x5d, 0x1f, 0x07, 0xf5, 0xfc, 0x41,
  0xf3, 0x1b, 0x8b, 0xf9, 0x06, 0xde, 0xe6, 0xb2,
  0x37, 0x09, 0xdc, 0xe0, 0x05, 0xe1, 0xf6, 0x3b,
  0xd5, 0x0a, 0xe8, 0xea, 0x7f, 0xf0, 0xf6, 0xfd,
  0x0c, 0x1a, 0xca, 0xe2, 0xf8, 0x03, 0x34, 0xef,
  0xb4, 0xc1, 0x09, 0xe0, 0x15, 0xdd, 0xb0, 0x00,
  0xe8, 0xc8, 0x0c, 0x0e, 0xea, 0xce, 0xf9, 0x0e,
  0xd0, 0xec, 0xeb, 0xd1, 0x1c, 0x28, 0xc0, 0xf5,
  0xb8, 0x2f, 0xf8, 0xb2, 0x10, 0xb9, 0xe6, 0x1a,
  0xf0, 0xa9, 0x1c, 0xbf, 0xca, 0xa5, 0xec, 0x1a,
  0xd1, 0x18, 0xcd, 0xf4, 0x19, 0x13, 0xd3, 0xc7,
  0xd1, 0xec, 0x0e, 0xda, 0x25, 0xf1, 0xc5, 0xf9,
  0xee, 0x07, 0xdf, 0xc9, 0x81, 0x17, 0xe1, 0x09,
  0xdc, 0xc7, 0xde, 0x16, 0xff, 0x1b, 0xb7, 0xf1,
  0x15, 0xf4, 0xfa, 0x25, 0xef, 0xbe, 0xa7, 0x00,
  0xce, 0xff, 0xfc, 0x05, 0xc0, 0x0d, 0xe7, 0x5b,
  0x3e, 0xcd, 0x27, 0xc2, 0xcf, 0xbf, 0xe9, 0xc4,
  0x02, 0x00, 0x2c, 0xec, 0x03, 0xe3, 0xf7, 0xfc,
  0xfe, 0xe9, 0xb3, 0x3e, 0x96, 0xd9, 0xc3, 0x4c,
  0xfe, 0xd6, 0xe0, 0x09, 0xeb, 0xfc, 0xcf, 0x21,
  0xca, 0xc1, 0xca, 0xc1, 0xdb, 0xfd, 0x64, 0x17,
  0xc4, 0xe6, 0x08, 0xc8, 0x4e, 0xd1, 0xc4, 0x12,
  0xd3, 0xfd, 0xfb, 0x12, 0xdc, 0x35, 0x10, 0x01,
  0x1e, 0xe3, 0xba, 0xac, 0xef, 0x20, 0x31, 0xec,
  0x0f, 0xf7, 0x20, 0xeb, 0x3e, 0xd1, 0xe1, 0x1e,
  0xd6, 0xef, 0xe7, 0x25, 0xfc, 0x0d, 0x00, 0xe7,
  0x53, 0xa1, 0xca, 0xc0, 0xe6, 0xe6, 0x31, 0x2f,
  0xf9, 0xdf, 0x49, 0x04, 0x7a, 0x13, 0xf3, 0x04,
  0xda, 0x2f, 0xe0, 0x10, 0x12, 0x6c, 0x3f, 0xec,
  0x0f, 0xb5, 0xce, 0xfb, 0x09, 0x04, 0x55, 0x19,
  0x14, 0xd5, 0x17, 0xf7, 0x7f, 0xe9, 0xd6, 0x3c,
  0xe8, 0x20, 0x02, 0x09, 0x07, 0x57, 0x1f, 0xd8,
  0x17, 0xe0, 0xfa, 0xdb, 0x08, 0x14, 0x33, 0x1b,
  0x07, 0xe0, 0x38, 0xc8, 0x43, 0x08, 0x06, 0x4b,
  0xdb, 0x27, 0xe7, 0x16, 0x0d, 0x36, 0x18, 0xf6,
  0xa3, 0x26, 0xcc, 0xd1, 0x15, 0x1f, 0xe3, 0x25,
  0x05, 0xe5, 0x91, 0x81, 0xda, 0xd6, 0x33, 0xea,
  0xa2, 0x17, 0x86, 0xc3, 0xbf, 0xeb, 0xcf, 0xd2,
  0xef, 0x4a, 0xd9, 0xcd, 0x11, 0x26, 0xe7, 0xee,
  0xd9, 0xef, 0xa9, 0xd9, 0xce, 0xd1, 0xd0, 0x1d,
  0xb4, 0x0c, 0xb2, 0xbc, 0xf3, 0xeb, 0xb6, 0xb8,
  0xc7, 0xf0, 0x1f, 0x26, 0x2d, 0x26, 0xa9, 0xf9,
  0x26, 0x3a, 0xda, 0xdc, 0xaf, 0xd3, 0x32, 0xf2,
  0x0f, 0xf4, 0xf1, 0xbb, 0xf2, 0xef, 0xe5, 0xf4,
  0x1f, 0xf3, 0x03, 0x32, 0x1c, 0x29, 0xc1, 0xe6,
  0xfc, 0xed, 0xd3, 0xd5, 0xb2, 0x43, 0x08, 0x19,
  0x28, 0xdd, 0xd8, 0x9f, 0x1f, 0x46, 0x08, 0x12,
  0xf8, 0x1b, 0x0e, 0x1f, 0x0d, 0x2a, 0xe3, 0x14,
  0x35, 0x22, 0xe2, 0x0a, 0xde, 0x17, 0x22, 0x36,
  0x61, 0x04, 0x05, 0x89, 0x0d, 0x15, 0xf4, 0x01,
  0xe3, 0xd8, 0xe5, 0x96, 0x18, 0xe0, 0x84, 0xa9,
  0xc2, 0x0a, 0x0c, 0xb6, 0x9c, 0x99, 0x43, 0x43,
  0xa4, 0xd7, 0xb6, 0x13, 0x22, 0x23, 0x16, 0x13,
  0xf1, 0x45, 0xfe, 0xcd, 0xac, 0x1c, 0xd5, 0xab,
  0xa3, 0x15, 0xf0, 0xd5, 0xc4, 0x8b, 0xf4, 0x0a,
  0xdc, 0xea, 0xb9, 0x09, 0x4d, 0x10, 0x31, 0x37,
  0xda, 0x54, 0x27, 0xbb, 0xbf, 0xfe, 0x81, 0xda,
  0xab, 0x14, 0xdc, 0xed, 0x9e, 0xb6, 0x00, 0x31,
  0xee, 0xcf, 0xfe, 0x06, 0x0c, 0x18, 0x04, 0xf5,
  0xe9, 0xfe, 0x29, 0xe2, 0xe1, 0x03, 0x9e, 0x95,
  0xac, 0x51, 0xe5, 0x16, 0xbf, 0xe6, 0x5d, 0x5b,
  0x10, 0xc5, 0xff, 0x2c, 0x45, 0x09, 0x14, 0x24,
  0xb9, 0x5a, 0x1e, 0x06, 0xb9, 0xe1, 0xe7, 0xe3,
  0xf0, 0x56, 0xd7, 0x4a, 0xdd, 0xd1, 0x4e, 0x75,
  0x27, 0xaa, 0x0d, 0x28, 0x1f, 0x16, 0xe7, 0x08,
  0xf0, 0xc7, 0x0d, 0xf9, 0xdd, 0xe5, 0x52, 0xf6,
  0x06, 0xa9, 0xf9, 0xad, 0x63, 0x29, 0x91, 0x36,
  0xc7, 0x18, 0xeb, 0x01, 0x07, 0x45, 0x06, 0xf3,
  0x0d, 0x9f, 0xea, 0x01, 0xf9, 0xfa, 0x4f, 0xdc,
  0x30, 0xbd, 0x32, 0xc0, 0x71, 0xfa, 0xcf, 0x51,
  0x10, 0x01, 0xe5, 0x23, 0xe9, 0x59, 0x32, 0xf6,
  0xf0, 0x98, 0xfc, 0x1f, 0xe7, 0x13, 0x6e, 0x29,
  0x2b, 0xb2, 0x28, 0xc4, 0x5b, 0x12, 0xaa, 0x17,
  0xfe, 0xec, 0x0c, 0x2b, 0x10, 0x1c, 0x31, 0xe6,
  0x33, 0x81, 0x05, 0x05, 0xfe, 0x28, 0x2f, 0xe6,
  0x37, 0xcc, 0x0c, 0xd8, 0x7d, 0x31, 0xe2, 0x35,
  0xeb, 0x19, 0xda, 0x05, 0xea, 0x42, 0x51, 0x17,
  0x30, 0xc2, 0x06, 0xf0, 0xf2, 0x28, 0x54, 0xdd,
  0x02, 0xab, 0x5b, 0xe1, 0x50, 0x32, 0xdc, 0x2e,
  0x0e, 0x06, 0xf8, 0xf8, 0xc6, 0x30, 0x2a, 0x0c,
  0xc1, 0xcf, 0x40, 0x4d, 0xec, 0x18, 0x81, 0x02,
  0x15, 0xc6, 0x1e, 0xfe, 0xdd, 0xef, 0xbf, 0x0e,
  0x48, 0xf8, 0x27, 0x00, 0x43, 0xa5, 0xaa, 0x0d,
  0xbc, 0x00, 0x3e, 0x3c, 0x05, 0xc9, 0xd5, 0x26,
  0xc0, 0xd4, 0xf3, 0xf6, 0xeb, 0x0e, 0xfa, 0xd2,
  0x00, 0x2c, 0x44, 0x27, 0x21, 0xdb, 0xe6, 0xf4,
  0xdc, 0xec, 0x29, 0xec, 0xfd, 0xfb, 0xac, 0x15,
  0xf3, 0xe1, 0xf2, 0xdb, 0xee, 0xcb, 0xfb, 0xe8,
  0xfb, 0x2e, 0x11, 0xf9, 0x13, 0x09, 0xce, 0x08,
  0xdf, 0xf9, 0x22, 0xee, 0x14, 0x10, 0xb7, 0x06,
  0xe7, 0xbc, 0xe6, 0xf1, 0xaa, 0xc1, 0xf1, 0xa7,
  0xfe, 0xfd, 0x0d, 0x2d, 0x05, 0xec, 0xad, 0xf9,
  0xdb, 0xe0, 0x00, 0x3e, 0xb5, 0xbe, 0xc9, 0xd2,
  0x17, 0xbe, 0x14, 0xb3, 0xcf, 0xdf, 0xc7, 0xd8,
  0xf6, 0x34, 0x1a, 0x21, 0xe3, 0xf0, 0xd9, 0x0e,
  0x31, 0xca, 0xec, 0xfe, 0x87, 0x36, 0x14, 0x27,
  0xf5, 0x05, 0x03, 0xfb, 0xf9, 0xff, 0xbc, 0xcd,
  0x30, 0xe2, 0x0e, 0x02, 0x0b, 0x0c, 0x2c, 0x05,
  0x3d, 0xe8, 0xfa, 0x17, 0x81, 0x30, 0x4c, 0xf6,
  0x26, 0xf3, 0x08, 0x12, 0x31, 0x18, 0xc5, 0x9e,
  0x1d, 0xee, 0x27, 0xe2, 0xdf, 0x00, 0x1c, 0xcd,
  0x53, 0xe8, 0xd9, 0xef, 0xa7, 0x2d, 0xf7, 0xfe,
  0x0a, 0x02, 0xd4, 0x11, 0xdf, 0x30, 0xb7, 0xa8,
  0x00, 0xd9, 0x26, 0xee, 0x07, 0x02, 0x35, 0xe2,
  0x37, 0xdc, 0xf0, 0x20, 0xe4, 0x1e, 0x1d, 0xf9,
  0xd5, 0xee, 0xe0, 0x0e, 0x0b, 0xfe, 0xa5, 0x9f,
  0x1d, 0xb9, 0x18, 0xf0, 0x11, 0xda, 0x23, 0xc9,
  0x3f, 0xd5, 0xe3, 0x13, 0xe9, 0xe0, 0x36, 0xee,
  0xd5, 0x01, 0xf1, 0x0e, 0x0c, 0x3c, 0xc3, 0xb5,
  0x2d, 0xa9, 0x23, 0xcd, 0xf4, 0xbd, 0x0d, 0xa2,
  0x09, 0xdd, 0xfd, 0x27, 0xa0, 0x1f, 0xd0, 0xaa,
  0xc3, 0x20, 0xc8, 0xaf, 0x94, 0xcf, 0xd4, 0x15,
  0x88, 0xdc, 0xd7, 0x1a, 0x1d, 0xde, 0x0b, 0x0d,
  0xca, 0xe4, 0x1a, 0xed, 0xa2, 0x31, 0xc1, 0xad,
  0xc4, 0x3a, 0xa4, 0xa7, 0x95, 0xd1, 0xf7, 0x18,
  0xaa, 0xd2, 0xd2, 0x0f, 0x22, 0xa7, 0xe0, 0x3a,
  0xed, 0xcc, 0x12, 0x36, 0x9e, 0x41, 0xea, 0xc7,
  0xd3, 0x15, 0xcc, 0xce, 0xa9, 0xa9, 0x01, 0x08,
  0x83, 0xf8, 0xdf, 0x2e, 0x23, 0xb0, 0xcc, 0x07,
  0x0c, 0x1c, 0x39, 0x04, 0x94, 0x32, 0xeb, 0xbe,
  0xc0, 0x3e, 0xe2, 0x89, 0xa9, 0xc2, 0x17, 0x0b,
  0x84, 0xbe, 0xf6, 0x34, 0x25, 0xe7, 0xd6, 0x11,
  0xf1, 0x0f, 0x59, 0xfb, 0x81, 0x0b, 0x0c, 0xb7,
  0xc2, 0x08, 0xf5, 0xbd, 0xa3, 0xec, 0x0d, 0xfd,
  0xba, 0xe1, 0xfa, 0x14, 0x4e, 0x30, 0x00, 0x2b,
  0x3f, 0xfd, 0xac, 0xf3, 0xa6, 0xec, 0x58, 0x10,
  0xf6, 0xf5, 0xda, 0x22, 0xf6, 0x27, 0xd1, 0x8f,
  0x1b, 0x22, 0x12, 0xd4, 0xef, 0xe5, 0xdd, 0x06,
  0x26, 0x0e, 0xed, 0x02, 0xd9, 0xfe, 0x61, 0x08,
  0x28, 0xf4, 0x1e, 0x31, 0x12, 0xea, 0x11, 0x86,
  0x22, 0xc1, 0x1f, 0xe2, 0x3a, 0xf4, 0x1d, 0xee,
  0x4c, 0x05, 0xf7, 0x14, 0xfd, 0x3d, 0x66, 0x31,
  0x25, 0xf4, 0xfd, 0x2a, 0x09, 0x42, 0xe7, 0x81,
  0x49, 0xd2, 0x2e, 0xde, 0xfb, 0x04, 0x2a, 0x05,
  0x5b, 0x03, 0xd5, 0xf9, 0xd7, 0xf0, 0x79, 0x08,
  0x22, 0x0a, 0xea, 0xfd, 0x42, 0x46, 0x20, 0x8c,
  0x4c, 0x03, 0x00, 0xea, 0x36, 0xf6, 0x15, 0x06,
  0x31, 0x10, 0x1e, 0x20, 0xe9, 0x16, 0x1b, 0x11,
  0xdb, 0xcf, 0xed, 0x03, 0x3d, 0x2e, 0xe8, 0x9e,
  0x3c, 0xc1, 0x20, 0x1b, 0x09, 0xe9, 0x6e, 0xd1,
  0xdd, 0x1a, 0xf0, 0xb8, 0x41, 0x35, 0x81, 0x34,
  0x36, 0x9b, 0xb2, 0xb9, 0x9f, 0xdf, 0x23, 0xde,
  0x0a, 0xde, 0xa2, 0x26, 0xd3, 0xf9, 0xea, 0x01,
  0x99, 0x54, 0x0f, 0x0e, 0xfa, 0x27, 0xe2, 0xf5,
  0xd5, 0xe0, 0x0f, 0xaf, 0x99, 0xf3, 0xf2, 0xb7,
  0xb9, 0xd3, 0x06, 0xd9, 0xc8, 0x33, 0x01, 0x32,
  0xcc, 0x0a, 0xcf, 0x12, 0x4e, 0x16, 0xe6, 0xcc,
  0xe4, 0x13, 0xf3, 0xbe, 0x90, 0x2c, 0x18, 0xf9,
  0xc9, 0x11, 0x0a, 0xb4, 0xe8, 0x3b, 0xc3, 0xcd,
  0xdf, 0x07, 0x1b, 0xd0, 0x3a, 0x13, 0x8b, 0x1a,
  0x1e, 0x28, 0x01, 0x2c, 0x85, 0x12, 0x2f, 0x30,
  0x33, 0xeb, 0xfb, 0xde, 0xf7, 0xd5, 0x03, 0x3f,
  0xe5, 0x0c, 0xd8, 0x18, 0x52, 0x1e, 0xe7, 0x24,
  0x2a, 0xb7, 0xca, 0xf2, 0x90, 0x2e, 0x2b, 0x38,
  0x19, 0xda, 0x07, 0xbc, 0x0d, 0xd7, 0xf0, 0x15,
  0xec, 0x08, 0xff, 0x09, 0xf7, 0x29, 0x28, 0x07,
  0xf0, 0xe2, 0xf4, 0xb7, 0x0c, 0x23, 0x03, 0xd5,
  0xa8, 0xfc, 0x2a, 0xfb, 0xd8, 0xe5, 0xee, 0x0b,
  0xf1, 0xfa, 0xfb, 0x02, 0xe0, 0x1d, 0x10, 0xf2,
  0xfa, 0xf3, 0x1b, 0xae, 0x31, 0x22, 0xf3, 0x05,
  0x87, 0xee, 0x13, 0xe3, 0xd7, 0xd4, 0x04, 0xfb,
  0x1b, 0xe8, 0x10, 0x1d, 0xe8, 0x03, 0x26, 0x07,
  0xdc, 0xfc, 0x12, 0x81, 0x16, 0x06, 0xf1, 0xdb,
  0x99, 0xdd, 0x1e, 0xdf, 0xc8, 0xe5, 0xfd, 0xfb,
  0x25, 0x05, 0x01, 0x1a, 0xe4, 0x09, 0x20, 0xfe,
  0x0e, 0xde, 0x17, 0xa4, 0x01, 0x00, 0xfb, 0xc4,
  0xaa, 0x02, 0x2b, 0x08, 0xe3, 0xde, 0xf7, 0xdc,
  0xed, 0xea, 0xf9, 0x05, 0xdf, 0x10, 0x08, 0xf5,
  0xe2, 0xd7, 0x1e, 0xc6, 0x06, 0x0c, 0xea, 0xce,
  0xc2, 0x06, 0x12, 0x12, 0xe2, 0x03, 0x03, 0xf6,
  0x1c, 0x1d, 0x00, 0xf6, 0xe1, 0x20, 0xe4, 0xf8,
  0x0f, 0xdf, 0x4c, 0xda, 0x03, 0xd6, 0xe5, 0x54,
  0x46, 0xf7, 0xda, 0x0a, 0x2b, 0xf2, 0x44, 0x17,
  0x2e, 0x18, 0xcc, 0x24, 0xc5, 0xc4, 0xe4, 0xeb,
  0x11, 0x15, 0x32, 0x1c, 0xf7, 0x0f, 0xb4, 0x59,
  0x28, 0x15, 0x1c, 0x14, 0x4a, 0x40, 0x24, 0xe8,
  0x25, 0xdb, 0x1a, 0x11, 0x11, 0xd5, 0x18, 0x13,
  0xff, 0xea, 0x10, 0x3d, 0xef, 0xb6, 0x19, 0x7f,
  0x32, 0x12, 0x12, 0x18, 0x03, 0x21, 0x06, 0x39,
  0x05, 0xce, 0xed, 0xa8, 0xf9, 0xe5, 0xe5, 0x09,
  0x15, 0xd1, 0x42, 0x3a, 0x30, 0xe7, 0xab, 0x5e,
  0xff, 0xd1, 0x31, 0x3c, 0x0c, 0x36, 0x2d, 0x06,
  0xe8, 0x18, 0xb0, 0xcd, 0xbd, 0xec, 0xfe, 0xc3,
  0xee, 0x07, 0xd9, 0x23, 0x1c, 0xa3, 0xfc, 0x15,
  0x32, 0xf2, 0xbe, 0x4a, 0xf6, 0x5f, 0xf8, 0x2b,
  0x0a, 0x25, 0x2c, 0x0c, 0xcf, 0x03, 0xfd, 0xda,
  0xc8, 0x25, 0xfd, 0x5a, 0xbc, 0x50, 0x3d, 0x61,
  0x16, 0xf4, 0x15, 0x11, 0x4b, 0x60, 0x15, 0x20,
  0x28, 0x01, 0xe6, 0x2f, 0xbb, 0x01, 0xe5, 0xba,
  0xcf, 0xe6, 0x16, 0x06, 0x05, 0x09, 0x3c, 0x40,
  0x1e, 0xf9, 0xea, 0xcf, 0x13, 0x7f, 0x19, 0xe3,
  0xd5, 0xfd, 0xbc, 0x1c, 0xab, 0x23, 0xf4, 0xce,
  0xdc, 0x1d, 0xf1, 0x34, 0xbb, 0xb7, 0xdc, 0x4f,
  0x3b, 0x1d, 0xf1, 0xf9, 0x0b, 0x44, 0xf9, 0x22,
  0xbe, 0xc9, 0xfb, 0xcc, 0xd0, 0x16, 0xff, 0xbc,
  0xe1, 0x18, 0x05, 0xdb, 0xb0, 0xb3, 0x30, 0x67,
  0x17, 0xeb, 0xf3, 0x1b, 0xd8, 0x36, 0xcc, 0x22,
  0xf6, 0xe8, 0xd1, 0x93, 0xff, 0x06, 0xf6, 0xe1,
  0xd8, 0xf5, 0xf7, 0xb3, 0xec, 0x8b, 0x10, 0xf7,
  0xa4, 0xf6, 0xbd, 0x1c, 0x00, 0x22, 0xea, 0xdc,
  0xf8, 0x38, 0xdf, 0xf5, 0xcc, 0x10, 0x39, 0x44,
  0x00, 0x1b, 0xa3, 0xdb, 0xd6, 0x11, 0xd8, 0xca,
  0x22, 0x18, 0xe4, 0x0e, 0x0b, 0x35, 0xef, 0x34,
  0x3b, 0x52, 0x98, 0xb6, 0x42, 0xdc, 0xea, 0xc9,
  0xf4, 0xc5, 0x13, 0x46, 0xbb, 0xb5, 0xff, 0xb6,
  0x01, 0x44, 0xc6, 0x19, 0x78, 0x3c, 0x14, 0xd2,
  0xe6, 0x57, 0xef, 0xe8, 0xbb, 0xf6, 0x0d, 0x1b,
  0xdf, 0xbd, 0xb4, 0x49, 0xc8, 0xec, 0xbf, 0xf3,
  0xfe, 0xc4, 0x81, 0x5a, 0x4f, 0x28, 0xee, 0xf6,
  0xf4, 0xe6, 0x98, 0xce, 0x12, 0xee, 0x25, 0x1b,
  0x49, 0xd8, 0xeb, 0xe6, 0xe6, 0x86, 0x17, 0xea,
  0x29, 0x23, 0xf3, 0x77, 0x18, 0xba, 0x21, 0xdd,
  0x06, 0x55, 0xad, 0xb4, 0xa3, 0x0c, 0xed, 0xf6,
  0xd9, 0x04, 0xcb, 0xca, 0xea, 0xf2, 0xcc, 0x20,
  0x50, 0xfc, 0x07, 0x55, 0x52, 0xb4, 0x66, 0x25,
  0x2e, 0x0e, 0x0e, 0xba, 0xe4, 0x29, 0xb5, 0x32,
  0x55, 0xb7, 0x0b, 0xac, 0xaa, 0x00, 0xe1, 0x08,
  0xfb, 0xd7, 0xe8, 0x2f, 0xb9, 0xb3, 0x1c, 0x1c,
  0x43, 0x41, 0x22, 0xf3, 0xc7, 0x13, 0xb7, 0x1a,
  0x4a, 0xe9, 0xd1, 0x1a, 0xa5, 0xd4, 0x0b, 0xed,
  0xfc, 0x23, 0xe7, 0x1e, 0xd4, 0xa1, 0x24, 0x0f,
  0x1c, 0xff, 0x24, 0x0b, 0x2e, 0x07, 0xa1, 0x44,
  0x2d, 0xe7, 0xe5, 0xb3, 0xb1, 0x03, 0x40, 0xf8,
  0x27, 0xe1, 0xfc, 0x6b, 0x19, 0x81, 0x18, 0x0f,
  0xf0, 0xde, 0xec, 0xb4, 0xdd, 0xe7, 0xe7, 0xef,
  0x69, 0xbd, 0x09, 0x18, 0xa9, 0x16, 0x07, 0xe6,
  0x00, 0x1b, 0xe8, 0x39, 0x02, 0xa5, 0xff, 0x06,
  0x28, 0x0a, 0x2f, 0x0a, 0xc8, 0x4a, 0xfd, 0xef,
  0x45, 0x91, 0xf9, 0x03, 0xcf, 0xba, 0xfe, 0x0c,
  0xeb, 0xdf, 0xe3, 0x6b, 0x05, 0xf2, 0xdb, 0x42,
  0xed, 0xd4, 0xfb, 0xfa, 0xef, 0x08, 0x6a, 0xda,
  0xe1, 0xd1, 0xfe, 0xa7, 0x7f, 0x08, 0xd6, 0xeb,
  0xbb, 0xb2, 0xe7, 0xca, 0x00, 0x22, 0x40, 0x08,
  0x34, 0xb1, 0xee, 0xf8, 0xfd, 0x03, 0x30, 0xee,
  0x1d, 0xdf, 0x15, 0xd1, 0x5b, 0xf0, 0xe3, 0x14,
  0xca, 0xff, 0x03, 0xff, 0x20, 0x31, 0x12, 0xf5,
  0x25, 0xde, 0xe4, 0xef, 0xf7, 0xf2, 0x56, 0xd8,
  0x19, 0xdb, 0x20, 0xbe, 0x56, 0x00, 0xef, 0x0b,
  0xe9, 0x05, 0xe3, 0x01, 0x1e, 0x36, 0x31, 0xfc,
  0x39, 0xae, 0xf3, 0xfc, 0x00, 0xee, 0x1a, 0x02,
  0x28, 0xeb, 0x49, 0xd6, 0x6b, 0xfc, 0xdd, 0x36,
  0xa4, 0x22, 0xe8, 0x0a, 0xe8, 0x53, 0x0d, 0xfd,
  0xe2, 0xaf, 0xfc, 0x11, 0xef, 0x0a, 0x47, 0x07,
  0x22, 0xe8, 0x21, 0xcf, 0x73, 0xf6, 0xdd, 0x39,
  0xe7, 0x2a, 0xe3, 0x10, 0xff, 0x1a, 0x3e, 0xcb,
  0x82, 0xe8, 0xe8, 0xcc, 0xb8, 0xe3, 0xdb, 0xfc,
  0xb9, 0xeb, 0x09, 0xc9, 0x31, 0xfe, 0x20, 0xd3,
  0xfd, 0xf5, 0xdf, 0xb9, 0xd2, 0xf8, 0x2f, 0xc9,
  0xc8, 0xb3, 0xdd, 0xdd, 0xb7, 0xb6, 0x4f, 0xf7,
  0xdf, 0xa0, 0xca, 0xd7, 0x62, 0xd3, 0xf7, 0x12,
  0x0d, 0xc1, 0x17, 0x20, 0x03, 0x44, 0x10, 0xe5,
  0x48, 0x0a, 0x00, 0xd0, 0x13, 0xb5, 0xae, 0xdc,
  0x0c, 0xbf, 0x2a, 0xb6, 0x3c, 0x25, 0x14, 0xa2,
  0x10, 0x1c, 0xb6, 0x11, 0xd4, 0x04, 0xd7, 0xc6,
  0x2b, 0x22, 0xdd, 0xaf, 0xda, 0x30, 0xfd, 0xf6,
  0xf4, 0xf5, 0xeb, 0xac, 0x30, 0xff, 0xef, 0x22,
  0xc1, 0xf9, 0x8e, 0xe1, 0x17, 0xe2, 0xe1, 0xb1,
  0xd0, 0xa5, 0x07, 0xfd, 0xc6, 0x46, 0x0d, 0x1c,
  0x42, 0x01, 0x0d, 0xb2, 0x45, 0x09, 0xcb, 0x49,
  0x81, 0x27, 0xf3, 0x23, 0x89, 0xd0, 0xfe, 0xc7,
  0x1c, 0x1c, 0x1c, 0x04, 0x87, 0xef, 0x04, 0xbf,
  0x9d, 0x10, 0x06, 0x18, 0xf0, 0xd4, 0x0c, 0xac,
  0x0c, 0xb8, 0x0f, 0xc9, 0x0e, 0xb0, 0xe9, 0xdf,
  0x05, 0xff, 0x1c, 0x0c, 0x82, 0xeb, 0x2b, 0xce,
  0xca, 0x12, 0xf8, 0x10, 0xdc, 0xf3, 0xfc, 0xa4,
  0xf9, 0x93, 0xf7, 0xce, 0xf3, 0xc2, 0xbe, 0xd8,
  0x29, 0x2a, 0xff, 0xfd, 0x89, 0xe4, 0x18, 0xc3,
  0xd2, 0x0f, 0xf3, 0xff, 0xe3, 0xec, 0x32, 0x96,
  0xed, 0xba, 0x08, 0xdb, 0xf5, 0xae, 0x8e, 0xc6,
  0x1a, 0x07, 0x15, 0x0a, 0x81, 0xff, 0x03, 0xb6,
  0xce, 0x0d, 0xef, 0xea, 0x03, 0xf2, 0x20, 0xcd,
  0xe6, 0xab, 0x0c, 0xcd, 0x08, 0xb0, 0xc1, 0xc1,
  0x21, 0x20, 0x07, 0x14, 0xa0, 0xf6, 0x07, 0xc4,
  0xe1, 0x12, 0xfa, 0x0f, 0xf7, 0xe6, 0x1f, 0x9c,
  0x09, 0x83, 0xec, 0xce, 0x0d, 0xce, 0xc9, 0xec,
  0xf5, 0xb3, 0xd3, 0x9a, 0xe4, 0x0e, 0x4e, 0x17,
  0xe6, 0xf4, 0x1b, 0xcd, 0x5b, 0xfe, 0x03, 0x0e,
  0xe0, 0x02, 0xc6, 0x31, 0x09, 0x27, 0x0b, 0x22,
  0xe9, 0xbf, 0xbc, 0xb6, 0x0f, 0xf8, 0x7f, 0x08,
  0x14, 0xbc, 0x2b, 0xf3, 0x20, 0x32, 0xeb, 0x29,
  0x17, 0x10, 0xbc, 0x44, 0xdf, 0x1b, 0xfb, 0xe6,
  0x3a, 0xc2, 0xc1, 0xa1, 0x02, 0x01, 0x43, 0x21,
  0x13, 0xec, 0x26, 0x21, 0x61, 0xe0, 0xfb, 0xf9,
  0x19, 0x2f, 0x9b, 0x44, 0xf6, 0x21, 0x4e, 0xfa,
  0x17, 0xaf, 0xd5, 0x8c, 0xf8, 0xf0, 0x73, 0x43,
  0x22, 0xe1, 0x41, 0x1e, 0x64, 0x0c, 0xd1, 0x34,
  0xd1, 0x17, 0x99, 0xed, 0x0b, 0x4c, 0x06, 0xfe,
  0x44, 0xd3, 0xe6, 0xdd, 0x01, 0x15, 0x4c, 0x1d,
  0x1e, 0xf1, 0x00, 0x15, 0x74, 0xf5, 0xe0, 0x3d,
  0xec, 0x47, 0xc1, 0xf9, 0xd7, 0x3a, 0x30, 0xf6,
  0x2e, 0x06, 0x13, 0x14, 0xe6, 0x2d, 0x08, 0xef,
  0x49, 0xf9, 0x05, 0xa3, 0x15, 0xee, 0x0b, 0xf3,
  0xab, 0xff, 0x13, 0x0c, 0xf0, 0xfa, 0x09, 0x0b,
  0x0c, 0xff, 0x0a, 0x13, 0xeb, 0x08, 0x2f, 0xf8,
  0x17, 0xe8, 0x28, 0xb5, 0x3f, 0x03, 0x06, 0x03,
  0x81, 0xd9, 0x1d, 0xfe, 0xe3, 0xbc, 0xfd, 0xd3,
  0x0b, 0xfe, 0x04, 0xf7, 0xfb, 0xe3, 0x03, 0xf9,
  0x17, 0xee, 0xfc, 0xd9, 0x17, 0x02, 0x09, 0xfa,
  0x9b, 0xf4, 0x1b, 0xfa, 0xd2, 0xd5, 0x17, 0xd5,
  0xf4, 0x00, 0x0e, 0x0b, 0xf8, 0xf9, 0x20, 0xec,
  0xec, 0xdb, 0x1a, 0xe5, 0x1c, 0xdb, 0x0c, 0xd4,
  0xad, 0xac, 0xee, 0xe2, 0xf8, 0xde, 0x23, 0xe9,
  0xd2, 0x01, 0xf1, 0xfd, 0x06, 0x19, 0x19, 0x1c,
  0xd8, 0xf4, 0x01, 0xd9, 0x2a, 0xfb, 0xdc, 0x8c,
  0xea, 0xbb, 0xf6, 0xc2, 0xfb, 0x11, 0x07, 0xcc,
  0xa0, 0xed, 0x0f, 0x19, 0x23, 0xcc, 0xab, 0xf8,
  0x0c, 0x08, 0x1c, 0x1b, 0xf8, 0xfd, 0x22, 0x54,
  0xd6, 0x00, 0xf1, 0x9c, 0x29, 0xc0, 0x08, 0x04,
  0x0c, 0x02, 0xff, 0x36, 0x0b, 0xb0, 0xf9, 0xed,
  0xee, 0x43, 0xc5, 0xea, 0x0e, 0x00, 0xc5, 0x41,
  0x27, 0x11, 0x23, 0xa9, 0x07, 0xf8, 0x01, 0xec,
  0xcf, 0xb4, 0xe5, 0x1a, 0xbf, 0x99, 0xda, 0xf0,
  0x22, 0x3c, 0xd5, 0x2f, 0x27, 0x92, 0x0e, 0xdb,
  0xf6, 0x08, 0xd3, 0x9e, 0x18, 0xf0, 0xc5, 0xee,
  0x93, 0xb3, 0xf0, 0x28, 0x0b, 0xc5, 0xd0, 0x13,
  0xbc, 0x1b, 0xbb, 0xde, 0xec, 0x81, 0xd4, 0xc9,
  0xf5, 0xd8, 0xbf, 0x1a, 0xee, 0xdd, 0xf3, 0xf9,
  0xb4, 0xcc, 0xf2, 0x34, 0xa4, 0xa7, 0x09, 0x27,
  0xf2, 0x2c, 0x23, 0x3f, 0xf1, 0xa3, 0xaf, 0xbd,
  0xe2, 0xd2, 0xf3, 0x18, 0x17, 0x1f, 0xf8, 0xdc,
  0xc9, 0xef, 0xf9, 0xf3, 0xd6, 0xcb, 0x13, 0xfc,
  0xf4, 0x11, 0x13, 0xed, 0x0a, 0xf2, 0xf2, 0xc0,
  0x81, 0x97, 0xf7, 0xe1, 0x01, 0xf8, 0xab, 0xf7,
  0xf3, 0x09, 0xf9, 0x0b, 0xbe, 0xe9, 0x02, 0x0e,
  0x22, 0x0a, 0x0d, 0xe6, 0x5b, 0xdf, 0xf2, 0xb2,
  0xc1, 0xe2, 0x03, 0xe5, 0x12, 0xf7, 0xd9, 0xf9,
  0xd4, 0xfa, 0xf6, 0xed, 0xc9, 0x0e, 0x26, 0x09,
  0xe4, 0xdc, 0x06, 0xc7, 0x47, 0xd4, 0xf9, 0x13,
  0x8a, 0xee, 0x1b, 0x05, 0xc7, 0x22, 0xe7, 0xe5,
  0x1a, 0xfb, 0x00, 0x03, 0xd5, 0x23, 0x35, 0x08,
  0x37, 0xcf, 0x2b, 0x9d, 0x57, 0x08, 0xde, 0x0f,
  0xcc, 0x00, 0xf4, 0xfa, 0xcd, 0x38, 0x1f, 0x01,
  0x03, 0xe6, 0x1a, 0x13, 0xfd, 0x00, 0xea, 0x03,
  0x20, 0xc6, 0x4f, 0xab, 0x6d, 0xf2, 0xe3, 0x1d,
  0xb2, 0x12, 0xe3, 0x13, 0xde, 0x47, 0xe4, 0xdf,
  0x0c, 0xd0, 0xf0, 0xa5, 0xdd, 0x21, 0x43, 0x26,
  0xfc, 0xc3, 0x1a, 0xd6, 0x4a, 0xf9, 0xcd, 0x14,
  0xe8, 0x08, 0x81, 0xf6, 0xfb, 0x14, 0x1a, 0x0f,
  0xf6, 0xc6, 0xf9, 0xa8, 0x12, 0x00, 0x42, 0xf8,
  0x22, 0xc7, 0xfb, 0xd5, 0x65, 0xe6, 0xfb, 0x33,
  0x09, 0x29, 0xbd, 0x14, 0xeb, 0x4e, 0x30, 0xff,
  0x30, 0xcf, 0xf8, 0xc5, 0x0b, 0x1e, 0x2f, 0x1e,
  0x2a, 0xcc, 0x41, 0xf6, 0x58, 0x24, 0xdf, 0x3a,
  0x06, 0x35, 0xe0, 0x36, 0xfc, 0x33, 0x26, 0x1f,
  0x1c, 0xc8, 0xe6, 0xc0, 0x04, 0x15, 0x55, 0x17,
  0x27, 0xfb, 0x26, 0xed, 0x37, 0x26, 0x03, 0x23,
  0xfb, 0x25, 0xc1, 0x21, 0xed, 0x19, 0x3e, 0x0e,
  0x16, 0xbd, 0xe0, 0xd1, 0xe3, 0x0c, 0x41, 0x3d,
  0x25, 0xd6, 0x46, 0xfe, 0x5a, 0x09, 0xd2, 0x49,
  0x17, 0x3c, 0xd8, 0x41, 0x04, 0x1e, 0x28, 0xee,
  0xdc, 0xfa, 0x1a, 0xa6, 0xc1, 0xfc, 0xce, 0xe0,
  0xdb, 0x12, 0xff, 0xc1, 0xb6, 0xec, 0x33, 0xfd,
  0xc7, 0xc7, 0xe4, 0x4e, 0xd3, 0x1c, 0x1f, 0x36,
  0x0e, 0xee, 0x33, 0xed, 0xc2, 0xda, 0xae, 0xb3,
  0xc1, 0xf2, 0xe3, 0xce, 0x95, 0xc0, 0xe9, 0x23,
  0x05, 0x05, 0xb9, 0x2b, 0xd4, 0xf6, 0xe3, 0x11,
  0x01, 0x0b, 0x1f, 0x06, 0xd5, 0xd7, 0xf8, 0xa6,
  0xc3, 0xf5, 0xdf, 0x13, 0xd3, 0xd7, 0x35, 0x4d,
  0x30, 0xae, 0xd0, 0x45, 0x14, 0xce, 0xf3, 0x3e,
  0xc8, 0x33, 0x2f, 0xc8, 0xf0, 0x2a, 0xf7, 0xc4,
  0xf6, 0x51, 0xff, 0x1c, 0x81, 0x0e, 0xe1, 0x30,
  0xee, 0x03, 0xaa, 0x30, 0xe1, 0xe8, 0x00, 0xf9,
  0x00, 0x3e, 0x09, 0xd1, 0xbe, 0xed, 0xd0, 0xdd,
  0xd0, 0xdf, 0xc9, 0x37, 0xb8, 0x0f, 0x41, 0x1b,
  0x09, 0x1a, 0xc4, 0x26, 0xf1, 0xf9, 0x20, 0x3c,
  0x30, 0x25, 0x1d, 0x14, 0xb3, 0x08, 0x1b, 0xb9,
  0xcb, 0x0e, 0x19, 0x1a, 0xf0, 0xd8, 0x20, 0xbc,
  0xef, 0x9d, 0x13, 0xd2, 0xf5, 0xf6, 0x33, 0xb9,
  0x29, 0x1e, 0x26, 0xf5, 0x93, 0xf1, 0x0b, 0xdf,
  0xe1, 0x09, 0x07, 0x0c, 0xf2, 0xdd, 0x0a, 0x94,
  0x12, 0x91, 0x00, 0xf1, 0xe4, 0xb4, 0xdc, 0xbb,
  0x23, 0x12, 0x39, 0x0b, 0xbf, 0xd6, 0x1b, 0xb3,
  0xe0, 0x12, 0x18, 0xe2, 0xfa, 0xda, 0x13, 0xcb,
  0xe5, 0xac, 0x11, 0xf2, 0xf0, 0xb1, 0xf4, 0xa6,
  0x26, 0x07, 0x23, 0xfa, 0xa6, 0xd9, 0x0f, 0xa9,
  0xd1, 0x1b, 0xfa, 0xe8, 0x02, 0xdf, 0x24, 0xaa,
  0xfa, 0x81, 0xe9, 0xc0, 0x0e, 0xe9, 0xf8, 0xa4,
  0xf3, 0x02, 0x2a, 0x1a, 0xa9, 0xe5, 0x0f, 0xc7,
  0xa8, 0x0d, 0x11, 0xff, 0xfd, 0xdf, 0xf6, 0x96,
  0xee, 0x9d, 0x04, 0xd4, 0xec, 0xd3, 0xbf, 0x90,
  0xff, 0xec, 0x06, 0x02, 0xcd, 0x02, 0x0f, 0x0c,
  0x1c, 0xed, 0x1c, 0xc2, 0x1d, 0x0c, 0x06, 0xf8,
  0xbd, 0xfc, 0x13, 0xed, 0xde, 0xf6, 0x07, 0xef,
  0x0a, 0x08, 0x10, 0x11, 0xcc, 0x15, 0x19, 0x10,
  0x26, 0xd8, 0x1f, 0xb1, 0x4d, 0x0b, 0xf2, 0xf5,
  0xa9, 0x06, 0x12, 0xf8, 0xdb, 0xf7, 0xfe, 0xe4,
  0x1e, 0x14, 0x12, 0x0b, 0xdc, 0xfe, 0x21, 0x0f,
  0x01, 0xee, 0x1a, 0xd4, 0x24, 0xfb, 0x00, 0x11,
  0x8b, 0x00, 0x1e, 0xe5, 0xd8, 0x00, 0x07, 0xf1,
  0xfe, 0x0e, 0x03, 0x0b, 0xcd, 0x12, 0x09, 0xfd,
  0x22, 0xda, 0x08, 0xd1, 0x47, 0x10, 0xf6, 0x02,
  0x81, 0xe7, 0x13, 0xed, 0xdf, 0x05, 0x00, 0xdf,
  0x10, 0x09, 0x0d, 0x0e, 0xd6, 0x10, 0xfc, 0xe5,
  0xf1, 0xd8, 0x0d, 0xdf, 0x36, 0xe9, 0x04, 0xd2,
  0xca, 0xeb, 0x09, 0xec, 0xce, 0x02, 0x11, 0xdf,
  0xe0, 0xf8, 0xcb, 0xf9, 0xbc, 0xd1, 0xa4, 0xe8,
  0xe8, 0xdd, 0x13, 0x40, 0xbc, 0xad, 0x11, 0x4a,
  0x48, 0xe8, 0xf8, 0xf7, 0x44, 0x59, 0xdc, 0x20,
  0xdc, 0x48, 0xee, 0x0d, 0x05, 0xe3, 0xb3, 0xb6,
  0xdf, 0xdd, 0x1c, 0x0d, 0xdd, 0xa4, 0x4c, 0x38,
  0xec, 0xcc, 0xf1, 0xc2, 0x08, 0x1e, 0xea, 0x16,
  0xbe, 0x14, 0xc9, 0xe1, 0xcc, 0xee, 0xc8, 0x02,
  0x06, 0x38, 0x19, 0xec, 0xac, 0x90, 0x29, 0xe3,
  0xee, 0xea, 0xcc, 0xd3, 0x09, 0x56, 0xf0, 0x1d,
  0xd9, 0x10, 0xea, 0xca, 0x1a, 0xc3, 0x9d, 0xc4,
  0xdb, 0x17, 0xea, 0x17, 0xbc, 0xce, 0x0b, 0x23,
  0x1e, 0xb3, 0xbb, 0x14, 0xf9, 0x32, 0xb0, 0xdf,
  0xe2, 0x20, 0x02, 0xe3, 0x0d, 0xf6, 0xd0, 0xda,
  0x06, 0x37, 0x1e, 0x2a, 0xcf, 0x81, 0x43, 0x03,
  0xef, 0xa7, 0xbc, 0xb1, 0x0a, 0x00, 0xd4, 0x0c,
  0xa5, 0xf6, 0x19, 0xd0, 0x4a, 0xfe, 0xaa, 0x2b,
  0x45, 0xac, 0xcc, 0x81, 0xce, 0xd2, 0x1f, 0x02,
  0xa2, 0x25, 0xb5, 0x17, 0xbb, 0xdc, 0x08, 0x94,
  0xee, 0xff, 0x22, 0xe8, 0x21, 0xe5, 0xcd, 0x2a,
  0x31, 0xca, 0xcb, 0xcc, 0xbd, 0xba, 0xf5, 0xec,
  0xc2, 0x06, 0xa6, 0x0a, 0xd9, 0xb4, 0xcf, 0xd5,
  0x23, 0x06, 0x39, 0x0d, 0x1b, 0xe0, 0xb3, 0x20,
  0x0f, 0xdb, 0xb8, 0xc5, 0xb2, 0xf0, 0xe8, 0xb7,
  0x0a, 0x00, 0xc9, 0xd5, 0x0a, 0xf6, 0xc9, 0xad,
  0xf2, 0x0e, 0x0e, 0x23, 0x11, 0xfa, 0xa4, 0x0e,
  0x3c, 0xf9, 0xe4, 0x14, 0xc5, 0x07, 0x03, 0xef,
  0x37, 0xee, 0xdd, 0xd6, 0x16, 0xd5, 0xcb, 0xbe,
  0x1b, 0xe5, 0x32, 0x18, 0x39, 0xf5, 0xde, 0xf7,
  0x32, 0x0c, 0xe2, 0x4e, 0xd2, 0x1e, 0x0a, 0x0c,
  0x46, 0x23, 0x00, 0xd4, 0x32, 0xe4, 0xc3, 0xb4,
  0x2a, 0xf7, 0xff, 0xff, 0x04, 0x00, 0x00, 0x00,
  0x80, 0x00, 0x00, 0x00, 0x6c, 0x00, 0x00, 0x00,
  0x1a, 0x01, 0x00, 0x00, 0xda, 0x00, 0x00, 0x00,
  0x41, 0xfc, 0xff, 0xff, 0x12, 0xfc, 0xff, 0xff,
  0x16, 0x06, 0x00, 0x00, 0xd5, 0xfc, 0xff, 0xff,
  0x79, 0xfc, 0xff, 0xff, 0x1a, 0x01, 0x00, 0x00,
  0xb2, 0xfc, 0xff, 0xff, 0x1b, 0xf5, 0xff, 0xff,
  0x1b, 0xfa, 0xff, 0xff, 0x73, 0xec, 0xff, 0xff,
  0x28, 0xfb, 0xff, 0xff, 0x99, 0x04, 0x00, 0x00,
  0x06, 0x00, 0x00, 0x00, 0x7d, 0xfe, 0xff, 0xff,
  0x1d, 0xf7, 0xff, 0xff, 0x60, 0xfc, 0xff, 0xff,
  0x60, 0x05, 0x00, 0x00, 0x79, 0x05, 0x00, 0x00,
  0xd2, 0x01, 0x00, 0x00, 0xe6, 0x02, 0x00, 0x00,
  0xfc, 0x05, 0x00, 0x00, 0x35, 0x02, 0x00, 0x00,
  0x3e, 0x0d, 0x00, 0x00, 0xad, 0xff, 0xff, 0xff,
  0xb0, 0xf9, 0xff, 0xff, 0x9f, 0x02, 0x00, 0x00,
  0x19, 0x05, 0x00, 0x00, 0x6b, 0x02, 0x00, 0x00,
  0xf6, 0xf7, 0xff, 0xff, 0xb6, 0xf7, 0xff, 0xff,
  0x04, 0x00, 0x00, 0x00, 0x00, 0x04, 0x00, 0x00,
  0x1f, 0xfb, 0x28, 0x4f, 0x25, 0x28, 0xc4, 0xf7,
  0x22, 0x0a, 0x07, 0xe1, 0x19, 0xde, 0x0d, 0xe9,
  0xad, 0xbe, 0xe5, 0x5f, 0xf5, 0x3f, 0xf4, 0x27,
  0xeb, 0x4e, 0x05, 0xd6, 0x1f, 0xfc, 0x1b, 0xc2,
  0xe8, 0x34, 0xc6, 0xc0, 0xec, 0xb4, 0xfe, 0x44,
  0xb6, 0xc6, 0xbd, 0x41, 0xf6, 0x19, 0xd8, 0x05,
  0x04, 0x36, 0xf1, 0xad, 0x09, 0x1f, 0xf2, 0x04,
  0x23, 0xa1, 0xd7, 0x2c, 0xfc, 0xfb, 0x3b, 0xff,
  0x34, 0x08, 0xed, 0x0d, 0xe5, 0x26, 0xb2, 0xd2,
  0x11, 0xe7, 0xf5, 0xa7, 0xd3, 0xf6, 0xe1, 0xce,
  0x07, 0xf7, 0xf2, 0x2f, 0x02, 0x0f, 0x21, 0x48,
  0x1e, 0x32, 0x1f, 0xf7, 0x1f, 0x48, 0xef, 0xd6,
  0x01, 0xe5, 0xfa, 0x23, 0x1e, 0x09, 0x1b, 0xc1,
  0x46, 0xf0, 0x03, 0xf2, 0x22, 0x16, 0x10, 0x06,
  0xe2, 0xe6, 0x11, 0x4c, 0x17, 0x1c, 0xfb, 0x2c,
  0x31, 0x78, 0xf2, 0x1b, 0x45, 0xde, 0xcb, 0x8f,
  0x1e, 0xb3, 0xe9, 0xff, 0xd8, 0xdd, 0xd3, 0x02,
  0xdc, 0x06, 0x1e, 0x01, 0x4e, 0x19, 0x24, 0x3f,
  0xac, 0x40, 0xe9, 0xf8, 0xb7, 0x37, 0xb7, 0xdc,
  0xf8, 0xc5, 0xcf, 0x16, 0x04, 0xee, 0xf3, 0xdf,
  0xf7, 0xd5, 0x03, 0xd5, 0x28, 0xd3, 0xf9, 0x45,
  0xc7, 0xbf, 0x05, 0x3a, 0xe5, 0xf7, 0xad, 0xf8,
  0x17, 0x1e, 0x15, 0xdb, 0xd8, 0x1b, 0xcc, 0xab,
  0x22, 0xf5, 0xb7, 0x23, 0x05, 0xa0, 0x2d, 0x4a,
  0xc7, 0x04, 0xf6, 0x1b, 0x1f, 0xbb, 0xdd, 0x28,
  0xea, 0xb7, 0xd9, 0x2c, 0xd0, 0xea, 0xae, 0x12,
  0xd5, 0x37, 0x0f, 0xc3, 0xc5, 0x47, 0xde, 0xda,
  0xde, 0x8d, 0x96, 0x00, 0x0e, 0xc6, 0x3f, 0xd4,
  0xed, 0xf9, 0xf6, 0x4c, 0x15, 0xd4, 0x1f, 0xdd,
  0x1f, 0x1f, 0x20, 0x02, 0x45, 0x0e, 0xf0, 0x2a,
  0xea, 0x3a, 0xed, 0x0b, 0x22, 0x1e, 0x08, 0x02,
  0x10, 0x0c, 0x20, 0xf8, 0x11, 0xe2, 0xca, 0xa0,
  0xe5, 0xcd, 0x2a, 0x03, 0xca, 0x37, 0xf4, 0x0e,
  0x05, 0x00, 0x18, 0xb2, 0x17, 0xc0, 0x0f, 0xb8,
  0xd0, 0x03, 0xce, 0x5e, 0x4e, 0x23, 0x17, 0x22,
  0xf5, 0x7f, 0xec, 0xf6, 0x28, 0x11, 0xcf, 0xab,
  0xc8, 0x3a, 0xc2, 0x06, 0xde, 0xb4, 0x23, 0x3d,
  0xca, 0xcc, 0xb4, 0xf3, 0x08, 0x28, 0xc4, 0x04,
  0x56, 0xc9, 0xe1, 0x03, 0xed, 0x12, 0xc9, 0xff,
  0x23, 0xd6, 0x07, 0x1c, 0xcc, 0xd3, 0x12, 0x33,
  0x0d, 0x4d, 0xc3, 0xf4, 0x0a, 0xed, 0x30, 0x04,
  0x08, 0x1a, 0xb6, 0xea, 0xf5, 0x1f, 0xc0, 0x22,
  0x17, 0x0c, 0xeb, 0xb4, 0xd0, 0xd1, 0xac, 0xff,
  0x2e, 0xc6, 0xd7, 0x21, 0x0a, 0xe5, 0x20, 0x14,
  0xdd, 0xf6, 0xbd, 0x04, 0xce, 0xea, 0xf9, 0x1e,
  0xe5, 0xd6, 0x1d, 0x50, 0xae, 0xcf, 0xa0, 0x1c,
  0x12, 0xf4, 0x0d, 0xeb, 0xc6, 0x25, 0x9f, 0xd7,
  0x14, 0xe0, 0xb3, 0xfd, 0x22, 0xc1, 0x02, 0xec,
  0x17, 0x02, 0x07, 0xb9, 0x2e, 0xf8, 0x19, 0x25,
  0xaf, 0x2b, 0xc7, 0x0e, 0xf8, 0xe5, 0xc3, 0xf9,
  0x22, 0x33, 0x33, 0xf5, 0x0f, 0xef, 0xd8, 0xc1,
  0x06, 0xb0, 0xc6, 0x2d, 0x13, 0xd1, 0x25, 0x4e,
  0x0f, 0xe2, 0x0b, 0x4e, 0x00, 0x10, 0x05, 0xca,
  0x14, 0xe2, 0xe1, 0xa7, 0x19, 0xe4, 0x18, 0xe4,
  0x00, 0xe6, 0xdf, 0x1a, 0x1d, 0x18, 0x0f, 0x02,
  0x0e, 0x60, 0x27, 0x18, 0x43, 0x28, 0xe0, 0xd7,
  0xec, 0xf6, 0x0e, 0x24, 0x40, 0xc0, 0x26, 0x02,
  0xb5, 0x0a, 0xdf, 0x43, 0xf3, 0xf6, 0x25, 0xee,
  0x20, 0xec, 0xf7, 0xa3, 0xd1, 0xf9, 0xee, 0x15,
  0xe0, 0xf8, 0xca, 0x21, 0xa7, 0x28, 0x1a, 0x07,
  0x1b, 0xf2, 0xe4, 0x2f, 0x1f, 0xe5, 0x22, 0x26,
  0x0f, 0x15, 0xd5, 0x64, 0xdc, 0x0a, 0x3c, 0xc9,
  0x26, 0x0b, 0x01, 0xc9, 0xf9, 0xe1, 0xf5, 0x32,
  0xdb, 0xd1, 0xd7, 0x07, 0x97, 0xf9, 0x20, 0x0a,
  0x1d, 0x22, 0xb6, 0x1b, 0x25, 0xd3, 0x18, 0xff,
  0xc5, 0x13, 0xd8, 0x34, 0xd0, 0x37, 0xb3, 0xfc,
  0x3f, 0x11, 0xc8, 0xff, 0xff, 0x2a, 0xca, 0xa8,
  0x18, 0xbc, 0xb7, 0xf2, 0xfe, 0xa7, 0x31, 0x1d,
  0x1d, 0x18, 0x23, 0x3b, 0xfe, 0x07, 0xd4, 0xff,
  0x12, 0x18, 0xf0, 0xb4, 0xcb, 0xf6, 0xe1, 0xf1,
  0xf6, 0xd7, 0xf2, 0x41, 0x3d, 0x21, 0xef, 0x2d,
  0xff, 0x39, 0x1c, 0xa5, 0x21, 0x4b, 0x00, 0xc4,
  0x34, 0x0b, 0x48, 0x4b, 0xd4, 0xff, 0xca, 0xe1,
  0x2e, 0x0e, 0x21, 0xdb, 0xeb, 0xf9, 0x0a, 0x1a,
  0xe8, 0xfe, 0xc0, 0x0f, 0x47, 0x22, 0x45, 0xf1,
  0xfe, 0x3a, 0xf0, 0xde, 0x32, 0x38, 0x1d, 0xd2,
  0xd3, 0x17, 0xe0, 0x16, 0x20, 0xe4, 0x13, 0x4a,
  0xd8, 0x0d, 0xff, 0xe6, 0xd0, 0x1c, 0xd5, 0x34,
  0x1b, 0xf7, 0x16, 0xd3, 0xe0, 0xd4, 0x00, 0xbb,
  0x11, 0xc7, 0xcb, 0x13, 0x22, 0xb3, 0x1c, 0x58,
  0xfc, 0x1e, 0x23, 0x0e, 0xd7, 0x19, 0xe0, 0xe5,
  0x2a, 0xd7, 0x1f, 0xd0, 0x14, 0xf2, 0x28, 0x0f,
  0xd7, 0x23, 0xdc, 0x40, 0x09, 0x44, 0x2d, 0xe3,
  0x02, 0x58, 0xf9, 0xca, 0x1e, 0x28, 0xd1, 0xa8,
  0xdd, 0x0e, 0xf2, 0x22, 0xef, 0xa5, 0x2d, 0x33,
  0xa7, 0x31, 0xb8, 0x3d, 0xf2, 0x0c, 0x22, 0x00,
  0x30, 0x05, 0xf5, 0xfa, 0xff, 0xf3, 0x04, 0xe7,
  0xe5, 0xf5, 0xc7, 0x00, 0xd8, 0xe1, 0xe2, 0x54,
  0xf1, 0x21, 0x13, 0x20, 0xde, 0x2e, 0xc0, 0xe5,
  0x20, 0xf0, 0xfc, 0xdc, 0x30, 0xcd, 0x04, 0xf1,
  0xab, 0x13, 0xf8, 0x22, 0xf5, 0x3b, 0xd8, 0x0c,
  0xe2, 0x7c, 0x2b, 0xd3, 0x16, 0x2a, 0xf7, 0xda,
  0xf5, 0xd4, 0x32, 0x09, 0x35, 0x1c, 0xd5, 0x00,
  0xf1, 0x1e, 0x06, 0xfe, 0x2d, 0xf0, 0xfb, 0x3d,
  0x2e, 0x0e, 0xe8, 0x2f, 0x1d, 0x30, 0xe4, 0x15,
  0x22, 0x22, 0x01, 0xf5, 0xf1, 0x05, 0xcf, 0xcc,
  0x30, 0xf5, 0x0f, 0x47, 0x21, 0x3a, 0xb9, 0xca,
  0x3e, 0xdc, 0x28, 0xc2, 0x0f, 0xdd, 0x03, 0xdf,
  0xad, 0x04, 0xfe, 0x58, 0xf4, 0x0b, 0x40, 0x2b,
  0xf1, 0x59, 0xd4, 0xca, 0x2e, 0x1d, 0x19, 0xbb,
  0xf4, 0xf6, 0xa0, 0x03, 0xcc, 0xc3, 0x05, 0xf2,
  0xdb, 0x2e, 0xb8, 0x39, 0xff, 0x15, 0x27, 0xdb,
  0x16, 0x15, 0x1a, 0xeb, 0xe9, 0xb6, 0xbc, 0xf0,
  0xc6, 0xe0, 0xce, 0x01, 0xbe, 0x3d, 0xb8, 0x12,
  0xcc, 0xe6, 0xee, 0x09, 0x2c, 0xf5, 0x0f, 0x48,
  0xd5, 0x2c, 0xbf, 0xda, 0xe2, 0x11, 0xb5, 0x20,
  0x3d, 0xfc, 0x3e, 0xd0, 0xfd, 0x09, 0xf2, 0xa6,
  0x06, 0xc1, 0xdf, 0xe5, 0xf7, 0x15, 0x20, 0x48,
  0xef, 0xf8, 0xbd, 0x0b, 0x3d, 0x04, 0x3f, 0x31,
  0xd2, 0x13, 0xe9, 0x3d, 0xdb, 0xe8, 0x33, 0x32,
  0x2f, 0x2e, 0x0d, 0xdf, 0x0a, 0xb5, 0xda, 0xdc,
  0x0f, 0xd1, 0xbd, 0x1b, 0xc4, 0xe8, 0xc8, 0x3a,
  0x36, 0xf9, 0xf6, 0xf3, 0xfb, 0xef, 0x10, 0xbf,
  0x2e, 0xed, 0xe7, 0xa6, 0x3d, 0xd4, 0x27, 0xf0,
  0xf0, 0xf1, 0xd7, 0x08, 0x49, 0x3c, 0x2e, 0x22,
  0x08, 0x21, 0x2f, 0xf1, 0x2e, 0x03, 0x0f, 0xc9,
  0x12, 0x19, 0xb1, 0xca, 0xe5, 0xe6, 0x14, 0x39,
  0xc7, 0x1f, 0xbf, 0x46, 0xeb, 0x2d, 0xc3, 0x1b,
  0xe5, 0xeb, 0xd6, 0xc4, 0x30, 0x1f, 0xca, 0xe5,
  0x13, 0xa2, 0xc1, 0xf7, 0x03, 0xad, 0x05, 0x57,
  0xd2, 0x9d, 0xf2, 0x02, 0xc5, 0xcf, 0xe1, 0xe7,
  0xcd, 0x05, 0x3a, 0xd9, 0xe5, 0xff, 0x2d, 0xdb,
  0xbe, 0xc2, 0x16, 0xae, 0xc1, 0xfb, 0x13, 0x02,
  0xc8, 0xac, 0xe2, 0xac, 0xbc, 0x26, 0x12, 0x12,
  0xfc, 0x05, 0xf3, 0x08, 0x2f, 0xfc, 0xd9, 0x31,
  0xf2, 0x16, 0xf5, 0x01, 0xea, 0x15, 0xd5, 0x27,
  0x41, 0xeb, 0xcf, 0xf0, 0x07, 0xd4, 0xf8, 0x09,
  0xf7, 0xbf, 0xe2, 0x19, 0xd2, 0x2e, 0xe0, 0x09,
  0xc2, 0xfb, 0xff, 0xff, 0x04, 0x00, 0x00, 0x00,
  0x80, 0x00, 0x00, 0x00, 0x0f, 0x00, 0x00, 0x00,
  0xf9, 0x02, 0x00, 0x00, 0x79, 0x00, 0x00, 0x00,
  0xd2, 0xfc, 0xff, 0xff, 0x6c, 0xf0, 0xff, 0xff,
  0x7e, 0x07, 0x00, 0x00, 0xf4, 0x02, 0x00, 0x00,
  0x07, 0xed, 0xff, 0xff, 0xa1, 0xff, 0xff, 0xff,
  0x30, 0x08, 0x00, 0x00, 0x9e, 0x06, 0x00, 0x00,
  0x1e, 0x02, 0x00, 0x00, 0xd4, 0x05, 0x00, 0x00,
  0x37, 0xff, 0xff, 0xff, 0x01, 0xfb, 0xff, 0xff,
  0x9b, 0xf8, 0xff, 0xff, 0x3e, 0x05, 0x00, 0x00,
  0x08, 0x00, 0x00, 0x00, 0xb6, 0xfe, 0xff, 0xff,
  0x96, 0x04, 0x00, 0x00, 0x60, 0xfb, 0xff, 0xff,
  0xcc, 0xfd, 0xff, 0xff, 0xb0, 0xfe, 0xff, 0xff,
  0xd3, 0xf6, 0xff, 0xff, 0x6b, 0x00, 0x00, 0x00,
  0x95, 0xfd, 0xff, 0xff, 0x69, 0x03, 0x00, 0x00,
  0x01, 0x02, 0x00, 0x00, 0x99, 0xfd, 0xff, 0xff,
  0x90, 0x04, 0x00, 0x00, 0xd2, 0xff, 0xff, 0xff,
  0x82, 0x02, 0x00, 0x00, 0x4e, 0xfc, 0xff, 0xff,
  0x04, 0x00, 0x00, 0x00, 0x00, 0x02, 0x00, 0x00,
  0x05, 0xef, 0x23, 0x1f, 0x3f, 0xce, 0xc7, 0x01,
  0x19, 0xd5, 0xe2, 0xb4, 0xbc, 0x45, 0xa8, 0xaa,
  0xa8, 0xf8, 0x29, 0xb5, 0x23, 0xee, 0x29, 0xee,
  0x18, 0xcd, 0xca, 0xec, 0x3d, 0xdf, 0xe9, 0xcd,
  0x11, 0xf7, 0xe6, 0x19, 0x31, 0xeb, 0xcf, 0xfe,
  0x1d, 0xeb, 0xf1, 0xb4, 0xbd, 0x38, 0xe5, 0xd1,
  0xe4, 0x2d, 0x0d, 0xdf, 0xf7, 0xd8, 0x0a, 0x27,
  0x28, 0xc5, 0xb9, 0xba, 0x17, 0xbf, 0xe7, 0x03,
  0x02, 0x40, 0xed, 0xd1, 0xfa, 0x35, 0x5e, 0xd0,
  0xe7, 0x58, 0x5c, 0x5e, 0x36, 0xe9, 0x5b, 0x12,
  0x6e, 0xde, 0xea, 0x4c, 0xfc, 0x27, 0xfa, 0xc4,
  0xda, 0x37, 0x4b, 0x55, 0xef, 0x69, 0x1d, 0x08,
  0x3e, 0xd8, 0x29, 0x49, 0x47, 0xf7, 0xc5, 0x10,
  0x20, 0xf2, 0xd7, 0xa7, 0xaa, 0x04, 0xdc, 0xc0,
  0xd7, 0x26, 0x22, 0xa5, 0x3d, 0xd8, 0x01, 0xf1,
  0x2d, 0xc3, 0xf1, 0xdd, 0x06, 0xbb, 0xcd, 0x08,
  0x31, 0xf8, 0x1a, 0xf6, 0x37, 0xe6, 0xd3, 0xfe,
  0xf9, 0xed, 0xd5, 0xc3, 0xb1, 0xf4, 0xcb, 0xd9,
  0xb4, 0x13, 0x0d, 0xf9, 0x12, 0xfd, 0x23, 0xf5,
  0x3d, 0xa1, 0xe5, 0xca, 0x34, 0xc1, 0xbd, 0xc9,
  0xe8, 0x5a, 0xe2, 0x07, 0xfc, 0x22, 0x7f, 0xef,
  0xe6, 0x5c, 0x58, 0x7c, 0x5c, 0xf0, 0x53, 0x51,
  0x55, 0xe8, 0xce, 0x76, 0xeb, 0x1e, 0xe8, 0x04,
  0xdb, 0x35, 0x33, 0x33, 0xd4, 0x6a, 0x54, 0x44,
  0x21, 0xea, 0xfd, 0xfb, 0x42, 0xe9, 0xab, 0x2a,
  0x22, 0xcd, 0xca, 0xca, 0xec, 0x27, 0xf3, 0xb2,
  0xeb, 0x05, 0x21, 0xf6, 0x30, 0xcd, 0x22, 0xfd,
  0x1c, 0xd6, 0xc8, 0xb5, 0x06, 0xe2, 0x03, 0xee,
  0x30, 0x01, 0x0a, 0x37, 0x08, 0xf4, 0xeb, 0x44,
  0x11, 0xc5, 0xdb, 0xb8, 0xc6, 0x0a, 0xd5, 0xf4,
  0xcd, 0x2b, 0x05, 0xd8, 0x03, 0xc5, 0x2c, 0x3d,
  0xf8, 0xbe, 0xc0, 0xf4, 0x22, 0xcd, 0xe1, 0x25,
  0xe7, 0x3d, 0xde, 0xd7, 0xd9, 0x52, 0x69, 0xe8,
  0xfc, 0x42, 0x42, 0x6c, 0x3b, 0xee, 0x34, 0x1c,
  0x5d, 0x09, 0xc7, 0x31, 0xe7, 0x40, 0xf1, 0xc8,
  0xe2, 0x43, 0x62, 0x25, 0xd8, 0x4e, 0x3e, 0xee,
  0xf1, 0x52, 0xed, 0x09, 0xda, 0x49, 0x38, 0xc1,
  0xeb, 0x6b, 0x46, 0x33, 0x31, 0xe3, 0x15, 0x4b,
  0x6d, 0x0b, 0xea, 0x3c, 0xe7, 0x37, 0xf0, 0xf1,
  0xdc, 0x38, 0x60, 0x2f, 0xf3, 0x24, 0x34, 0x25,
  0xfd, 0xd0, 0x2d, 0xf5, 0x2a, 0xd6, 0xab, 0x00,
  0x31, 0xec, 0xc9, 0xbd, 0xdd, 0xf1, 0xca, 0xd3,
  0xf5, 0x3d, 0x39, 0xd2, 0xfe, 0xfe, 0x0c, 0xd9,
  0x1e, 0xd3, 0xd5, 0xac, 0x2f, 0xd6, 0xc2, 0xe0,
  0x07, 0xd9, 0x12, 0x38, 0x46, 0xbf, 0xbd, 0xf2,
  0x39, 0xcd, 0xe0, 0xc5, 0xbd, 0x11, 0xaf, 0xce,
  0xcc, 0x41, 0xea, 0xca, 0x33, 0xf2, 0x10, 0x10,
  0xf9, 0xc1, 0xa4, 0xee, 0xe6, 0xe1, 0xd4, 0x10,
  0x43, 0xe6, 0x22, 0x2c, 0xf2, 0xe9, 0xbd, 0xdf,
  0x25, 0xcf, 0xf1, 0xc1, 0xd5, 0xfe, 0xcf, 0xe5,
  0xaa, 0xe2, 0x0a, 0xc3, 0x32, 0xb8, 0x19, 0x18,
  0xfb, 0xe8, 0xe7, 0xe2, 0x2b, 0xf9, 0xcb, 0xe6,
  0xe1, 0xf4, 0xfc, 0x30, 0xc7, 0xaf, 0xb7, 0x10,
  0x43, 0xf1, 0xcf, 0xe8, 0xe3, 0x24, 0xda, 0xec,
  0xd6, 0x2a, 0xe8, 0xc3, 0xf3, 0xba, 0x39, 0xe2,
  0xfc, 0xd2, 0xf2, 0xbd, 0x08, 0xd8, 0xae, 0xe4,
  0xef, 0x57, 0x09, 0xbc, 0xff, 0x4b, 0x60, 0xd4,
  0xda, 0x46, 0x0d, 0x58, 0x57, 0x0b, 0x0e, 0x3a,
  0x4a, 0xe9, 0xcf, 0x78, 0xf7, 0x17, 0xef, 0xc5,
  0xe9, 0x43, 0x2b, 0x5b, 0xe8, 0x67, 0xf5, 0x31,
  0x29, 0x05, 0x0f, 0x20, 0x46, 0xcb, 0xb5, 0x04,
  0x0f, 0xce, 0xce, 0xd3, 0xbc, 0x2d, 0xd0, 0xc3,
  0xf9, 0x33, 0x11, 0x92, 0x33, 0xc4, 0x06, 0x09,
  0x24, 0xc6, 0xdd, 0xe3, 0xea, 0xe4, 0xb1, 0xd1,
  0x5a, 0xfe, 0xff, 0xff, 0x04, 0x00, 0x00, 0x00,
  0x40, 0x00, 0x00, 0x00, 0x8c, 0x09, 0x00, 0x00,
  0xe1, 0x0a, 0x00, 0x00, 0xcb, 0x08, 0x00, 0x00,
  0x25, 0x08, 0x00, 0x00, 0xfd, 0x05, 0x00, 0x00,
  0x09, 0x0f, 0x00, 0x00, 0x82, 0x06, 0x00, 0x00,
  0x11, 0x06, 0x00, 0x00, 0xde, 0x09, 0x00, 0x00,
  0x23, 0x0a, 0x00, 0x00, 0x95, 0x05, 0x00, 0x00,
  0x25, 0x0a, 0x00, 0x00, 0x9a, 0x03, 0x00, 0x00,
  0x7c, 0x05, 0x00, 0x00, 0x88, 0x08, 0x00, 0x00,
  0x89, 0x08, 0x00, 0x00, 0xa6, 0xfe, 0xff, 0xff,
  0x04, 0x00, 0x00, 0x00, 0x20, 0x00, 0x00, 0x00,
  0x5d, 0x48, 0xd8, 0x48, 0x5b, 0xd7, 0x5b, 0x50,
  0x9a, 0x94, 0x2d, 0x3e, 0x5b, 0x4b, 0xb0, 0x01,
  0xfb, 0xb2, 0x7f, 0xdc, 0xbf, 0x61, 0xe5, 0xde,
  0x3b, 0x3f, 0xce, 0xa9, 0xc2, 0x93, 0x4d, 0x8f,
  0xd2, 0xfe, 0xff, 0xff, 0x04, 0x00, 0x00, 0x00,
  0x08, 0x00, 0x00, 0x00, 0x28, 0xf5, 0xff, 0xff,
  0xd8, 0x0a, 0x00, 0x00, 0xe6, 0xfe, 0xff, 0xff,
  0x04, 0x00, 0x00, 0x00, 0x04, 0x00, 0x00, 0x00,
  0x01, 0x00, 0x00, 0x00, 0xf6, 0xfe, 0xff, 0xff,
  0x04, 0x00, 0x00, 0x00, 0x0c, 0x00, 0x00, 0x00,
  0xff, 0xff, 0xff, 0xff, 0x41, 0x00, 0x00, 0x00,
  0x20, 0x00, 0x00, 0x00, 0x0e, 0xff, 0xff, 0xff,
  0x04, 0x00, 0x00, 0x00, 0x0c, 0x00, 0x00, 0x00,
  0xff, 0xff, 0xff, 0xff, 0x41, 0x00, 0x00, 0x00,
  0x18, 0x00, 0x00, 0x00, 0x26, 0xff, 0xff, 0xff,
  0x04, 0x00, 0x00, 0x00, 0x04, 0x00, 0x00, 0x00,
  0xfd, 0xff, 0xff, 0xff, 0x14, 0xe9, 0xff, 0xff,
  0x18, 0xe9, 0xff, 0xff, 0x0f, 0x00, 0x00, 0x00,
  0x4d, 0x4c, 0x49, 0x52, 0x20, 0x43, 0x6f, 0x6e,
  0x76, 0x65, 0x72, 0x74, 0x65, 0x64, 0x2e, 0x00,
  0x01, 0x00, 0x00, 0x00, 0x14, 0x00, 0x00, 0x00,
  0x00, 0x00, 0x0e, 0x00, 0x18, 0x00, 0x14, 0x00,
  0x10, 0x00, 0x0c, 0x00, 0x08, 0x00, 0x04, 0x00,
  0x0e, 0x00, 0x00, 0x00, 0x14, 0x00, 0x00, 0x00,
  0x1c, 0x00, 0x00, 0x00, 0xfc, 0x02, 0x00, 0x00,
  0x00, 0x03, 0x00, 0x00, 0x04, 0x03, 0x00, 0x00,
  0x04, 0x00, 0x00, 0x00, 0x6d, 0x61, 0x69, 0x6e,
  0x00, 0x00, 0x00, 0x00, 0x0d, 0x00, 0x00, 0x00,
  0xc4, 0x02, 0x00, 0x00, 0x84, 0x02, 0x00, 0x00,
  0x24, 0x02, 0x00, 0x00, 0xfc, 0x01, 0x00, 0x00,
  0xbc, 0x01, 0x00, 0x00, 0x78, 0x01, 0x00, 0x00,
  0x50, 0x01, 0x00, 0x00, 0x1c, 0x01, 0x00, 0x00,
  0xd8, 0x00, 0x00, 0x00, 0x9c, 0x00, 0x00, 0x00,
  0x64, 0x00, 0x00, 0x00, 0x28, 0x00, 0x00, 0x00,
  0x04, 0x00, 0x00, 0x00, 0x36, 0xfe, 0xff, 0xff,
  0x0c, 0x00, 0x00, 0x00, 0x10, 0x00, 0x00, 0x00,
  0x07, 0x00, 0x00, 0x00, 0x01, 0x00, 0x00, 0x00,
  0x1b, 0x00, 0x00, 0x00, 0x01, 0x00, 0x00, 0x00,
  0x1a, 0x00, 0x00, 0x00, 0xda, 0xfd, 0xff, 0xff,
  0x1c, 0x00, 0x00, 0x00, 0x00, 0x00, 0x00, 0x09,
  0x1c, 0x00, 0x00, 0x00, 0x20, 0x00, 0x00, 0x00,
  0x06, 0x00, 0x00, 0x00, 0x00, 0x00, 0x06, 0x00,
  0x08, 0x00, 0x04, 0x00, 0x06, 0x00, 0x00, 0x00,
  0x00, 0x00, 0x80, 0x3f, 0x01, 0x00, 0x00, 0x00,
  0x1a, 0x00, 0x00, 0x00, 0x01, 0x00, 0x00, 0x00,
  0x19, 0x00, 0x00, 0x00, 0x12, 0xfe, 0xff, 0xff,
  0x14, 0x00, 0x00, 0x00, 0x00, 0x00, 0x00, 0x08,
  0x10, 0x00, 0x00, 0x00, 0x14, 0x00, 0x00, 0x00,
  0x05, 0x00, 0x00, 0x00, 0x14, 0xea, 0xff, 0xff,
  0x01, 0x00, 0x00, 0x00, 0x19, 0x00, 0x00, 0x00,
  0x03, 0x00, 0x00, 0x00, 0x18, 0x00, 0x00, 0x00,
  0x06, 0x00, 0x00, 0x00, 0x05, 0x00, 0x00, 0x00,
  0x46, 0xfe, 0xff, 0xff, 0x14, 0x00, 0x00, 0x00,
  0x00, 0x00, 0x00, 0x08, 0x14, 0x00, 0x00, 0x00,
  0x18, 0x00, 0x00, 0x00, 0x05, 0x00, 0x00, 0x00,
  0xc6, 0xff, 0xff, 0xff, 0x00, 0x00, 0x00, 0x01,
  0x01, 0x00, 0x00, 0x00, 0x18, 0x00, 0x00, 0x00,
  0x03, 0x00, 0x00, 0x00, 0x17, 0x00, 0x00, 0x00,
  0x08, 0x00, 0x00, 0x00, 0x07, 0x00, 0x00, 0x00,
  0x7e, 0xfe, 0xff, 0xff, 0x1c, 0x00, 0x00, 0x00,
  0x00, 0x00, 0x00, 0x08, 0x1c, 0x00, 0x00, 0x00,
  0x20, 0x00, 0x00, 0x00, 0x05, 0x00, 0x00, 0x00,
  0x00, 0x00, 0x06, 0x00, 0x08, 0x00, 0x07, 0x00,
  0x06, 0x00, 0x00, 0x00, 0x00, 0x00, 0x00, 0x01,
  0x01, 0x00, 0x00, 0x00, 0x17, 0x00, 0x00, 0x00,
  0x03, 0x00, 0x00, 0x00, 0x16, 0x00, 0x00, 0x00,
  0x0a, 0x00, 0x00, 0x00, 0x09, 0x00, 0x00, 0x00,
  0xbe, 0xfe, 0xff, 0xff, 0x14, 0x00, 0x00, 0x00,
  0x00, 0x00, 0x00, 0x1b, 0x10, 0x00, 0x00, 0x00,
  0x14, 0x00, 0x00, 0x00, 0x04, 0x00, 0x00, 0x00,
  0xc0, 0xea, 0xff, 0xff, 0x01, 0x00, 0x00, 0x00,
  0x16, 0x00, 0x00, 0x00, 0x02, 0x00, 0x00, 0x00,
  0x15, 0x00, 0x00, 0x00, 0x04, 0x00, 0x00, 0x00,
  0x6a, 0xff, 0xff, 0xff, 0x0c, 0x00, 0x00, 0x00,
  0x10, 0x00, 0x00, 0x00, 0x03, 0x00, 0x00, 0x00,
  0x01, 0x00, 0x00, 0x00, 0x15, 0x00, 0x00, 0x00,
  0x02, 0x00, 0x00, 0x00, 0x14, 0x00, 0x00, 0x00,
  0x03, 0x00, 0x00, 0x00, 0x12, 0xff, 0xff, 0xff,
  0x14, 0x00, 0x00, 0x00, 0x00, 0x00, 0x00, 0x01,
  0x1c, 0x00, 0x00, 0x00, 0x20, 0x00, 0x00, 0x00,
  0x02, 0x00, 0x00, 0x00, 0x60, 0xff, 0xff, 0xff,
  0x00, 0x00, 0x00, 0x01, 0x01, 0x00, 0x00, 0x00,
  0x01, 0x00, 0x00, 0x00, 0x01, 0x00, 0x00, 0x00,
  0x14, 0x00, 0x00, 0x00, 0x03, 0x00, 0x00, 0x00,
  0x13, 0x00, 0x00, 0x00, 0x0c, 0x00, 0x00, 0x00,
  0x0b, 0x00, 0x00, 0x00, 0x52, 0xff, 0xff, 0xff,
  0x14, 0x00, 0x00, 0x00, 0x00, 0x00, 0x00, 0x34,
  0x10, 0x00, 0x00, 0x00, 0x14, 0x00, 0x00, 0x00,
  0x01, 0x00, 0x00, 0x00, 0x54, 0xeb, 0xff, 0xff,
  0x01, 0x00, 0x00, 0x00, 0x13, 0x00, 0x00, 0x00,
  0x02, 0x00, 0x00, 0x00, 0x12, 0x00, 0x00, 0x00,
  0x01, 0x00, 0x00, 0x00, 0x00, 0x00, 0x0a, 0x00,
  0x10, 0x00, 0x0c, 0x00, 0x08, 0x00, 0x04, 0x00,
  0x0a, 0x00, 0x00, 0x00, 0x0c, 0x00, 0x00, 0x00,
  0x10, 0x00, 0x00, 0x00, 0x03, 0x00, 0x00, 0x00,
  0x01, 0x00, 0x00, 0x00, 0x12, 0x00, 0x00, 0x00,
  0x02, 0x00, 0x00, 0x00, 0x11, 0x00, 0x00, 0x00,
  0x02, 0x00, 0x00, 0x00, 0xb2, 0xff, 0xff, 0xff,
  0x20, 0x00, 0x00, 0x00, 0x00, 0x00, 0x00, 0x01,
  0x28, 0x00, 0x00, 0x00, 0x2c, 0x00, 0x00, 0x00,
  0x02, 0x00, 0x00, 0x00, 0x0c, 0x00, 0x10, 0x00,
  0x00, 0x00, 0x0c, 0x00, 0x08, 0x00, 0x07, 0x00,
  0x0c, 0x00, 0x00, 0x00, 0x00, 0x00, 0x00, 0x01,
  0x01, 0x00, 0x00, 0x00, 0x01, 0x00, 0x00, 0x00,
  0x01, 0x00, 0x00, 0x00, 0x11, 0x00, 0x00, 0x00,
  0x03, 0x00, 0x00, 0x00, 0x10, 0x00, 0x00, 0x00,
  0x0e, 0x00, 0x00, 0x00, 0x0d, 0x00, 0x00, 0x00,
  0x00, 0x00, 0x0e, 0x00, 0x18, 0x00, 0x14, 0x00,
  0x10, 0x00, 0x0c, 0x00, 0x0b, 0x00, 0x04, 0x00,
  0x0e, 0x00, 0x00, 0x00, 0x14, 0x00, 0x00, 0x00,
  0x00, 0x00, 0x00, 0x34, 0x10, 0x00, 0x00, 0x00,
  0x14, 0x00, 0x00, 0x00, 0x01, 0x00, 0x00, 0x00,
  0x10, 0xec, 0xff, 0xff, 0x01, 0x00, 0x00, 0x00,
  0x10, 0x00, 0x00, 0x00, 0x02, 0x00, 0x00, 0x00,
  0x0f, 0x00, 0x00, 0x00, 0x01, 0x00, 0x00, 0x00,
  0x00, 0x00, 0x0a, 0x00, 0x0c, 0x00, 0x00, 0x00,
  0x08, 0x00, 0x04, 0x00, 0x0a, 0x00, 0x00, 0x00,
  0x08, 0x00, 0x00, 0x00, 0x0c, 0x00, 0x00, 0x00,
  0x01, 0x00, 0x00, 0x00, 0x0f, 0x00, 0x00, 0x00,
  0x01, 0x00, 0x00, 0x00, 0x00, 0x00, 0x00, 0x00,
  0x01, 0x00, 0x00, 0x00, 0x1b, 0x00, 0x00, 0x00,
  0x01, 0x00, 0x00, 0x00, 0x00, 0x00, 0x00, 0x00,
  0x1c, 0x00, 0x00, 0x00, 0x70, 0x13, 0x00, 0x00,
  0x08, 0x13, 0x00, 0x00, 0xa4, 0x12, 0x00, 0x00,
  0x54, 0x12, 0x00, 0x00, 0xf0, 0x11, 0x00, 0x00,
  0x70, 0x11, 0x00, 0x00, 0x08, 0x11, 0x00, 0x00,
  0x94, 0x10, 0x00, 0x00, 0x28, 0x10, 0x00, 0x00,
  0xb4, 0x0f, 0x00, 0x00, 0x50, 0x0f, 0x00, 0x00,
  0x64, 0x0d, 0x00, 0x00, 0x80, 0x0b, 0x00, 0x00,
  0xfc, 0x09, 0x00, 0x00, 0x78, 0x08, 0x00, 0x00,
  0x00, 0x08, 0x00, 0x00, 0x58, 0x07, 0x00, 0x00,
  0x6c, 0x06, 0x00, 0x00, 0x9c, 0x05, 0x00, 0x00,
  0x04, 0x05, 0x00, 0x00, 0x08, 0x04, 0x00, 0x00,
  0x30, 0x03, 0x00, 0x00, 0xa8, 0x02, 0x00, 0x00,
  0x0c, 0x02, 0x00, 0x00, 0x68, 0x01, 0x00, 0x00,
  0xdc, 0x00, 0x00, 0x00, 0x60, 0x00, 0x00, 0x00,
  0x04, 0x00, 0x00, 0x00, 0x16, 0xed, 0xff, 0xff,
  0x00, 0x00, 0x00, 0x01, 0x14, 0x00, 0x00, 0x00,
  0x1c, 0x00, 0x00, 0x00, 0x1c, 0x00, 0x00, 0x00,
  0x1c, 0x00, 0x00, 0x00, 0x34, 0x00, 0x00, 0x00,
  0x02, 0x00, 0x00, 0x00, 0xff, 0xff, 0xff, 0xff,
  0x02, 0x00, 0x00, 0x00, 0xfc, 0xec, 0xff, 0xff,
  0x19, 0x00, 0x00, 0x00, 0x53, 0x74, 0x61, 0x74,
  0x65, 0x66, 0x75, 0x6c, 0x50, 0x61, 0x72, 0x74,
  0x69, 0x74, 0x69, 0x6f, 0x6e, 0x65, 0x64, 0x43,
  0x61, 0x6c, 0x6c, 0x3a, 0x30, 0x00, 0x00, 0x00,
  0x02, 0x00, 0x00, 0x00, 0x01, 0x00, 0x00, 0x00,
  0x02, 0x00, 0x00, 0x00, 0xa2, 0xf8, 0xff, 0xff,
  0x00, 0x00, 0x00, 0x01, 0x18, 0x00, 0x00, 0x00,
  0x20, 0x00, 0x00, 0x00, 0x3c, 0x00, 0x00, 0x00,
  0x1b, 0x00, 0x00, 0x00, 0x00, 0x00, 0x00, 0x09,
  0x50, 0x00, 0x00, 0x00, 0x02, 0x00, 0x00, 0x00,
  0xff, 0xff, 0xff, 0xff, 0x02, 0x00, 0x00, 0x00,
  0x54, 0xef, 0xff, 0xff, 0x08, 0x00, 0x00, 0x00,
  0x10, 0x00, 0x00, 0x00, 0x01, 0x00, 0x00, 0x00,
  0x80, 0xff, 0xff, 0xff, 0xff, 0xff, 0xff, 0xff,
  0x01, 0x00, 0x00, 0x00, 0x00, 0x00, 0x80, 0x3b,
  0x1a, 0x00, 0x00, 0x00, 0x53, 0x74, 0x61, 0x74,
  0x65, 0x66, 0x75, 0x6c, 0x50, 0x61, 0x72, 0x74,
  0x69, 0x74, 0x69, 0x6f, 0x6e, 0x65, 0x64, 0x43,
  0x61, 0x6c, 0x6c, 0x3a, 0x30, 0x31, 0x00, 0x00,
  0x02, 0x00, 0x00, 0x00, 0x01, 0x00, 0x00, 0x00,
  0x02, 0x00, 0x00, 0x00, 0x1a, 0xf9, 0xff, 0xff,
  0x00, 0x00, 0x00, 0x01, 0x18, 0x00, 0x00, 0x00,
  0x20, 0x00, 0x00, 0x00, 0x3c, 0x00, 0x00, 0x00,
  0x1a, 0x00, 0x00, 0x00, 0x00, 0x00, 0x00, 0x09,
  0x60, 0x00, 0x00, 0x00, 0x02, 0x00, 0x00, 0x00,
  0xff, 0xff, 0xff, 0xff, 0x02, 0x00, 0x00, 0x00,
  0xcc, 0xef, 0xff, 0xff, 0x08, 0x00, 0x00, 0x00,
  0x10, 0x00, 0x00, 0x00, 0x01, 0x00, 0x00, 0x00,
  0xf4, 0xff, 0xff, 0xff, 0xff, 0xff, 0xff, 0xff,
  0x01, 0x00, 0x00, 0x00, 0x60, 0xd3, 0x02, 0x3e,
  0x2a, 0x00, 0x00, 0x00, 0x6d, 0x6f, 0x64, 0x65,
  0x6c, 0x2f, 0x64, 0x65, 0x6e, 0x73, 0x65, 0x5f,
  0x32, 0x2f, 0x4d, 0x61, 0x74, 0x4d, 0x75, 0x6c,
  0x3b, 0x6d, 0x6f, 0x64, 0x65, 0x6c, 0x2f, 0x64,
  0x65, 0x6e, 0x73, 0x65, 0x5f, 0x32, 0x2f, 0x42,
  0x69, 0x61, 0x73, 0x41, 0x64, 0x64, 0x00, 0x00,
  0x02, 0x00, 0x00, 0x00, 0x01, 0x00, 0x00, 0x00,
  0x02, 0x00, 0x00, 0x00, 0xa2, 0xf9, 0xff, 0xff,
  0x00, 0x00, 0x00, 0x01, 0x18, 0x00, 0x00, 0x00,
  0x20, 0x00, 0x00, 0x00, 0x40, 0x00, 0x00, 0x00,
  0x19, 0x00, 0x00, 0x00, 0x00, 0x00, 0x00, 0x09,
  0x78, 0x00, 0x00, 0x00, 0x02, 0x00, 0x00, 0x00,
  0xff, 0xff, 0xff, 0xff, 0x10, 0x00, 0x00, 0x00,
  0x54, 0xf0, 0xff, 0xff, 0x08, 0x00, 0x00, 0x00,
  0x14, 0x00, 0x00, 0x00, 0x01, 0x00, 0x00, 0x00,
  0x80, 0xff, 0xff, 0xff, 0xff, 0xff, 0xff, 0xff,
  0x00, 0x00, 0x00, 0x00, 0x01, 0x00, 0x00, 0x00,
  0x2b, 0xd6, 0xcd, 0x3c, 0x3d, 0x00, 0x00, 0x00,
  0x6d, 0x6f, 0x64, 0x65, 0x6c, 0x2f, 0x64, 0x65,
  0x6e, 0x73, 0x65, 0x5f, 0x31, 0x2f, 0x4d, 0x61,
  0x74, 0x4d, 0x75, 0x6c, 0x3b, 0x6d, 0x6f, 0x64,
  0x65, 0x6c, 0x2f, 0x64, 0x65, 0x6e, 0x73, 0x65,
  0x5f, 0x31, 0x2f, 0x52, 0x65, 0x6c, 0x75, 0x3b,
  0x6d, 0x6f, 0x64, 0x65, 0x6c, 0x2f, 0x64, 0x65,
  0x6e, 0x73, 0x65, 0x5f, 0x31, 0x2f, 0x42, 0x69,
  0x61, 0x73, 0x41, 0x64, 0x64, 0x00, 0x00, 0x00,
  0x02, 0x00, 0x00, 0x00, 0x01, 0x00, 0x00, 0x00,
  0x10, 0x00, 0x00, 0x00, 0x42, 0xfa, 0xff, 0xff,
  0x00, 0x00, 0x00, 0x01, 0x18, 0x00, 0x00, 0x00,
  0x20, 0x00, 0x00, 0x00, 0x40, 0x00, 0x00, 0x00,
  0x18, 0x00, 0x00, 0x00, 0x00, 0x00, 0x00, 0x09,
  0x70, 0x00, 0x00, 0x00, 0x02, 0x00, 0x00, 0x00,
  0xff, 0xff, 0xff, 0xff, 0x20, 0x00, 0x00, 0x00,
  0xf4, 0xf0, 0xff, 0xff, 0x08, 0x00, 0x00, 0x00,
  0x14, 0x00, 0x00, 0x00, 0x01, 0x00, 0x00, 0x00,
  0x80, 0xff, 0xff, 0xff, 0xff, 0xff, 0xff, 0xff,
  0x00, 0x00, 0x00, 0x00, 0x01, 0x00, 0x00, 0x00,
  0x7f, 0x81, 0x18, 0x3c, 0x37, 0x00, 0x00, 0x00,
  0x6d, 0x6f, 0x64, 0x65, 0x6c, 0x2f, 0x64, 0x65,
  0x6e, 0x73, 0x65, 0x2f, 0x4d, 0x61, 0x74, 0x4d,
  0x75, 0x6c, 0x3b, 0x6d, 0x6f, 0x64, 0x65, 0x6c,
  0x2f, 0x64, 0x65, 0x6e, 0x73, 0x65, 0x2f, 0x52,
  0x65, 0x6c, 0x75, 0x3b, 0x6d, 0x6f, 0x64, 0x65,
  0x6c, 0x2f, 0x64, 0x65, 0x6e, 0x73, 0x65, 0x2f,
  0x42, 0x69, 0x61, 0x73, 0x41, 0x64, 0x64, 0x00,
  0x02, 0x00, 0x00, 0x00, 0x01, 0x00, 0x00, 0x00,
  0x20, 0x00, 0x00, 0x00, 0xda, 0xfa, 0xff, 0xff,
  0x00, 0x00, 0x00, 0x01, 0x18, 0x00, 0x00, 0x00,
  0x20, 0x00, 0x00, 0x00, 0x40, 0x00, 0x00, 0x00,
  0x17, 0x00, 0x00, 0x00, 0x00, 0x00, 0x00, 0x09,
  0x5c, 0x00, 0x00, 0x00, 0x02, 0x00, 0x00, 0x00,
  0xff, 0xff, 0xff, 0xff, 0x20, 0x00, 0x00, 0x00,
  0x8c, 0xf1, 0xff, 0xff, 0x08, 0x00, 0x00, 0x00,
  0x14, 0x00, 0x00, 0x00, 0x01, 0x00, 0x00, 0x00,
  0x80, 0xff, 0xff, 0xff, 0xff, 0xff, 0xff, 0xff,
  0x00, 0x00, 0x00, 0x00, 0x01, 0x00, 0x00, 0x00,
  0x6d, 0x96, 0x3d, 0x3c, 0x23, 0x00, 0x00, 0x00,
  0x6d, 0x6f, 0x64, 0x65, 0x6c, 0x2f, 0x67, 0x6c,
  0x6f, 0x62, 0x61, 0x6c, 0x5f, 0x61, 0x76, 0x65,
  0x72, 0x61, 0x67, 0x65, 0x5f, 0x70, 0x6f, 0x6f,
  0x6c, 0x69, 0x6e, 0x67, 0x31, 0x64, 0x2f, 0x4d,
  0x65, 0x61, 0x6e, 0x00, 0x02, 0x00, 0x00, 0x00,
  0x01, 0x00, 0x00, 0x00, 0x20, 0x00, 0x00, 0x00,
  0x5e, 0xfb, 0xff, 0xff, 0x00, 0x00, 0x00, 0x01,
  0x18, 0x00, 0x00, 0x00, 0x24, 0x00, 0x00, 0x00,
  0x40, 0x00, 0x00, 0x00, 0x16, 0x00, 0x00, 0x00,
  0x00, 0x00, 0x00, 0x09, 0xa8, 0x00, 0x00, 0x00,
  0x03, 0x00, 0x00, 0x00, 0xff, 0xff, 0xff, 0xff,
  0x41, 0x00, 0x00, 0x00, 0x20, 0x00, 0x00, 0x00,
  0x14, 0xf2, 0xff, 0xff, 0x08, 0x00, 0x00, 0x00,
  0x10, 0x00, 0x00, 0x00, 0x01, 0x00, 0x00, 0x00,
  0x80, 0xff, 0xff, 0xff, 0xff, 0xff, 0xff, 0xff,
  0x01, 0x00, 0x00, 0x00, 0x6f, 0x3b, 0x4e, 0x3d,
  0x6e, 0x00, 0x00, 0x00, 0x6d, 0x6f, 0x64, 0x65,
  0x6c, 0x2f, 0x63, 0x6f, 0x6e, 0x76, 0x31, 0x64,
  0x5f, 0x31, 0x2f, 0x52, 0x65, 0x6c, 0x75, 0x3b,
  0x6d, 0x6f, 0x64, 0x65, 0x6c, 0x2f, 0x63, 0x6f,
  0x6e, 0x76, 0x31, 0x64, 0x5f, 0x31, 0x2f, 0x42,
  0x69, 0x61, 0x73, 0x41, 0x64, 0x64, 0x3b, 0x6d,
  0x6f, 0x64, 0x65, 0x6c, 0x2f, 0x63, 0x6f, 0x6e,
  0x76, 0x31, 0x64, 0x5f, 0x31, 0x2f, 0x43, 0x6f,
  0x6e, 0x76, 0x31, 0x44, 0x2f, 0x53, 0x71, 0x75,
  0x65, 0x65, 0x7a, 0x65, 0x3b, 0x6d, 0x6f, 0x64,
  0x65, 0x6c, 0x2f, 0x63, 0x6f, 0x6e, 0x76, 0x31,
  0x64, 0x5f, 0x31, 0x2f, 0x42, 0x69, 0x61, 0x73,
  0x41, 0x64, 0x64, 0x2f, 0x52, 0x65, 0x61, 0x64,
  0x56, 0x61, 0x72, 0x69, 0x61, 0x62, 0x6c, 0x65,
  0x4f, 0x70, 0x00, 0x00, 0x03, 0x00, 0x00, 0x00,
  0x01, 0x00, 0x00, 0x00, 0x41, 0x00, 0x00, 0x00,
  0x20, 0x00, 0x00, 0x00, 0x32, 0xfc, 0xff, 0xff,
  0x00, 0x00, 0x00, 0x01, 0x18, 0x00, 0x00, 0x00,
  0x28, 0x00, 0x00, 0x00, 0x48, 0x00, 0x00, 0x00,
  0x15, 0x00, 0x00, 0x00, 0x00, 0x00, 0x00, 0x09,
  0xc8, 0x00, 0x00, 0x00, 0x04, 0x00, 0x00, 0x00,
  0xff, 0xff, 0xff, 0xff, 0x01, 0x00, 0x00, 0x00,
  0x41, 0x00, 0x00, 0x00, 0x20, 0x00, 0x00, 0x00,
  0xec, 0xf2, 0xff, 0xff, 0x08, 0x00, 0x00, 0x00,
  0x14, 0x00, 0x00, 0x00, 0x01, 0x00, 0x00, 0x00,
  0x80, 0xff, 0xff, 0xff, 0xff, 0xff, 0xff, 0xff,
  0x00, 0x00, 0x00, 0x00, 0x01, 0x00, 0x00, 0x00,
  0x6f, 0x3b, 0x4e, 0x3d, 0x84, 0x00, 0x00, 0x00,
  0x6d, 0x6f, 0x64, 0x65, 0x6c, 0x2f, 0x63, 0x6f,
  0x6e, 0x76, 0x31, 0x64, 0x5f, 0x31, 0x2f, 0x52,
  0x65, 0x6c, 0x75, 0x3b, 0x6d, 0x6f, 0x64, 0x65,
  0x6c, 0x2f, 0x63, 0x6f, 0x6e, 0x76, 0x31, 0x64,
  0x5f, 0x31, 0x2f, 0x42, 0x69, 0x61, 0x73, 0x41,
  0x64, 0x64, 0x3b, 0x6d, 0x6f, 0x64, 0x65, 0x6c,
  0x2f, 0x63, 0x6f, 0x6e, 0x76, 0x31, 0x64, 0x5f,
  0x31, 0x2f, 0x43, 0x6f, 0x6e, 0x76, 0x31, 0x44,
  0x2f, 0x53, 0x71, 0x75, 0x65, 0x65, 0x7a, 0x65,
  0x3b, 0x6d, 0x6f, 0x64, 0x65, 0x6c, 0x2f, 0x63,
  0x6f, 0x6e, 0x76, 0x31, 0x64, 0x5f, 0x31, 0x2f,
  0x42, 0x69, 0x61, 0x73, 0x41, 0x64, 0x64, 0x2f,
  0x52, 0x65, 0x61, 0x64, 0x56, 0x61, 0x72, 0x69,
  0x61, 0x62, 0x6c, 0x65, 0x4f, 0x70, 0x3b, 0x6d,
  0x6f, 0x64, 0x65, 0x6c, 0x2f, 0x63, 0x6f, 0x6e,
  0x76, 0x31, 0x64, 0x5f, 0x31, 0x2f, 0x43, 0x6f,
  0x6e, 0x76, 0x31, 0x44, 0x00, 0x00, 0x00, 0x00,
  0x04, 0x00, 0x00, 0x00, 0x01, 0x00, 0x00, 0x00,
  0x01, 0x00, 0x00, 0x00, 0x41, 0x00, 0x00, 0x00,
  0x20, 0x00, 0x00, 0x00, 0x2a, 0xfd, 0xff, 0xff,
  0x00, 0x00, 0x00, 0x01, 0x18, 0x00, 0x00, 0x00,
  0x28, 0x00, 0x00, 0x00, 0x48, 0x00, 0x00, 0x00,
  0x14, 0x00, 0x00, 0x00, 0x00, 0x00, 0x00, 0x09,
  0x64, 0x00, 0x00, 0x00, 0x04, 0x00, 0x00, 0x00,
  0xff, 0xff, 0xff, 0xff, 0x01, 0x00, 0x00, 0x00,
  0x41, 0x00, 0x00, 0x00, 0x18, 0x00, 0x00, 0x00,
  0xe4, 0xf3, 0xff, 0xff, 0x08, 0x00, 0x00, 0x00,
  0x14, 0x00, 0x00, 0x00, 0x01, 0x00, 0x00, 0x00,
  0x80, 0xff, 0xff, 0xff, 0xff, 0xff, 0xff, 0xff,
  0x00, 0x00, 0x00, 0x00, 0x01, 0x00, 0x00, 0x00,
  0x1c, 0xf6, 0x1b, 0x3d, 0x20, 0x00, 0x00, 0x00,
  0x6d, 0x6f, 0x64, 0x65, 0x6c, 0x2f, 0x63, 0x6f,
  0x6e, 0x76, 0x31, 0x64, 0x5f, 0x31, 0x2f, 0x43,
  0x6f, 0x6e, 0x76, 0x31, 0x44, 0x2f, 0x45, 0x78,
  0x70, 0x61, 0x6e, 0x64, 0x44, 0x69, 0x6d, 0x73,
  0x00, 0x00, 0x00, 0x00, 0x04, 0x00, 0x00, 0x00,
  0x01, 0x00, 0x00, 0x00, 0x01, 0x00, 0x00, 0x00,
  0x41, 0x00, 0x00, 0x00, 0x18, 0x00, 0x00, 0x00,
  0xbe, 0xfd, 0xff, 0xff, 0x00, 0x00, 0x00, 0x01,
  0x18, 0x00, 0x00, 0x00, 0x24, 0x00, 0x00, 0x00,
  0x40, 0x00, 0x00, 0x00, 0x13, 0x00, 0x00, 0x00,
  0x00, 0x00, 0x00, 0x09, 0xa0, 0x00, 0x00, 0x00,
  0x03, 0x00, 0x00, 0x00, 0xff, 0xff, 0xff, 0xff,
  0x41, 0x00, 0x00, 0x00, 0x18, 0x00, 0x00, 0x00,
  0x74, 0xf4, 0xff, 0xff, 0x08, 0x00, 0x00, 0x00,
  0x10, 0x00, 0x00, 0x00, 0x01, 0x00, 0x00, 0x00,
  0x80, 0xff, 0xff, 0xff, 0xff, 0xff, 0xff, 0xff,
  0x01, 0x00, 0x00, 0x00, 0x1c, 0xf6, 0x1b, 0x3d,
  0x66, 0x00, 0x00, 0x00, 0x6d, 0x6f, 0x64, 0x65,
  0x6c, 0x2f, 0x63, 0x6f, 0x6e, 0x76, 0x31, 0x64,
  0x2f, 0x52, 0x65, 0x6c, 0x75, 0x3b, 0x6d, 0x6f,
  0x64, 0x65, 0x6c, 0x2f, 0x63, 0x6f, 0x6e, 0x76,
  0x31, 0x64, 0x2f, 0x42, 0x69, 0x61, 0x73, 0x41,
  0x64, 0x64, 0x3b, 0x6d, 0x6f, 0x64, 0x65, 0x6c,
  0x2f, 0x63, 0x6f, 0x6e, 0x76, 0x31, 0x64, 0x2f,
  0x43, 0x6f, 0x6e, 0x76, 0x31, 0x44, 0x2f, 0x53,
  0x71, 0x75, 0x65, 0x65, 0x7a, 0x65, 0x3b, 0x6d,
  0x6f, 0x64, 0x65, 0x6c, 0x2f, 0x63, 0x6f, 0x6e,
  0x76, 0x31, 0x64, 0x2f, 0x42, 0x69, 0x61, 0x73,
  0x41, 0x64, 0x64, 0x2f, 0x52, 0x65, 0x61, 0x64,
  0x56, 0x61, 0x72, 0x69, 0x61, 0x62, 0x6c, 0x65,
  0x4f, 0x70, 0x00, 0x00, 0x03, 0x00, 0x00, 0x00,
  0x01, 0x00, 0x00, 0x00, 0x41, 0x00, 0x00, 0x00,
  0x18, 0x00, 0x00, 0x00, 0x8a, 0xfe, 0xff, 0xff,
  0x00, 0x00, 0x00, 0x01, 0x18, 0x00, 0x00, 0x00,
  0x28, 0x00, 0x00, 0x00, 0x44, 0x00, 0x00, 0x00,
  0x12, 0x00, 0x00, 0x00, 0x00, 0x00, 0x00, 0x09,
  0xb8, 0x00, 0x00, 0x00, 0x04, 0x00, 0x00, 0x00,
  0xff, 0xff, 0xff, 0xff, 0x01, 0x00, 0x00, 0x00,
  0x41, 0x00, 0x00, 0x00, 0x18, 0x00, 0x00, 0x00,
  0x44, 0xf5, 0xff, 0xff, 0x08, 0x00, 0x00, 0x00,
  0x10, 0x00, 0x00, 0x00, 0x01, 0x00, 0x00, 0x00,
  0x80, 0xff, 0xff, 0xff, 0xff, 0xff, 0xff, 0xff,
  0x01, 0x00, 0x00, 0x00, 0x1c, 0xf6, 0x1b, 0x3d,
  0x7a, 0x00, 0x00, 0x00, 0x6d, 0x6f, 0x64, 0x65,
  0x6c, 0x2f, 0x63, 0x6f, 0x6e, 0x76, 0x31, 0x64,
  0x2f, 0x52, 0x65, 0x6c, 0x75, 0x3b, 0x6d, 0x6f,
  0x64, 0x65, 0x6c, 0x2f, 0x63, 0x6f, 0x6e, 0x76,
  0x31, 0x64, 0x2f, 0x42, 0x69, 0x61, 0x73, 0x41,
  0x64, 0x64, 0x3b, 0x6d, 0x6f, 0x64, 0x65, 0x6c,
  0x2f, 0x63, 0x6f, 0x6e, 0x76, 0x31, 0x64, 0x2f,
  0x43, 0x6f, 0x6e, 0x76, 0x31, 0x44, 0x2f, 0x53,
  0x71, 0x75, 0x65, 0x65, 0x7a, 0x65, 0x3b, 0x6d,
  0x6f, 0x64, 0x65, 0x6c, 0x2f, 0x63, 0x6f, 0x6e,
  0x76, 0x31, 0x64, 0x2f, 0x42, 0x69, 0x61, 0x73,
  0x41, 0x64, 0x64, 0x2f, 0x52, 0x65, 0x61, 0x64,
  0x56, 0x61, 0x72, 0x69, 0x61, 0x62, 0x6c, 0x65,
  0x4f, 0x70, 0x3b, 0x6d, 0x6f, 0x64, 0x65, 0x6c,
  0x2f, 0x63, 0x6f, 0x6e, 0x76, 0x31, 0x64, 0x2f,
  0x43, 0x6f, 0x6e, 0x76, 0x31, 0x44, 0x00, 0x00,
  0x04, 0x00, 0x00, 0x00, 0x01, 0x00, 0x00, 0x00,
  0x01, 0x00, 0x00, 0x00, 0x41, 0x00, 0x00, 0x00,
  0x18, 0x00, 0x00, 0x00, 0x72, 0xff, 0xff, 0xff,
  0x00, 0x00, 0x00, 0x01, 0x18, 0x00, 0x00, 0x00,
  0x28, 0x00, 0x00, 0x00, 0x44, 0x00, 0x00, 0x00,
  0x11, 0x00, 0x00, 0x00, 0x00, 0x00, 0x00, 0x09,
  0x5c, 0x00, 0x00, 0x00, 0x04, 0x00, 0x00, 0x00,
  0xff, 0xff, 0xff, 0xff, 0x01, 0x00, 0x00, 0x00,
  0x41, 0x00, 0x00, 0x00, 0x06, 0x00, 0x00, 0x00,
  0x2c, 0xf6, 0xff, 0xff, 0x08, 0x00, 0x00, 0x00,
  0x10, 0x00, 0x00, 0x00, 0x01, 0x00, 0x00, 0x00,
  0x12, 0x00, 0x00, 0x00, 0x00, 0x00, 0x00, 0x00,
  0x01, 0x00, 0x00, 0x00, 0x2e, 0xf0, 0x8b, 0x3d,
  0x1e, 0x00, 0x00, 0x00, 0x6d, 0x6f, 0x64, 0x65,
  0x6c, 0x2f, 0x63, 0x6f, 0x6e, 0x76, 0x31, 0x64,
  0x2f, 0x43, 0x6f, 0x6e, 0x76, 0x31, 0x44, 0x2f,
  0x45, 0x78, 0x70, 0x61, 0x6e, 0x64, 0x44, 0x69,
  0x6d, 0x73, 0x00, 0x00, 0x04, 0x00, 0x00, 0x00,
  0x01, 0x00, 0x00, 0x00, 0x01, 0x00, 0x00, 0x00,
  0x41, 0x00, 0x00, 0x00, 0x06, 0x00, 0x00, 0x00,
  0x00, 0x00, 0x16, 0x00, 0x20, 0x00, 0x1c, 0x00,
  0x1b, 0x00, 0x14, 0x00, 0x10, 0x00, 0x0c, 0x00,
  0x00, 0x00, 0x00, 0x00, 0x08, 0x00, 0x07, 0x00,
  0x16, 0x00, 0x00, 0x00, 0x00, 0x00, 0x00, 0x01,
  0x18, 0x00, 0x00, 0x00, 0x24, 0x00, 0x00, 0x00,
  0x40, 0x00, 0x00, 0x00, 0x10, 0x00, 0x00, 0x00,
  0x00, 0x00, 0x00, 0x09, 0x48, 0x00, 0x00, 0x00,
  0x03, 0x00, 0x00, 0x00, 0xff, 0xff, 0xff, 0xff,
  0x41, 0x00, 0x00, 0x00, 0x06, 0x00, 0x00, 0x00,
  0xcc, 0xf6, 0xff, 0xff, 0x08, 0x00, 0x00, 0x00,
  0x10, 0x00, 0x00, 0x00, 0x01, 0x00, 0x00, 0x00,
  0x12, 0x00, 0x00, 0x00, 0x00, 0x00, 0x00, 0x00,
  0x01, 0x00, 0x00, 0x00, 0x2e, 0xf0, 0x8b, 0x3d,
  0x0c, 0x00, 0x00, 0x00, 0x74, 0x66, 0x6c, 0x2e,
  0x71, 0x75, 0x61, 0x6e, 0x74, 0x69, 0x7a, 0x65,
  0x00, 0x00, 0x00, 0x00, 0x03, 0x00, 0x00, 0x00,
  0x01, 0x00, 0x00, 0x00, 0x41, 0x00, 0x00, 0x00,
  0x06, 0x00, 0x00, 0x00, 0xba, 0xf5, 0xff, 0xff,
  0x00, 0x00, 0x00, 0x01, 0x14, 0x00, 0x00, 0x00,
  0x48, 0x01, 0x00, 0x00, 0x0f, 0x00, 0x00, 0x00,
  0x00, 0x00, 0x00, 0x09, 0x54, 0x01, 0x00, 0x00,
  0x2c, 0xf7, 0xff, 0xff, 0x08, 0x00, 0x00, 0x00,
  0xcc, 0x00, 0x00, 0x00, 0x18, 0x00, 0x00, 0x00,
  0x00, 0x00, 0x00, 0x00, 0x00, 0x00, 0x00, 0x00,
  0x00, 0x00, 0x00, 0x00, 0x00, 0x00, 0x00, 0x00,
  0x00, 0x00, 0x00, 0x00, 0x00, 0x00, 0x00, 0x00,
  0x00, 0x00, 0x00, 0x00, 0x00, 0x00, 0x00, 0x00,
  0x00, 0x00, 0x00, 0x00, 0x00, 0x00, 0x00, 0x00,
  0x00, 0x00, 0x00, 0x00, 0x00, 0x00, 0x00, 0x00,
  0x00, 0x00, 0x00, 0x00, 0x00, 0x00, 0x00, 0x00,
  0x00, 0x00, 0x00, 0x00, 0x00, 0x00, 0x00, 0x00,
  0x00, 0x00, 0x00, 0x00, 0x00, 0x00, 0x00, 0x00,
  0x00, 0x00, 0x00, 0x00, 0x00, 0x00, 0x00, 0x00,
  0x00, 0x00, 0x00, 0x00, 0x00, 0x00, 0x00, 0x00,
  0x00, 0x00, 0x00, 0x00, 0x00, 0x00, 0x00, 0x00,
  0x00, 0x00, 0x00, 0x00, 0x00, 0x00, 0x00, 0x00,
  0x00, 0x00, 0x00, 0x00, 0x00, 0x00, 0x00, 0x00,
  0x00, 0x00, 0x00, 0x00, 0x00, 0x00, 0x00, 0x00,
  0x00, 0x00, 0x00, 0x00, 0x00, 0x00, 0x00, 0x00,
  0x00, 0x00, 0x00, 0x00, 0x00, 0x00, 0x00, 0x00,
  0x00, 0x00, 0x00, 0x00, 0x00, 0x00, 0x00, 0x00,
  0x00, 0x00, 0x00, 0x00, 0x00, 0x00, 0x00, 0x00,
  0x00, 0x00, 0x00, 0x00, 0x00, 0x00, 0x00, 0x00,
  0x00, 0x00, 0x00, 0x00, 0x00, 0x00, 0x00, 0x00,
  0x00, 0x00, 0x00, 0x00, 0x00, 0x00, 0x00, 0x00,
  0x00, 0x00, 0x00, 0x00, 0x00, 0x00, 0x00, 0x00,
  0x00, 0x00, 0x00, 0x00, 0x00, 0x00, 0x00, 0x00,
  0x00, 0x00, 0x00, 0x00, 0x18, 0x00, 0x00, 0x00,
  0x8c, 0xef, 0x06, 0x3b, 0xe1, 0x31, 0x1c, 0x3b,
  0x94, 0x33, 0x00, 0x3b, 0x3a, 0x63, 0x17, 0x3b,
  0x4d, 0x86, 0x6f, 0x3b, 0xb6, 0xcd, 0x02, 0x3b,
  0xc1, 0xa4, 0x13, 0x3b, 0x01, 0xaa, 0x4c, 0x3b,
  0x71, 0x25, 0x43, 0x3b, 0x17, 0x56, 0x15, 0x3b,
  0x19, 0x6f, 0x52, 0x3b, 0x68, 0xa5, 0x57, 0x3b,
  0x94, 0x23, 0x62, 0x3b, 0xe0, 0x39, 0x53, 0x3b,
  0x66, 0x31, 0x07, 0x3b, 0x47, 0x06, 0x6e, 0x3b,
  0xba, 0x05, 0x44, 0x3b, 0xac, 0x1e, 0x27, 0x3b,
  0x8c, 0x1c, 0x19, 0x3b, 0xd2, 0xed, 0x10, 0x3b,
  0x8a, 0xd3, 0x10, 0x3b, 0xaf, 0x27, 0x36, 0x3b,
  0xb8, 0xf5, 0x1b, 0x3b, 0xc8, 0x40, 0x21, 0x3b,
  0x13, 0x00, 0x00, 0x00, 0x6d, 0x6f, 0x64, 0x65,
  0x6c, 0x2f, 0x63, 0x6f, 0x6e, 0x76, 0x31, 0x64,
  0x2f, 0x43, 0x6f, 0x6e, 0x76, 0x31, 0x44, 0x00,
  0x04, 0x00, 0x00, 0x00, 0x18, 0x00, 0x00, 0x00,
  0x01, 0x00, 0x00, 0x00, 0x05, 0x00, 0x00, 0x00,
  0x06, 0x00, 0x00, 0x00, 0x3a, 0xf7, 0xff, 0xff,
  0x00, 0x00, 0x00, 0x01, 0x14, 0x00, 0x00, 0x00,
  0x44, 0x01, 0x00, 0x00, 0x0e, 0x00, 0x00, 0x00,
  0x00, 0x00, 0x00, 0x02, 0x60, 0x01, 0x00, 0x00,
  0xac, 0xf8, 0xff, 0xff, 0x08, 0x00, 0x00, 0x00,
  0xc8, 0x00, 0x00, 0x00, 0x18, 0x00, 0x00, 0x00,
  0x00, 0x00, 0x00, 0x00, 0x00, 0x00, 0x00, 0x00,
  0x00, 0x00, 0x00, 0x00, 0x00, 0x00, 0x00, 0x00,
  0x00, 0x00, 0x00, 0x00, 0x00, 0x00, 0x00, 0x00,
  0x00, 0x00, 0x00, 0x00, 0x00, 0x00, 0x00, 0x00,
  0x00, 0x00, 0x00, 0x00, 0x00, 0x00, 0x00, 0x00,
  0x00, 0x00, 0x00, 0x00, 0x00, 0x00, 0x00, 0x00,
  0x00, 0x00, 0x00, 0x00, 0x00, 0x00, 0x00, 0x00,
  0x00, 0x00, 0x00, 0x00, 0x00, 0x00, 0x00, 0x00,
  0x00, 0x00, 0x00, 0x00, 0x00, 0x00, 0x00, 0x00,
  0x00, 0x00, 0x00, 0x00, 0x00, 0x00, 0x00, 0x00,
  0x00, 0x00, 0x00, 0x00, 0x00, 0x00, 0x00, 0x00,
  0x00, 0x00, 0x00, 0x00, 0x00, 0x00, 0x00, 0x00,
  0x00, 0x00, 0x00, 0x00, 0x00, 0x00, 0x00, 0x00,
  0x00, 0x00, 0x00, 0x00, 0x00, 0x00, 0x00, 0x00,
  0x00, 0x00, 0x00, 0x00, 0x00, 0x00, 0x00, 0x00,
  0x00, 0x00, 0x00, 0x00, 0x00, 0x00, 0x00, 0x00,
  0x00, 0x00, 0x00, 0x00, 0x00, 0x00, 0x00, 0x00,
  0x00, 0x00, 0x00, 0x00, 0x00, 0x00, 0x00, 0x00,
  0x00, 0x00, 0x00, 0x00, 0x00, 0x00, 0x00, 0x00,
  0x00, 0x00, 0x00, 0x00, 0x00, 0x00, 0x00, 0x00,
  0x00, 0x00, 0x00, 0x00, 0x00, 0x00, 0x00, 0x00,
  0x00, 0x00, 0x00, 0x00, 0x00, 0x00, 0x00, 0x00,
  0x00, 0x00, 0x00, 0x00, 0x00, 0x00, 0x00, 0x00,
  0x00, 0x00, 0x00, 0x00, 0x00, 0x00, 0x00, 0x00,
  0x18, 0x00, 0x00, 0x00, 0x54, 0x85, 0x13, 0x39,
  0x40, 0xc3, 0x2a, 0x39, 0x92, 0x28, 0x0c, 0x39,
  0xd1, 0x81, 0x25, 0x39, 0xa5, 0xee, 0x82, 0x39,
  0xd4, 0x00, 0x0f, 0x39, 0xf4, 0x69, 0x21, 0x39,
  0xa5, 0xc0, 0x5f, 0x39, 0xd5, 0x58, 0x55, 0x39,
  0xb4, 0x43, 0x23, 0x39, 0x81, 0x0f, 0x66, 0x39,
  0x43, 0xc2, 0x6b, 0x39, 0xf7, 0x3a, 0x77, 0x39,
  0x32, 0xed, 0x66, 0x39, 0x52, 0xcd, 0x13, 0x39,
  0xb9, 0x1c, 0x82, 0x39, 0x09, 0x4e, 0x56, 0x39,
  0xe4, 0xb4, 0x36, 0x39, 0x4d, 0x64, 0x27, 0x39,
  0x34, 0x72, 0x1e, 0x39, 0x79, 0x55, 0x1e, 0x39,
  0xe4, 0x24, 0x47, 0x39, 0x7b, 0x81, 0x2a, 0x39,
  0xed, 0x4a, 0x30, 0x39, 0x23, 0x00, 0x00, 0x00,
  0x6d, 0x6f, 0x64, 0x65, 0x6c, 0x2f, 0x63, 0x6f,
  0x6e, 0x76, 0x31, 0x64, 0x2f, 0x42, 0x69, 0x61,
  0x73, 0x41, 0x64, 0x64, 0x2f, 0x52, 0x65, 0x61,
  0x64, 0x56, 0x61, 0x72, 0x69, 0x61, 0x62, 0x6c,
  0x65, 0x4f, 0x70, 0x00, 0x01, 0x00, 0x00, 0x00,
  0x18, 0x00, 0x00, 0x00, 0xba, 0xf8, 0xff, 0xff,
  0x00, 0x00, 0x00, 0x01, 0x14, 0x00, 0x00, 0x00,
  0xa4, 0x01, 0x00, 0x00, 0x0d, 0x00, 0x00, 0x00,
  0x00, 0x00, 0x00, 0x09, 0xb4, 0x01, 0x00, 0x00,
  0x2c, 0xfa, 0xff, 0xff, 0x08, 0x00, 0x00, 0x00,
  0x08, 0x01, 0x00, 0x00, 0x20, 0x00, 0x00, 0x00,
  0x00, 0x00, 0x00, 0x00, 0x00, 0x00, 0x00, 0x00,
  0x00, 0x00, 0x00, 0x00, 0x00, 0x00, 0x00, 0x00,
  0x00, 0x00, 0x00, 0x00, 0x00, 0x00, 0x00, 0x00,
  0x00, 0x00, 0x00, 0x00, 0x00, 0x00, 0x00, 0x00,
  0x00, 0x00, 0x00, 0x00, 0x00, 0x00, 0x00, 0x00,
  0x00, 0x00, 0x00, 0x00, 0x00, 0x00, 0x00, 0x00,
  0x00, 0x00, 0x00, 0x00, 0x00, 0x00, 0x00, 0x00,
  0x00, 0x00, 0x00, 0x00, 0x00, 0x00, 0x00, 0x00,
  0x00, 0x00, 0x00, 0x00, 0x00, 0x00, 0x00, 0x00,
  0x00, 0x00, 0x00, 0x00, 0x00, 0x00, 0x00, 0x00,
  0x00, 0x00, 0x00, 0x00, 0x00, 0x00, 0x00, 0x00,
  0x00, 0x00, 0x00, 0x00, 0x00, 0x00, 0x00, 0x00,
  0x00, 0x00, 0x00, 0x00, 0x00, 0x00, 0x00, 0x00,
  0x00, 0x00, 0x00, 0x00, 0x00, 0x00, 0x00, 0x00,
  0x00, 0x00, 0x00, 0x00, 0x00, 0x00, 0x00, 0x00,
  0x00, 0x00, 0x00, 0x00, 0x00, 0x00, 0x00, 0x00,
  0x00, 0x00, 0x00, 0x00, 0x00, 0x00, 0x00, 0x00,
  0x00, 0x00, 0x00, 0x00, 0x00, 0x00, 0x00, 0x00,
  0x00, 0x00, 0x00, 0x00, 0x00, 0x00, 0x00, 0x00,
  0x00, 0x00, 0x00, 0x00, 0x00, 0x00, 0x00, 0x00,
  0x00, 0x00, 0x00, 0x00, 0x00, 0x00, 0x00, 0x00,
  0x00, 0x00, 0x00, 0x00, 0x00, 0x00, 0x00, 0x00,
  0x00, 0x00, 0x00, 0x00, 0x00, 0x00, 0x00, 0x00,
  0x00, 0x00, 0x00, 0x00, 0x00, 0x00, 0x00, 0x00,
  0x00, 0x00, 0x00, 0x00, 0x00, 0x00, 0x00, 0x00,
  0x00, 0x00, 0x00, 0x00, 0x00, 0x00, 0x00, 0x00,
  0x00, 0x00, 0x00, 0x00, 0x00, 0x00, 0x00, 0x00,
  0x00, 0x00, 0x00, 0x00, 0x00, 0x00, 0x00, 0x00,
  0x00, 0x00, 0x00, 0x00, 0x00, 0x00, 0x00, 0x00,
  0x00, 0x00, 0x00, 0x00, 0x00, 0x00, 0x00, 0x00,
  0x00, 0x00, 0x00, 0x00, 0x00, 0x00, 0x00, 0x00,
  0x00, 0x00, 0x00, 0x00, 0x00, 0x00, 0x00, 0x00,
  0x20, 0x00, 0x00, 0x00, 0xec, 0xe0, 0x2a, 0x3b,
  0xb1, 0x97, 0x40, 0x3b, 0x9c, 0x3e, 0x76, 0x3b,
  0xe2, 0x73, 0x69, 0x3b, 0x16, 0xa6, 0x35, 0x3b,
  0x6c, 0xde, 0x7c, 0x3b, 0x5d, 0x09, 0x34, 0x3b,
  0xf3, 0x63, 0x1b, 0x3b, 0x63, 0x5d, 0x70, 0x3b,
  0x10, 0x99, 0x38, 0x3b, 0xbb, 0x4c, 0x6e, 0x3b,
  0x4b, 0xcc, 0x4d, 0x3b, 0x99, 0x9c, 0x48, 0x3b,
  0x2a, 0x9c, 0x1a, 0x3b, 0xea, 0x58, 0xba, 0x3b,
  0xd3, 0x36, 0x27, 0x3b, 0x2a, 0x9d, 0x43, 0x3b,
  0x7a, 0xee, 0x02, 0x3b, 0x90, 0xd4, 0x22, 0x3b,
  0x75, 0x82, 0x8e, 0x3b, 0xb8, 0xbb, 0x25, 0x3b,
  0xbf, 0x69, 0xae, 0x3b, 0xc3, 0x7e, 0x5e, 0x3b,
  0xcc, 0x07, 0xab, 0x3b, 0x36, 0x46, 0x24, 0x3b,
  0x04, 0x6a, 0x9c, 0x3b, 0x47, 0xa2, 0x81, 0x3b,
  0x6c, 0xda, 0x21, 0x3b, 0x63, 0x2c, 0x9f, 0x3b,
  0x93, 0x0e, 0xc5, 0x3b, 0x23, 0xbc, 0x2b, 0x3b,
  0x06, 0x13, 0x69, 0x3b, 0x15, 0x00, 0x00, 0x00,
  0x6d, 0x6f, 0x64, 0x65, 0x6c, 0x2f, 0x63, 0x6f,
  0x6e, 0x76, 0x31, 0x64, 0x5f, 0x31, 0x2f, 0x43,
  0x6f, 0x6e, 0x76, 0x31, 0x44, 0x00, 0x00, 0x00,
  0x04, 0x00, 0x00, 0x00, 0x20, 0x00, 0x00, 0x00,
  0x01, 0x00, 0x00, 0x00, 0x05, 0x00, 0x00, 0x00,
  0x18, 0x00, 0x00, 0x00, 0x9a, 0xfa, 0xff, 0xff,
  0x00, 0x00, 0x00, 0x01, 0x14, 0x00, 0x00, 0x00,
  0xa8, 0x01, 0x00, 0x00, 0x0c, 0x00, 0x00, 0x00,
  0x00, 0x00, 0x00, 0x02, 0xc8, 0x01, 0x00, 0x00,
  0x0c, 0xfc, 0xff, 0xff, 0x08, 0x00, 0x00, 0x00,
  0x0c, 0x01, 0x00, 0x00, 0x20, 0x00, 0x00, 0x00,
  0x00, 0x00, 0x00, 0x00, 0x00, 0x00, 0x00, 0x00,
  0x00, 0x00, 0x00, 0x00, 0x00, 0x00, 0x00, 0x00,
  0x00, 0x00, 0x00, 0x00, 0x00, 0x00, 0x00, 0x00,
  0x00, 0x00, 0x00, 0x00, 0x00, 0x00, 0x00, 0x00,
  0x00, 0x00, 0x00, 0x00, 0x00, 0x00, 0x00, 0x00,
  0x00, 0x00, 0x00, 0x00, 0x00, 0x00, 0x00, 0x00,
  0x00, 0x00, 0x00, 0x00, 0x00, 0x00, 0x00, 0x00,
  0x00, 0x00, 0x00, 0x00, 0x00, 0x00, 0x00, 0x00,
  0x00, 0x00, 0x00, 0x00, 0x00, 0x00, 0x00, 0x00,
  0x00, 0x00, 0x00, 0x00, 0x00, 0x00, 0x00, 0x00,
  0x00, 0x00, 0x00, 0x00, 0x00, 0x00, 0x00, 0x00,
  0x00, 0x00, 0x00, 0x00, 0x00, 0x00, 0x00, 0x00,
  0x00, 0x00, 0x00, 0x00, 0x00, 0x00, 0x00, 0x00,
  0x00, 0x00, 0x00, 0x00, 0x00, 0x00, 0x00, 0x00,
  0x00, 0x00, 0x00, 0x00, 0x00, 0x00, 0x00, 0x00,
  0x00, 0x00, 0x00, 0x00, 0x00, 0x00, 0x00, 0x00,
  0x00, 0x00, 0x00, 0x00, 0x00, 0x00, 0x00, 0x00,
  0x00, 0x00, 0x00, 0x00, 0x00, 0x00, 0x00, 0x00,
  0x00, 0x00, 0x00, 0x00, 0x00, 0x00, 0x00, 0x00,
  0x00, 0x00, 0x00, 0x00, 0x00, 0x00, 0x00, 0x00,
  0x00, 0x00, 0x00, 0x00, 0x00, 0x00, 0x00, 0x00,
  0x00, 0x00, 0x00, 0x00, 0x00, 0x00, 0x00, 0x00,
  0x00, 0x00, 0x00, 0x00, 0x00, 0x00, 0x00, 0x00,
  0x00, 0x00, 0x00, 0x00, 0x00, 0x00, 0x00, 0x00,
  0x00, 0x00, 0x00, 0x00, 0x00, 0x00, 0x00, 0x00,
  0x00, 0x00, 0x00, 0x00, 0x00, 0x00, 0x00, 0x00,
  0x00, 0x00, 0x00, 0x00, 0x00, 0x00, 0x00, 0x00,
  0x00, 0x00, 0x00, 0x00, 0x00, 0x00, 0x00, 0x00,
  0x00, 0x00, 0x00, 0x00, 0x00, 0x00, 0x00, 0x00,
  0x00, 0x00, 0x00, 0x00, 0x00, 0x00, 0x00, 0x00,
  0x00, 0x00, 0x00, 0x00, 0x00, 0x00, 0x00, 0x00,
  0x00, 0x00, 0x00, 0x00, 0x00, 0x00, 0x00, 0x00,
  0x00, 0x00, 0x00, 0x00, 0x20, 0x00, 0x00, 0x00,
  0xeb, 0x34, 0xd0, 0x38, 0xfe, 0xa9, 0xea, 0x38,
  0xa4, 0x04, 0x16, 0x39, 0x99, 0x39, 0x0e, 0x39,
  0x62, 0x54, 0xdd, 0x38, 0xc5, 0x0d, 0x1a, 0x39,
  0x80, 0x5d, 0xdb, 0x38, 0xce, 0x55, 0xbd, 0x38,
  0x9f, 0x6f, 0x12, 0x39, 0x48, 0xec, 0xe0, 0x38,
  0x8d, 0x2d, 0x11, 0x39, 0x14, 0xc1, 0xfa, 0x38,
  0x5a, 0x6f, 0xf4, 0x38, 0x61, 0x62, 0xbc, 0x38,
  0xf7, 0x0d, 0x63, 0x39, 0xe5, 0xbd, 0xcb, 0x38,
  0x6e, 0x58, 0xee, 0x38, 0x87, 0x88, 0x9f, 0x38,
  0x7b, 0x66, 0xc6, 0x38, 0xfc, 0xa3, 0x2d, 0x39,
  0xfa, 0xef, 0xc9, 0x38, 0x67, 0x83, 0x54, 0x39,
  0xa6, 0x8c, 0x07, 0x39, 0x49, 0x64, 0x50, 0x39,
  0xe0, 0x28, 0xc8, 0x38, 0x1f, 0x95, 0x3e, 0x39,
  0xc2, 0xf3, 0x1d, 0x39, 0xb2, 0x35, 0xc5, 0x38,
  0xcc, 0xf1, 0x41, 0x39, 0x89, 0x1a, 0x70, 0x39,
  0x06, 0x40, 0xd1, 0x38, 0x96, 0xfe, 0x0d, 0x39,
  0x25, 0x00, 0x00, 0x00, 0x6d, 0x6f, 0x64, 0x65,
  0x6c, 0x2f, 0x63, 0x6f, 0x6e, 0x76, 0x31, 0x64,
  0x5f, 0x31, 0x2f, 0x42, 0x69, 0x61, 0x73, 0x41,
  0x64, 0x64, 0x2f, 0x52, 0x65, 0x61, 0x64, 0x56,
  0x61, 0x72, 0x69, 0x61, 0x62, 0x6c, 0x65, 0x4f,
  0x70, 0x00, 0x00, 0x00, 0x01, 0x00, 0x00, 0x00,
  0x20, 0x00, 0x00, 0x00, 0x82, 0xfc, 0xff, 0xff,
  0x00, 0x00, 0x00, 0x01, 0x14, 0x00, 0x00, 0x00,
  0x30, 0x00, 0x00, 0x00, 0x0b, 0x00, 0x00, 0x00,
  0x00, 0x00, 0x00, 0x09, 0x3c, 0x00, 0x00, 0x00,
  0xf4, 0xfd, 0xff, 0xff, 0x08, 0x00, 0x00, 0x00,
  0x10, 0x00, 0x00, 0x00, 0x01, 0x00, 0x00, 0x00,
  0x00, 0x00, 0x00, 0x00, 0x00, 0x00, 0x00, 0x00,
  0x01, 0x00, 0x00, 0x00, 0x7a, 0xa9, 0xb8, 0x3b,
  0x12, 0x00, 0x00, 0x00, 0x6d, 0x6f, 0x64, 0x65,
  0x6c, 0x2f, 0x64, 0x65, 0x6e, 0x73, 0x65, 0x2f,
  0x4d, 0x61, 0x74, 0x4d, 0x75, 0x6c, 0x00, 0x00,
  0x02, 0x00, 0x00, 0x00, 0x20, 0x00, 0x00, 0x00,
  0x20, 0x00, 0x00, 0x00, 0xe2, 0xfc, 0xff, 0xff,
  0x00, 0x00, 0x00, 0x01, 0x14, 0x00, 0x00, 0x00,
  0x34, 0x00, 0x00, 0x00, 0x0a, 0x00, 0x00, 0x00,
  0x00, 0x00, 0x00, 0x02, 0x50, 0x00, 0x00, 0x00,
  0x54, 0xfe, 0xff, 0xff, 0x08, 0x00, 0x00, 0x00,
  0x14, 0x00, 0x00, 0x00, 0x01, 0x00, 0x00, 0x00,
  0x00, 0x00, 0x00, 0x00, 0x00, 0x00, 0x00, 0x00,
  0x00, 0x00, 0x00, 0x00, 0x01, 0x00, 0x00, 0x00,
  0xa1, 0xc1, 0x88, 0x38, 0x22, 0x00, 0x00, 0x00,
  0x6d, 0x6f, 0x64, 0x65, 0x6c, 0x2f, 0x64, 0x65,
  0x6e, 0x73, 0x65, 0x2f, 0x42, 0x69, 0x61, 0x73,
  0x41, 0x64, 0x64, 0x2f, 0x52, 0x65, 0x61, 0x64,
  0x56, 0x61, 0x72, 0x69, 0x61, 0x62, 0x6c, 0x65,
  0x4f, 0x70, 0x00, 0x00, 0x01, 0x00, 0x00, 0x00,
  0x20, 0x00, 0x00, 0x00, 0x52, 0xfd, 0xff, 0xff,
  0x00, 0x00, 0x00, 0x01, 0x14, 0x00, 0x00, 0x00,
  0x34, 0x00, 0x00, 0x00, 0x09, 0x00, 0x00, 0x00,
  0x00, 0x00, 0x00, 0x09, 0x44, 0x00, 0x00, 0x00,
  0xc4, 0xfe, 0xff, 0xff, 0x08, 0x00, 0x00, 0x00,
  0x14, 0x00, 0x00, 0x00, 0x01, 0x00, 0x00, 0x00,
  0x00, 0x00, 0x00, 0x00, 0x00, 0x00, 0x00, 0x00,
  0x00, 0x00, 0x00, 0x00, 0x01, 0x00, 0x00, 0x00,
  0xdd, 0x99, 0xe1, 0x3b, 0x14, 0x00, 0x00, 0x00,
  0x6d, 0x6f, 0x64, 0x65, 0x6c, 0x2f, 0x64, 0x65,
  0x6e, 0x73, 0x65, 0x5f, 0x31, 0x2f, 0x4d, 0x61,
  0x74, 0x4d, 0x75, 0x6c, 0x00, 0x00, 0x00, 0x00,
  0x02, 0x00, 0x00, 0x00, 0x10, 0x00, 0x00, 0x00,
  0x20, 0x00, 0x00, 0x00, 0xba, 0xfd, 0xff, 0xff,
  0x00, 0x00, 0x00, 0x01, 0x14, 0x00, 0x00, 0x00,
  0x30, 0x00, 0x00, 0x00, 0x08, 0x00, 0x00, 0x00,
  0x00, 0x00, 0x00, 0x02, 0x50, 0x00, 0x00, 0x00,
  0x2c, 0xff, 0xff, 0xff, 0x08, 0x00, 0x00, 0x00,
  0x10, 0x00, 0x00, 0x00, 0x01, 0x00, 0x00, 0x00,
  0x00, 0x00, 0x00, 0x00, 0x00, 0x00, 0x00, 0x00,
  0x01, 0x00, 0x00, 0x00, 0x7a, 0x65, 0x86, 0x38,
  0x24, 0x00, 0x00, 0x00, 0x6d, 0x6f, 0x64, 0x65,
  0x6c, 0x2f, 0x64, 0x65, 0x6e, 0x73, 0x65, 0x5f,
  0x31, 0x2f, 0x42, 0x69, 0x61, 0x73, 0x41, 0x64,
  0x64, 0x2f, 0x52, 0x65, 0x61, 0x64, 0x56, 0x61,
  0x72, 0x69, 0x61, 0x62, 0x6c, 0x65, 0x4f, 0x70,
  0x00, 0x00, 0x00, 0x00, 0x01, 0x00, 0x00, 0x00,
  0x10, 0x00, 0x00, 0x00, 0x2a, 0xfe, 0xff, 0xff,
  0x00, 0x00, 0x00, 0x01, 0x14, 0x00, 0x00, 0x00,
  0x30, 0x00, 0x00, 0x00, 0x07, 0x00, 0x00, 0x00,
  0x00, 0x00, 0x00, 0x09, 0x40, 0x00, 0x00, 0x00,
  0x9c, 0xff, 0xff, 0xff, 0x08, 0x00, 0x00, 0x00,
  0x10, 0x00, 0x00, 0x00, 0x01, 0x00, 0x00, 0x00,
  0x00, 0x00, 0x00, 0x00, 0x00, 0x00, 0x00, 0x00,
  0x01, 0x00, 0x00, 0x00, 0xc9, 0xe6, 0xe3, 0x3b,
  0x14, 0x00, 0x00, 0x00, 0x6d, 0x6f, 0x64, 0x65,
  0x6c, 0x2f, 0x64, 0x65, 0x6e, 0x73, 0x65, 0x5f,
  0x32, 0x2f, 0x4d, 0x61, 0x74, 0x4d, 0x75, 0x6c,
  0x00, 0x00, 0x00, 0x00, 0x02, 0x00, 0x00, 0x00,
  0x02, 0x00, 0x00, 0x00, 0x10, 0x00, 0x00, 0x00,
  0x8e, 0xfe, 0xff, 0xff, 0x00, 0x00, 0x00, 0x01,
  0x20, 0x00, 0x00, 0x00, 0x3c, 0x00, 0x00, 0x00,
  0x06, 0x00, 0x00, 0x00, 0x00, 0x00, 0x00, 0x02,
  0x5c, 0x00, 0x00, 0x00, 0x0c, 0x00, 0x0c, 0x00,
  0x00, 0x00, 0x00, 0x00, 0x08, 0x00, 0x04, 0x00,
  0x0c, 0x00, 0x00, 0x00, 0x08, 0x00, 0x00, 0x00,
  0x10, 0x00, 0x00, 0x00, 0x01, 0x00, 0x00, 0x00,
  0x00, 0x00, 0x00, 0x00, 0x00, 0x00, 0x00, 0x00,
  0x01, 0x00, 0x00, 0x00, 0x78, 0x3e, 0x37, 0x39,
  0x24, 0x00, 0x00, 0x00, 0x6d, 0x6f, 0x64, 0x65,
  0x6c, 0x2f, 0x64, 0x65, 0x6e, 0x73, 0x65, 0x5f,
  0x32, 0x2f, 0x42, 0x69, 0x61, 0x73, 0x41, 0x64,
  0x64, 0x2f, 0x52, 0x65, 0x61, 0x64, 0x56, 0x61,
  0x72, 0x69, 0x61, 0x62, 0x6c, 0x65, 0x4f, 0x70,
  0x00, 0x00, 0x00, 0x00, 0x01, 0x00, 0x00, 0x00,
  0x02, 0x00, 0x00, 0x00, 0x0a, 0xff, 0xff, 0xff,
  0x00, 0x00, 0x00, 0x01, 0x14, 0x00, 0x00, 0x00,
  0x14, 0x00, 0x00, 0x00, 0x05, 0x00, 0x00, 0x00,
  0x00, 0x00, 0x00, 0x02, 0x44, 0x00, 0x00, 0x00,
  0x80, 0xfe, 0xff, 0xff, 0x35, 0x00, 0x00, 0x00,
  0x6d, 0x6f, 0x64, 0x65, 0x6c, 0x2f, 0x67, 0x6c,
  0x6f, 0x62, 0x61, 0x6c, 0x5f, 0x61, 0x76, 0x65,
  0x72, 0x61, 0x67, 0x65, 0x5f, 0x70, 0x6f, 0x6f,
  0x6c, 0x69, 0x6e, 0x67, 0x31, 0x64, 0x2f, 0x4d,
  0x65, 0x61, 0x6e, 0x2f, 0x72, 0x65, 0x64, 0x75,
  0x63, 0x74, 0x69, 0x6f, 0x6e, 0x5f, 0x69, 0x6e,
  0x64, 0x69, 0x63, 0x65, 0x73, 0x00, 0x00, 0x00,
  0x00, 0x00, 0x00, 0x00, 0x6a, 0xff, 0xff, 0xff,
  0x00, 0x00, 0x00, 0x01, 0x14, 0x00, 0x00, 0x00,
  0x14, 0x00, 0x00, 0x00, 0x04, 0x00, 0x00, 0x00,
  0x00, 0x00, 0x00, 0x02, 0x2c, 0x00, 0x00, 0x00,
  0xe0, 0xfe, 0xff, 0xff, 0x1d, 0x00, 0x00, 0x00,
  0x6d, 0x6f, 0x64, 0x65, 0x6c, 0x2f, 0x63, 0x6f,
  0x6e, 0x76, 0x31, 0x64, 0x5f, 0x31, 0x2f, 0x43,
  0x6f, 0x6e, 0x76, 0x31, 0x44, 0x2f, 0x53, 0x71,
  0x75, 0x65, 0x65, 0x7a, 0x65, 0x00, 0x00, 0x00,
  0x01, 0x00, 0x00, 0x00, 0x03, 0x00, 0x00, 0x00,
  0xb6, 0xff, 0xff, 0xff, 0x00, 0x00, 0x00, 0x01,
  0x14, 0x00, 0x00, 0x00, 0x14, 0x00, 0x00, 0x00,
  0x03, 0x00, 0x00, 0x00, 0x00, 0x00, 0x00, 0x02,
  0x28, 0x00, 0x00, 0x00, 0x2c, 0xff, 0xff, 0xff,
  0x1b, 0x00, 0x00, 0x00, 0x6d, 0x6f, 0x64, 0x65,
  0x6c, 0x2f, 0x63, 0x6f, 0x6e, 0x76, 0x31, 0x64,
  0x2f, 0x43, 0x6f, 0x6e, 0x76, 0x31, 0x44, 0x2f,
  0x53, 0x71, 0x75, 0x65, 0x65, 0x7a, 0x65, 0x00,
  0x01, 0x00, 0x00, 0x00, 0x03, 0x00, 0x00, 0x00,
  0x00, 0x00, 0x16, 0x00, 0x1c, 0x00, 0x18, 0x00,
  0x17, 0x00, 0x10, 0x00, 0x0c, 0x00, 0x08, 0x00,
  0x00, 0x00, 0x00, 0x00, 0x00, 0x00, 0x07, 0x00,
  0x16, 0x00, 0x00, 0x00, 0x00, 0x00, 0x00, 0x01,
  0x14, 0x00, 0x00, 0x00, 0x14, 0x00, 0x00, 0x00,
  0x02, 0x00, 0x00, 0x00, 0x00, 0x00, 0x00, 0x02,
  0x30, 0x00, 0x00, 0x00, 0x8c, 0xff, 0xff, 0xff,
  0x22, 0x00, 0x00, 0x00, 0x6d, 0x6f, 0x64, 0x65,
  0x6c, 0x2f, 0x63, 0x6f, 0x6e, 0x76, 0x31, 0x64,
  0x2f, 0x43, 0x6f, 0x6e, 0x76, 0x31, 0x44, 0x2f,
  0x45, 0x78, 0x70, 0x61, 0x6e, 0x64, 0x44, 0x69,
  0x6d, 0x73, 0x2f, 0x64, 0x69, 0x6d, 0x00, 0x00,
  0x00, 0x00, 0x00, 0x00, 0x00, 0x00, 0x16, 0x00,
  0x1c, 0x00, 0x18, 0x00, 0x00, 0x00, 0x14, 0x00,
  0x10, 0x00, 0x0c, 0x00, 0x00, 0x00, 0x00, 0x00,
  0x08, 0x00, 0x07, 0x00, 0x16, 0x00, 0x00, 0x00,
  0x00, 0x00, 0x00, 0x01, 0x14, 0x00, 0x00, 0x00,
  0x24, 0x00, 0x00, 0x00, 0x24, 0x00, 0x00, 0x00,
  0x01, 0x00, 0x00, 0x00, 0x3c, 0x00, 0x00, 0x00,
  0x03, 0x00, 0x00, 0x00, 0xff, 0xff, 0xff, 0xff,
  0x41, 0x00, 0x00, 0x00, 0x06, 0x00, 0x00, 0x00,
  0x04, 0x00, 0x04, 0x00, 0x04, 0x00, 0x00, 0x00,
  0x19, 0x00, 0x00, 0x00, 0x73, 0x65, 0x72, 0x76,
  0x69, 0x6e, 0x67, 0x5f, 0x64, 0x65, 0x66, 0x61,
  0x75, 0x6c, 0x74, 0x5f, 0x69, 0x6e, 0x70, 0x75,
  0x74, 0x5f, 0x31, 0x3a, 0x30, 0x00, 0x00, 0x00,
  0x03, 0x00, 0x00, 0x00, 0x01, 0x00, 0x00, 0x00,
  0x41, 0x00, 0x00, 0x00, 0x06, 0x00, 0x00, 0x00,
  0x08, 0x00, 0x00, 0x00, 0xa0, 0x00, 0x00, 0x00,
  0x84, 0x00, 0x00, 0x00, 0x70, 0x00, 0x00, 0x00,
  0x54, 0x00, 0x00, 0x00, 0x40, 0x00, 0x00, 0x00,
  0x2c, 0x00, 0x00, 0x00, 0x18, 0x00, 0x00, 0x00,
  0x04, 0x00, 0x00, 0x00, 0xb4, 0xff, 0xff, 0xff,
  0x06, 0x00, 0x00, 0x00, 0x02, 0x00, 0x00, 0x00,
  0x00, 0x00, 0x00, 0x06, 0xc4, 0xff, 0xff, 0xff,
  0x19, 0x00, 0x00, 0x00, 0x02, 0x00, 0x00, 0x00,
  0x00, 0x00, 0x00, 0x19, 0xd4, 0xff, 0xff, 0xff,
  0x09, 0x00, 0x00, 0x00, 0x04, 0x00, 0x00, 0x00,
  0x00, 0x00, 0x00, 0x09, 0xe4, 0xff, 0xff, 0xff,
  0x28, 0x00, 0x00, 0x00, 0x02, 0x00, 0x00, 0x00,
  0x00, 0x00, 0x00, 0x28, 0xcc, 0xff, 0xff, 0xff,
  0x16, 0x00, 0x00, 0x00, 0x00, 0x00, 0x00, 0x16,
  0x0c, 0x00, 0x10, 0x00, 0x0f, 0x00, 0x00, 0x00,
  0x08, 0x00, 0x04, 0x00, 0x0c, 0x00, 0x00, 0x00,
  0x03, 0x00, 0x00, 0x00, 0x03, 0x00, 0x00, 0x00,
  0x00, 0x00, 0x00, 0x03, 0xf4, 0xff, 0xff, 0xff,
  0x46, 0x00, 0x00, 0x00, 0x00, 0x00, 0x00, 0x46,
  0x0c, 0x00, 0x0c, 0x00, 0x0b, 0x00, 0x00, 0x00,
  0x00, 0x00, 0x04, 0x00, 0x0c, 0x00, 0x00, 0x00,
  0x72, 0x00, 0x00, 0x00, 0x00, 0x00, 0x00, 0x72
};
const unsigned int model_25hz_tflite_len = 13416;

#endif
